{
  "και": 370859,
  "το": 149194,
  "του": 124507,
  "δε": 121832,
  "η": 116188,
  "των": 97847,
  "εν": 81643,
  "της": 72887,
  "την": 69134,
  "γαρ": 68756,
  "δ": 68008,
  "τα": 62966,
  "μεν": 61659,
  "ο": 54692,
  "μη": 51996,
  "τω": 50659,
  "α": 42074,
  "τον": 41165,
  "εις": 39537,
  "ως": 39043,
  "ου": 38772,
  "##ου": 37546,
  "τε": 37348,
  "προς": 36300,
  "ειναι": 34497,
  "δια": 34260,
  "ει": 34231,
  "αν": 32902,
  "επι": 32470,
  "περι": 32266,
  "τοις": 32192,
  "##ι": 31686,
  "##ς": 31073,
  "απο": 30635,
  "τι": 30064,
  "κατα": 30000,
  "εστιν": 28129,
  "γ": 27965,
  "οτι": 27424,
  "τη": 26617,
  "β": 25643,
  "εστι": 24573,
  "𐅵": 24507,
  "εκ": 23687,
  "ουκ": 23198,
  "##ʼ": 22579,
  "αλλα": 22225,
  "οι": 21768,
  "τους": 20174,
  "##ο": 20117,
  "τας": 20096,
  "ουν": 19836,
  "##ν": 19833,
  "παρα": 19566,
  "##ος": 19473,
  "τουτο": 19453,
  "αλλ": 17672,
  "νο": 17625,
  "##α": 17515,
  "αυτου": 17234,
  "εξ": 17211,
  "##ων": 17118,
  "ων": 16411,
  "##ω": 15625,
  "δι": 13801,
  "αυτων": 13583,
  "υπο": 13446,
  "##ρ": 13438,
  "χ": 13361,
  "τις": 13269,
  "ον": 13017,
  "ε": 12878,
  "αι": 12874,
  "##η": 12755,
  "ταυτα": 12704,
  "ϛ": 12644,
  "κ": 12502,
  "ιβ": 12343,
  "οιον": 11945,
  "δη": 11925,
  "ην": 11623,
  "τουτων": 11360,
  "γε": 11302,
  "αυτο": 11264,
  "##ον": 11164,
  "καθ": 10385,
  "##τος": 10239,
  "αυτω": 10201,
  "μετα": 9793,
  "με": 9779,
  "αυρη": 9777,
  "ουτως": 9757,
  "ω": 9741,
  "αυτης": 9667,
  "υπερ": 9642,
  "##ας": 9634,
  "ουδε": 9606,
  "σοι": 9599,
  "εαν": 9413,
  "ωσπερ": 9316,
  "ουτε": 9221,
  "μοι": 9192,
  "##του": 8921,
  "επει": 8833,
  "αυτον": 8713,
  "παντα": 8649,
  "##τ": 8487,
  "δυο": 8462,
  "υπ": 8338,
  "##ει": 8072,
  "μαλλον": 8059,
  "δει": 8026,
  "σου": 8020,
  "κατ": 8013,
  "##ε": 7911,
  "##μ": 7849,
  "ουδεν": 7724,
  "εχει": 7600,
  "##ις": 7575,
  "προ": 7562,
  "ζ": 7530,
  "μου": 7528,
  "συν": 7457,
  "ετι": 7420,
  "αυτη": 7403,
  "ωστε": 7392,
  "καισαρος": 7336,
  "τινα": 7236,
  "ταις": 7223,
  "παρ": 7221,
  "ιϛ": 7156,
  "##ως": 7069,
  "ημων": 7024,
  "σεβαστ": 6931,
  "νυν": 6894,
  "πως": 6891,
  "επ": 6804,
  "ομοιως": 6790,
  "ι": 6787,
  "π": 6711,
  "εσται": 6694,
  "##λ": 6690,
  "οταν": 6675,
  "ουχ": 6649,
  "ειη": 6580,
  "##ιου": 6560,
  "##φ": 6538,
  "\"": 6475,
  "αυτοις": 6469,
  "ημιν": 6467,
  "##θ": 6436,
  "##ης": 6429,
  "μ": 6362,
  "ετους": 6328,
  "##ειν": 6248,
  "παντων": 6242,
  "παν": 6177,
  "μονον": 6171,
  "##των": 6089,
  "αυ": 6010,
  "##δ": 5970,
  "εφ": 5944,
  "εχειν": 5941,
  "τωι": 5926,
  "τουτου": 5896,
  "ουτω": 5846,
  "αρα": 5821,
  "τινος": 5781,
  "τ": 5690,
  "αυτην": 5685,
  "##εως": 5651,
  "λογον": 5640,
  "αλλων": 5612,
  "κδ": 5553,
  "##κ": 5551,
  "θ": 5532,
  "##ται": 5484,
  "σε": 5433,
  "κυριου": 5411,
  "##ους": 5402,
  "##εν": 5394,
  "##τα": 5388,
  "αλλο": 5338,
  "##υ": 5322,
  "ιδ": 5320,
  "αρ": 5282,
  "παλιν": 5274,
  "##οι": 5252,
  "λ": 5190,
  "αει": 5172,
  "γινεται": 5158,
  "πρωτον": 5155,
  "##τι": 5116,
  "αυτος": 5059,
  "μερος": 5055,
  "αυτα": 5013,
  "πε": 4986,
  "μην": 4914,
  "σαραπ": 4873,
  "##β": 4852,
  "##γ": 4827,
  "θεων": 4825,
  "πετε": 4809,
  "##λιου": 4809,
  "κα": 4798,
  "##π": 4769,
  "ουδ": 4760,
  "##σ": 4755,
  "διο": 4731,
  "##χ": 4707,
  "αμα": 4610,
  "##αι": 4600,
  "##το": 4590,
  "##σι": 4541,
  "μητε": 4538,
  "πολεως": 4533,
  "πα": 4486,
  "ινα": 4460,
  "καθολου": 4403,
  "φυσιν": 4367,
  "##ιν": 4366,
  "ν": 4358,
  "—": 4356,
  "##ρα": 4334,
  "##ια": 4281,
  "ια": 4243,
  "τινι": 4219,
  "ψ": 4161,
  "κωμης": 4116,
  "απ": 4113,
  "εγω": 4106,
  "εκαστον": 4095,
  "σωμα": 4086,
  "γι": 4085,
  "##μου": 4085,
  "ιε": 4067,
  "μαλιστα": 4065,
  "λεγειν": 4061,
  "λογος": 4054,
  "αγαθον": 4011,
  "##ιος": 3992,
  "αφ": 3970,
  "τουτοις": 3966,
  "οις": 3929,
  "παντος": 3926,
  "οσα": 3865,
  "φα": 3860,
  "λεγεται": 3839,
  "##σιν": 3826,
  "μηδε": 3818,
  "αυτοκρατορος": 3801,
  "αυτους": 3794,
  "εισιν": 3780,
  "οντος": 3767,
  "ποτε": 3726,
  "προτερον": 3716,
  "μηδεν": 3713,
  "προσ": 3708,
  "οντων": 3705,
  "ιγ": 3704,
  "ηδη": 3702,
  "##ρη": 3688,
  "##ιων": 3671,
  "εμου": 3649,
  "γενη": 3648,
  "ειδος": 3631,
  "εως": 3629,
  "αρταβ": 3623,
  "##ιας": 3589,
  "δηλον": 3589,
  "ετερον": 3572,
  "ψυχης": 3545,
  "αναγκη": 3531,
  "υπαρχειν": 3530,
  "τροπον": 3521,
  "δεκα": 3482,
  "οντα": 3476,
  "ημας": 3464,
  "##οις": 3458,
  "##αν": 3436,
  "καν": 3434,
  "καθαπερ": 3408,
  "παντι": 3406,
  "##σθαι": 3390,
  "##υγ": 3379,
  "δοκει": 3378,
  "κε": 3363,
  "πολλα": 3356,
  "ταυτην": 3329,
  "εφη": 3321,
  "##ην": 3316,
  "##ικου": 3302,
  "σι": 3278,
  "γενος": 3267,
  "κερ": 3238,
  "χρονον": 3228,
  "μητρος": 3216,
  "εισι": 3163,
  "σωματος": 3145,
  "ινδ": 3138,
  "προκ": 3116,
  "αδυνατον": 3094,
  "##τω": 3091,
  "ης": 3074,
  "ωρ": 3072,
  "λεγει": 3071,
  "οπως": 3067,
  "##μεν": 3056,
  "ιη": 3038,
  "γης": 3035,
  "υ": 3025,
  "##κου": 3010,
  "τοιουτον": 3010,
  "ανθρωπος": 3005,
  "μερους": 2989,
  "συ": 2988,
  "##σεν": 2957,
  "παυ": 2956,
  "πασι": 2924,
  "λογου": 2915,
  "κη": 2913,
  "μηνος": 2904,
  "##νι": 2902,
  "ζωον": 2896,
  "##τη": 2869,
  "λογω": 2864,
  "/": 2864,
  "##νω": 2862,
  "καλως": 2842,
  "δραχμας": 2841,
  "##τον": 2838,
  "λβ": 2828,
  "τηι": 2825,
  "ημισυ": 2824,
  "φυσει": 2818,
  "ψυχη": 2815,
  "τοινυν": 2814,
  "πυρου": 2807,
  "απλως": 2804,
  "αργυριου": 2788,
  "αντωνινου": 2781,
  "τουτω": 2778,
  "σο": 2727,
  "πεντε": 2725,
  "πτολεμαιου": 2723,
  "ιζ": 2720,
  "παχ": 2718,
  "φησιν": 2717,
  "αντι": 2698,
  "μιαν": 2693,
  "θεου": 2689,
  "γινεσθαι": 2689,
  "αναγκαιον": 2680,
  "##ϛ": 2679,
  "##μενον": 2679,
  "ποιειν": 2673,
  "οπερ": 2661,
  "ταυτης": 2646,
  "αναγκης": 2641,
  "##λιος": 2614,
  "ενος": 2611,
  "ταυτον": 2610,
  "##ουσιν": 2608,
  "##θεως": 2607,
  "ρ": 2603,
  "##ιω": 2602,
  "υπαρχει": 2559,
  "γενεσθαι": 2558,
  "τινες": 2554,
  "##κα": 2545,
  "##ρων": 2544,
  "ολως": 2544,
  "##μενου": 2541,
  "##εσθαι": 2532,
  "τοιαυτα": 2530,
  "αρσιν": 2530,
  "ηρων": 2528,
  "υιος": 2521,
  "ευ": 2519,
  "επειδη": 2513,
  "μεσο": 2510,
  "οξυρ": 2508,
  "ποιει": 2507,
  "ειπειν": 2503,
  "##μα": 2490,
  "##ουσι": 2488,
  "##της": 2487,
  "λα": 2450,
  "ουσια": 2442,
  "ουτος": 2437,
  "που": 2435,
  "φλ": 2434,
  "##μων": 2429,
  "##ιαν": 2423,
  "κβ": 2418,
  "##δου": 2410,
  "φησι": 2402,
  "φαμεν": 2396,
  "ιθ": 2394,
  "τοτε": 2390,
  "πολυ": 2384,
  "##ιωνος": 2376,
  "νομου": 2376,
  "αληθες": 2372,
  "οτε": 2369,
  "##μενων": 2356,
  "𐅷": 2349,
  "χα": 2340,
  "##σου": 2334,
  "ας": 2334,
  "σ": 2333,
  "ανευ": 2326,
  "ορ": 2322,
  "χωρις": 2297,
  "τουτον": 2295,
  "ιδιον": 2293,
  "ενδεχεται": 2287,
  "##ιον": 2280,
  "##αμ": 2275,
  "αργ": 2274,
  "κολ": 2254,
  "λι": 2251,
  "ονο": 2250,
  "χαιρειν": 2239,
  "##ομ": 2237,
  "αδριανου": 2236,
  "αιτιον": 2226,
  "##υς": 2223,
  "μεντοι": 2223,
  "χρη": 2218,
  "εγ": 2214,
  "##χει": 2210,
  "ος": 2207,
  "πολει": 2202,
  "αρχη": 2200,
  "μεχρι": 2199,
  "σεν": 2194,
  "##τας": 2194,
  "##ομενον": 2158,
  "τελος": 2154,
  "##σεως": 2153,
  "##ουν": 2137,
  "αρχην": 2137,
  "φαρ": 2133,
  "πετ": 2133,
  "ανω": 2127,
  "τυ": 2126,
  "ειτε": 2121,
  "υμων": 2112,
  "μετ": 2105,
  "##ωι": 2090,
  "ηττον": 2088,
  "δυναμιν": 2084,
  "εικοσι": 2080,
  "λεγων": 2071,
  "##οιτο": 2070,
  "ητοι": 2064,
  "κο": 2063,
  "μαρκου": 2062,
  "##χι": 2062,
  "##ζ": 2060,
  "ειδη": 2056,
  "##ωφ": 2051,
  "##θη": 2048,
  "##νου": 2036,
  "##με": 2034,
  "##σει": 2030,
  "πο": 2027,
  "αλλου": 2026,
  "παπ": 2024,
  "ευσεβους": 2022,
  "πρ": 2013,
  "ειρηται": 2005,
  "ποτερον": 2005,
  "φαινεται": 1999,
  "##σα": 1992,
  "##ρο": 1991,
  "ομο": 1989,
  "δυναμει": 1987,
  "κγ": 1981,
  "ειπερ": 1981,
  "ουσης": 1972,
  "ουσιας": 1971,
  "δυναται": 1970,
  "ενεργεια": 1970,
  "ψυχην": 1964,
  "##εις": 1955,
  "αλλοις": 1952,
  "μισθω": 1951,
  "##δος": 1950,
  "##εται": 1948,
  "ξ": 1941,
  "γη": 1934,
  "υδωρ": 1923,
  "λευκον": 1922,
  "τοπ": 1915,
  "γερμαν": 1914,
  "πολλακις": 1913,
  "οκτω": 1905,
  "##μενα": 1902,
  "ενεκα": 1897,
  "λου": 1895,
  "##χου": 1892,
  "##βι": 1885,
  "μια": 1885,
  "##τες": 1882,
  "##οντος": 1877,
  "ενταυθα": 1875,
  "##ουφ": 1867,
  "τουτ": 1853,
  "τινων": 1846,
  "πυρ": 1846,
  "αρου": 1836,
  "αρτ": 1836,
  "##κε": 1832,
  "αλλως": 1831,
  "##ομεν": 1830,
  "κω": 1818,
  "γιγνεται": 1817,
  "##οντα": 1816,
  "συμβεβηκος": 1808,
  "##ες": 1806,
  "υλη": 1806,
  "μεταξυ": 1804,
  "##θου": 1798,
  "μερη": 1793,
  "ολον": 1786,
  "αιτιαν": 1786,
  "##ηται": 1780,
  "τοπον": 1774,
  "ενα": 1771,
  "αλ": 1771,
  "κθ": 1769,
  "αλληλων": 1762,
  "μηδ": 1762,
  "οινου": 1761,
  "μητ": 1758,
  "##σαι": 1742,
  "γην": 1737,
  "τοιουτων": 1737,
  "##σις": 1736,
  "θα": 1732,
  "χαριν": 1731,
  "ισι": 1729,
  "κϛ": 1728,
  "σιτου": 1727,
  "παντες": 1723,
  "ετερα": 1720,
  "εχ": 1716,
  "φυσις": 1712,
  "οικιας": 1709,
  "ανθρωπων": 1706,
  "τριτον": 1701,
  "εαυτου": 1701,
  "ανα": 1699,
  "φυσεως": 1691,
  "λεγω": 1689,
  "##μενος": 1680,
  "ινδικ": 1679,
  "κατω": 1679,
  "εκαστου": 1678,
  "χω": 1676,
  "##κον": 1673,
  "ετος": 1672,
  "μηνι": 1669,
  "ζωων": 1669,
  "ουσιαν": 1667,
  "σατ": 1665,
  "##θι": 1664,
  "ισως": 1664,
  "προγεγραμ": 1663,
  "##ηρου": 1661,
  "καλον": 1654,
  "πασης": 1649,
  "μηδενι": 1646,
  "##ουσα": 1644,
  "εξης": 1641,
  "ουκουν": 1640,
  "χοι": 1639,
  "επιστημη": 1637,
  "δραχ": 1635,
  "ισον": 1635,
  "##ωνος": 1631,
  "ονομα": 1629,
  "οσον": 1623,
  "##κων": 1622,
  "μαρ": 1621,
  "φοιβ": 1614,
  "κινησις": 1614,
  "ιν": 1611,
  "##κιου": 1611,
  "αθυρ": 1609,
  "εκεινο": 1609,
  "φανερον": 1606,
  "μο": 1603,
  "ετων": 1601,
  "ϙ": 1598,
  "αυτοι": 1596,
  "ομολογω": 1596,
  "κζ": 1596,
  "##χων": 1593,
  "αλληλοις": 1592,
  "γραμματα": 1589,
  "τιμην": 1589,
  "φ": 1587,
  "##λιω": 1586,
  "##ησεως": 1586,
  "διεγ": 1585,
  "δυνατον": 1574,
  "##ομενων": 1572,
  "πνε": 1572,
  "ταυτη": 1572,
  "αιτια": 1571,
  "ειπων": 1568,
  "γιγνεσθαι": 1567,
  "ορθως": 1563,
  "ουσα": 1561,
  "πατ": 1556,
  "πολλων": 1550,
  "επτα": 1548,
  "υμιν": 1546,
  "ουτ": 1546,
  "ανθρωπον": 1544,
  "αρχης": 1543,
  "##εγ": 1536,
  "##φερ": 1536,
  "απολλω": 1534,
  "##θε": 1531,
  "##ρου": 1529,
  "μεριδος": 1527,
  "θερμου": 1526,
  "αμφο": 1524,
  "οθεν": 1524,
  "εξω": 1523,
  "##μαι": 1522,
  "αυτ": 1519,
  "τρια": 1516,
  "σω": 1515,
  "##ιδος": 1514,
  "εμοι": 1512,
  "υφ": 1510,
  "ειπεν": 1508,
  "##ουχ": 1507,
  "ημεις": 1506,
  "μηνα": 1498,
  "κοινον": 1493,
  "εχω": 1492,
  "##σαν": 1485,
  "##κη": 1484,
  "εκεινου": 1482,
  "##μι": 1481,
  "πασαν": 1479,
  "##σε": 1478,
  "##ρι": 1477,
  "υστερον": 1477,
  "συμβαινει": 1476,
  "πανυ": 1475,
  "εστω": 1472,
  "θωθ": 1471,
  "##κεναι": 1470,
  "σαρ": 1464,
  "υπαρχον": 1464,
  "απειρον": 1464,
  "στο": 1462,
  "##θηναι": 1461,
  "απαντα": 1461,
  "ζην": 1458,
  "τινας": 1458,
  "##ρις": 1457,
  "εχων": 1457,
  "αντων": 1456,
  "ρι": 1455,
  "ηρακλειδου": 1455,
  "δειν": 1455,
  "##δι": 1454,
  "σωματα": 1454,
  "ανθρωπου": 1452,
  "ωστ": 1452,
  "χρονω": 1447,
  "διοτι": 1447,
  "##ενο": 1446,
  "εμε": 1446,
  "μερ": 1442,
  "κωμη": 1442,
  "κακον": 1441,
  "##ομενου": 1441,
  "εκεινων": 1440,
  "τρεις": 1439,
  "αλλω": 1439,
  "ελ": 1439,
  "##λα": 1438,
  "ουκετι": 1437,
  "απολλωνιου": 1434,
  "##οντες": 1432,
  "εποι": 1430,
  "συμπερασμα": 1430,
  "εχον": 1429,
  "τιμης": 1426,
  "μεσον": 1426,
  "κωμ": 1423,
  "γεω": 1423,
  "πτολ": 1422,
  "εχοντα": 1421,
  "οβ": 1420,
  "ους": 1420,
  "εκατον": 1420,
  "παντως": 1419,
  "υιου": 1417,
  "ημερας": 1417,
  "πακ": 1416,
  "βικ": 1413,
  "τοδε": 1413,
  "λιβ": 1412,
  "##ρος": 1411,
  "##τε": 1410,
  "καιτοι": 1410,
  "πατρος": 1407,
  "ηρακλ": 1405,
  "εκει": 1399,
  "παθος": 1398,
  "χι": 1397,
  "σωματων": 1397,
  "##ονται": 1395,
  "##ωθ": 1395,
  "##ωτος": 1391,
  "χρονου": 1388,
  "εναντια": 1387,
  "χο": 1383,
  "ομ": 1381,
  "ενεστωτος": 1381,
  "πολ": 1381,
  "να": 1380,
  "ισα": 1380,
  "αυτωι": 1379,
  "γουν": 1376,
  "λαμπροτα": 1367,
  "##κης": 1366,
  "##μενη": 1366,
  "ατ": 1364,
  "κλ": 1361,
  "λαβειν": 1359,
  "ξδ": 1359,
  "##τεον": 1359,
  "ευθυς": 1357,
  "σιτο": 1356,
  "θε": 1348,
  "αρετην": 1347,
  "υπαρχοντων": 1341,
  "##ριου": 1337,
  "δυνασθαι": 1337,
  "##ομενος": 1334,
  "κινησεως": 1334,
  "ταπ": 1332,
  "τοπου": 1331,
  "νους": 1330,
  "ιδιω": 1328,
  "ουλη": 1328,
  "ουτοι": 1326,
  "##ογ": 1323,
  "αρετη": 1319,
  "ανου": 1316,
  "##ριος": 1315,
  "εργον": 1313,
  "αλλας": 1312,
  "##ση": 1311,
  "χαιρη": 1309,
  "##ησις": 1307,
  "κριθ": 1307,
  "ερμου": 1307,
  "##μην": 1304,
  "πρακ": 1303,
  "φασιν": 1301,
  "εκφορ": 1299,
  "##θεν": 1299,
  "##σω": 1297,
  "ειτα": 1296,
  "##νε": 1294,
  "κληρου": 1290,
  "##ρω": 1287,
  "εκαστω": 1285,
  "λο": 1284,
  "γεωργ": 1282,
  "μερι": 1280,
  "πυ": 1279,
  "θησ": 1279,
  "πλην": 1276,
  "ωρος": 1275,
  "υλης": 1275,
  "πασιν": 1273,
  "νη": 1271,
  "##οντων": 1271,
  "φι": 1269,
  "σερ": 1268,
  "##κος": 1266,
  "##τικον": 1266,
  "κλη": 1266,
  "##χω": 1265,
  "##μενης": 1264,
  "##ξ": 1263,
  "πλεον": 1263,
  "μα": 1261,
  "πασα": 1261,
  "ενι": 1259,
  "##μεθα": 1256,
  "αρουρας": 1253,
  "λογ": 1248,
  "νου": 1248,
  "##ουσης": 1246,
  "σωματι": 1246,
  "ομως": 1246,
  "αρσ": 1245,
  "εργ": 1244,
  "δικαιον": 1244,
  "αυτας": 1243,
  "μεμι": 1241,
  "πλειω": 1241,
  "ωσαυτως": 1240,
  "##ιτ": 1238,
  "κινησιν": 1238,
  "##νο": 1236,
  "θεον": 1236,
  "αρχας": 1235,
  "##την": 1234,
  "μεγεθος": 1234,
  "πολιν": 1233,
  "γινονται": 1229,
  "εναντιον": 1229,
  "ημ": 1228,
  "παθη": 1228,
  "λεγομεν": 1228,
  "μεγιστου": 1227,
  "τραιανου": 1226,
  "αργυ": 1225,
  "βιον": 1225,
  "παμ": 1222,
  "κινεισθαι": 1220,
  "ιου": 1217,
  "λογων": 1216,
  "νουν": 1216,
  "αλλον": 1214,
  "##ρεως": 1214,
  "υδατος": 1213,
  "αγαθων": 1212,
  "##μενω": 1210,
  "σεου": 1210,
  "##μενοι": 1206,
  "λογους": 1205,
  "μεθ": 1203,
  "αληθη": 1201,
  "πληθος": 1201,
  "επικ": 1200,
  "κυριων": 1200,
  "θεω": 1197,
  "ουσαν": 1197,
  "ουθεν": 1194,
  "##νη": 1193,
  "##μη": 1192,
  "αχ": 1190,
  "καισαρ": 1186,
  "τοιαυτη": 1185,
  "ομοι": 1184,
  "παντας": 1181,
  "##ορ": 1179,
  "προκειται": 1178,
  "εργα": 1177,
  "αμ": 1174,
  "##ειας": 1173,
  "ενεστ": 1171,
  "ψευδος": 1171,
  "θεος": 1168,
  "χρυσου": 1167,
  "επιστα": 1162,
  "σχηματι": 1161,
  "σημειον": 1160,
  "αριθμον": 1159,
  "οιμαι": 1156,
  "γενηται": 1156,
  "ετερου": 1156,
  "σαμβ": 1151,
  "ρκ": 1149,
  "εγραψα": 1149,
  "ζω": 1148,
  "φο": 1148,
  "διαφερει": 1147,
  "##οσι": 1142,
  "##σης": 1138,
  "ουδενι": 1137,
  "##σθω": 1136,
  "εκτος": 1135,
  "ουδεις": 1134,
  "διαγ": 1133,
  "αυται": 1132,
  "σωκρατες": 1131,
  "##κω": 1129,
  "##αβου": 1128,
  "λε": 1121,
  "τριων": 1121,
  "υλην": 1121,
  "μαγ": 1119,
  "##ομενα": 1119,
  "τριακοντα": 1116,
  "ανδρος": 1116,
  "εαυτον": 1116,
  "οικια": 1114,
  "αλλην": 1113,
  "απα": 1110,
  "κου": 1109,
  "βεβαιω": 1108,
  "θερμον": 1107,
  "αμφοτερων": 1105,
  "επιστημην": 1105,
  "μυσ": 1104,
  "αρετης": 1104,
  "νε": 1103,
  "δυναμις": 1102,
  "γρ": 1102,
  "κρ": 1101,
  "αλεξανδρου": 1099,
  "ειπε": 1098,
  "##μον": 1097,
  "φαν": 1097,
  "##λι": 1095,
  "λοι": 1095,
  "πυρος": 1095,
  "ελαιου": 1092,
  "ουαλερι": 1089,
  "υμας": 1086,
  "αξιω": 1086,
  "##θαι": 1085,
  "τος": 1084,
  "##μενην": 1083,
  "##ευς": 1079,
  "δημ": 1079,
  "ιδια": 1078,
  "μετρω": 1077,
  "γενει": 1075,
  "##ουσαν": 1074,
  "##ουτο": 1070,
  "μεγα": 1070,
  "μιας": 1069,
  "##μωνος": 1069,
  "##γραφ": 1068,
  "τοπω": 1067,
  "αγ": 1061,
  "##ειου": 1059,
  "κοι": 1058,
  "##ομεθα": 1058,
  "##ματος": 1056,
  "##ρης": 1055,
  "αλληλους": 1055,
  "αλλοι": 1055,
  "ταυτας": 1053,
  "##ιμ": 1052,
  "ειδεναι": 1051,
  "εκαστα": 1049,
  "απηλιω": 1048,
  "καθως": 1047,
  "τεταρτον": 1047,
  "τασ": 1046,
  "καραν": 1046,
  "διονυσιου": 1046,
  "##κν": 1046,
  "##μο": 1043,
  "κυριως": 1043,
  "αισθησιν": 1043,
  "πτολεμαι": 1042,
  "##ωσιν": 1040,
  "πρωτω": 1040,
  "λεγουσιν": 1040,
  "συλλογισμος": 1039,
  "##λου": 1038,
  "ορων": 1037,
  "θεα": 1036,
  "ερμι": 1034,
  "δεσ": 1034,
  "απαντων": 1033,
  "ανθρωπω": 1033,
  "αερος": 1033,
  "λεγομενον": 1031,
  "##ητι": 1029,
  "θη": 1028,
  "κυρια": 1026,
  "##δη": 1025,
  "αλλη": 1025,
  "γενους": 1024,
  "αλλος": 1023,
  "νομισμα": 1022,
  "##ϙ": 1022,
  "ατοπον": 1018,
  "##τιον": 1017,
  "πραγματων": 1017,
  "εχουσι": 1016,
  "##να": 1012,
  "##χε": 1012,
  "χρησθαι": 1012,
  "##θεντα": 1012,
  "πασ": 1012,
  "εναντιων": 1012,
  "φασι": 1011,
  "διαφορας": 1011,
  "αλλους": 1010,
  "ειδους": 1010,
  "παγου": 1010,
  "κινειται": 1009,
  "βορρα": 1006,
  "απερ": 1005,
  "##ομενοι": 1005,
  "##χη": 1004,
  "μικρον": 1001,
  "ηρα": 1000,
  "πολλοι": 999,
  "ερμο": 999,
  "##ρον": 997,
  "ιωαννου": 996,
  "αγαθου": 996,
  "##μενοις": 993,
  "τιβεριου": 993,
  "διαφορα": 993,
  "##τικη": 993,
  "##ησαι": 990,
  "οντι": 990,
  "τει": 986,
  "τελ": 985,
  "λη": 983,
  "εαυτω": 982,
  "δεσποτου": 981,
  "τουτους": 981,
  "πτολεμαιος": 977,
  "πρωτα": 976,
  "επερω": 975,
  "ειδει": 975,
  "σχεδον": 974,
  "μερει": 974,
  "##χος": 971,
  "##οντας": 971,
  "υι": 971,
  "δυναμεως": 971,
  "υποκειμενον": 970,
  "αλληλα": 970,
  "χρονος": 969,
  "πεπρα": 968,
  "##κεν": 967,
  "αιτιας": 967,
  "ελαττον": 967,
  "φως": 967,
  "εχουσιν": 966,
  "πας": 966,
  "ομοιον": 966,
  "##θεις": 964,
  "##ινου": 964,
  "ετη": 964,
  "##γε": 963,
  "λοιπον": 961,
  "##δων": 961,
  "##πε": 960,
  "ητις": 959,
  "ποιον": 959,
  "##ομαι": 958,
  "##ματα": 957,
  "καλα": 956,
  "εντος": 956,
  "υιω": 952,
  "σχημα": 952,
  "γενεσιν": 952,
  "λγ": 950,
  "##ικον": 950,
  "εξωθεν": 950,
  "δημοσιων": 949,
  "γεν": 949,
  "δοξαν": 949,
  "ηδονη": 949,
  "διος": 948,
  "##αρ": 946,
  "##υτος": 946,
  "ρυπ": 944,
  "##αις": 943,
  "σωκρατης": 942,
  "##ενα": 942,
  "##οντι": 941,
  "πρωτου": 940,
  "αριθμος": 940,
  "ενεργειαν": 940,
  "μετρη": 939,
  "δευτερον": 939,
  "εκατερον": 939,
  "πτολε": 938,
  "##μενους": 938,
  "##ωμεν": 938,
  "##υν": 935,
  "βασι": 934,
  "παση": 934,
  "ταν": 933,
  "##ακ": 931,
  "νοτου": 929,
  "νι": 928,
  "##ηρ": 928,
  "ποιησαι": 928,
  "ερι": 922,
  "##θεντος": 922,
  "##λογ": 921,
  "καθο": 921,
  "πραγματος": 919,
  "τοιαυτην": 919,
  "##ομενης": 918,
  "λεγεσθαι": 918,
  "ουδενος": 917,
  "##οης": 916,
  "πραγμα": 916,
  "επειτα": 916,
  "##ικ": 915,
  "φακ": 915,
  "απεχ": 913,
  "ενοικ": 912,
  "##σας": 911,
  "ανθρωποις": 911,
  "##ασθαι": 910,
  "ολου": 906,
  "χαλκου": 905,
  "μι": 904,
  "επεται": 904,
  "θαι": 902,
  "ζυγ": 901,
  "μαρων": 901,
  "αηρ": 901,
  "ωμολογ": 898,
  "οικιαν": 898,
  "βα": 897,
  "αμφω": 895,
  "##ανου": 894,
  "αρπ": 893,
  "ναι": 891,
  "αμμωνιου": 889,
  "χρ": 888,
  "##εια": 888,
  "ζωα": 887,
  "φιλαδελφ": 885,
  "##λιων": 885,
  "μηδενος": 885,
  "θω": 884,
  "ευτυχους": 883,
  "##ραψ": 881,
  "αδελφος": 881,
  "απομ": 881,
  "τοπος": 881,
  "ζωου": 881,
  "ποσον": 880,
  "εγγυ": 878,
  "##σομεν": 877,
  "πριν": 877,
  "σακ": 877,
  "κοπ": 875,
  "##ρε": 874,
  "ειδων": 871,
  "μισθ": 869,
  "ουχι": 868,
  "##ερα": 867,
  "εσχ": 867,
  "##δα": 866,
  "##λια": 863,
  "##ομε": 863,
  "τιτου": 863,
  "ναυ": 862,
  "υγρον": 862,
  "##ικων": 861,
  "##ομενη": 861,
  "τοπων": 860,
  "##τικου": 860,
  "τρα": 859,
  "χειρος": 859,
  "λεγεις": 859,
  "θεους": 857,
  "πραγματα": 857,
  "##ηι": 856,
  "ηδονην": 856,
  "##μω": 855,
  "##εων": 855,
  "τοιουτος": 855,
  "πραττειν": 852,
  "λϛ": 851,
  "αδελ": 851,
  "αβ": 848,
  "πασχειν": 848,
  "τροφης": 846,
  "##ετ": 846,
  "##δωρ": 844,
  "ηρακλει": 843,
  "κριθης": 843,
  "απογ": 843,
  "φορου": 842,
  "μερων": 842,
  "αισθησις": 842,
  "ονοματι": 841,
  "##ματων": 841,
  "οπου": 840,
  "##ικης": 840,
  "εχοντων": 840,
  "##ησιν": 840,
  "λεγοντες": 840,
  "γρα": 836,
  "μειζον": 836,
  "αιρ": 835,
  "πη": 835,
  "προτασεων": 835,
  "##ριων": 834,
  "ετερων": 834,
  "αρχαι": 834,
  "ημερα": 833,
  "δραχμων": 832,
  "πολλοις": 832,
  "σπο": 831,
  "##δω": 829,
  "αγαθα": 829,
  "τουναντιον": 829,
  "ση": 828,
  "υιον": 828,
  "πλειονων": 828,
  "πλειους": 827,
  "ωριων": 826,
  "ταλλα": 824,
  "ηλιου": 822,
  "αριθμω": 821,
  "οραν": 821,
  "κωμην": 819,
  "##γυ": 818,
  "πρωτη": 818,
  "διδυμ": 817,
  "πι": 815,
  "παγ": 814,
  "εσχον": 813,
  "οικου": 813,
  "νησου": 813,
  "##τικων": 811,
  "##στου": 811,
  "ακολουθως": 810,
  "##τια": 810,
  "ημεραν": 809,
  "##οει": 808,
  "δωδεκα": 807,
  "πεντηκοντα": 807,
  "κολλου": 807,
  "κυ": 806,
  "##λο": 805,
  "μοριον": 805,
  "σφοδρα": 805,
  "σιν": 804,
  "ομολογ": 804,
  "##ειαν": 804,
  "##φα": 802,
  "σαβ": 801,
  "μαρτυρω": 801,
  "ποτ": 800,
  "οια": 799,
  "##τωρ": 798,
  "ταυτ": 797,
  "γινομενον": 795,
  "##κι": 794,
  "ιδι": 792,
  "##ορου": 792,
  "περας": 792,
  "ειρημενων": 792,
  "εφεξης": 791,
  "ομολογει": 790,
  "τοσουτον": 790,
  "θατερον": 789,
  "γειν": 788,
  "γυ": 788,
  "αποδο": 788,
  "χρειαν": 788,
  "##θεντων": 788,
  "##ευ": 788,
  "αερα": 787,
  "##αχ": 785,
  "αμμωνι": 785,
  "βο": 785,
  "##ησα": 783,
  "εκαστης": 783,
  "λεγουσι": 783,
  "σιτ": 781,
  "υπατειας": 780,
  "ολιγον": 779,
  "##νει": 778,
  "##εφ": 778,
  "κλαυδιου": 778,
  "πασας": 778,
  "αισθητων": 778,
  "περ": 777,
  "μονα": 777,
  "σεπ": 777,
  "ταυρ": 777,
  "γενεσεως": 777,
  "αποδωσω": 776,
  "αφη": 776,
  "##κην": 775,
  "τροφην": 775,
  "βελτιον": 775,
  "##ωνι": 774,
  "##ωσι": 774,
  "φιλων": 774,
  "ανδρων": 773,
  "##ουμενον": 772,
  "πετα": 771,
  "ρν": 769,
  "ερ": 769,
  "τεχνη": 769,
  "γενεσις": 769,
  "κινουμενον": 768,
  "τεσσαρες": 767,
  "προτασεις": 766,
  "εαυτων": 764,
  "##ργ": 763,
  "τιμ": 761,
  "οντες": 761,
  "λεγοι": 761,
  "εκεινα": 759,
  "τεχνην": 759,
  "τεσσ": 758,
  "πνευμα": 758,
  "αις": 758,
  "διαφοραν": 758,
  "εγενετο": 756,
  "##βε": 755,
  "##μιου": 754,
  "##ερ": 752,
  "ολ": 752,
  "καμη": 751,
  "κομ": 751,
  "αρπα": 749,
  "τεσσαρα": 747,
  "κερατι": 747,
  "λογοις": 747,
  "ομου": 746,
  "##ομενους": 746,
  "επιστημης": 746,
  "##ουντα": 745,
  "αισθησεως": 745,
  "διδυμου": 744,
  "##ουμεν": 744,
  "##βα": 742,
  "τυχη": 741,
  "απιων": 741,
  "ιερα": 741,
  "σπερμα": 741,
  "δυναμεις": 741,
  "κατηγορειται": 741,
  "σημαινει": 740,
  "χορ": 738,
  "##ιται": 738,
  "##υρου": 738,
  "κακως": 738,
  "##δια": 737,
  "„": 737,
  "ανδρα": 736,
  "αδελφου": 736,
  "ανηρ": 736,
  "γραμματ": 735,
  "αποδω": 733,
  "##τικην": 733,
  "πατηρ": 732,
  "δικης": 731,
  "μηθεν": 730,
  "ϡ": 730,
  "θεοις": 729,
  "##λιας": 729,
  "απεσ": 729,
  "πλατων": 729,
  "λοιπα": 728,
  "ετερω": 728,
  "εκεινω": 728,
  "##τικα": 727,
  "πολλους": 727,
  "εδει": 727,
  "ανθρωποι": 727,
  "εδα": 726,
  "βιου": 725,
  "ασ": 724,
  "##ολ": 724,
  "##οπ": 724,
  "τοι": 723,
  "αρχων": 723,
  "χρωμα": 723,
  "στα": 722,
  "καρπων": 722,
  "θο": 721,
  "ταλ": 721,
  "θειον": 721,
  "παραχρημα": 720,
  "στοιχεια": 720,
  "ευτυχ": 719,
  "λαμβανειν": 719,
  "λεγομενων": 719,
  "γεγονεναι": 717,
  "##θω": 717,
  "##θης": 716,
  "κτη": 716,
  "εννεα": 716,
  "βουλεται": 716,
  "##λων": 715,
  "τριτου": 714,
  "##κυσ": 714,
  "γενοιτο": 714,
  "απι": 713,
  "ανθρωπους": 713,
  "στρατηγω": 713,
  "ις": 712,
  "##χον": 712,
  "##δο": 711,
  "ευθυ": 711,
  "αδελφων": 710,
  "εσονται": 710,
  "##ουντος": 709,
  "##νος": 708,
  "ισιδωρου": 708,
  "αριθμου": 708,
  "παντη": 708,
  "αυταις": 708,
  "##εσι": 707,
  "##ηφ": 707,
  "ηδονης": 707,
  "αξιον": 706,
  "##τικω": 705,
  "εοικε": 705,
  "##τορος": 704,
  "δειξαι": 704,
  "τεσσαρας": 703,
  "τεσσαρων": 702,
  "μονας": 702,
  "##ιδ": 701,
  "υπαρχοντα": 701,
  "εκαστος": 701,
  "εοικεν": 701,
  "ειεν": 701,
  "σης": 700,
  "εκαστην": 699,
  "προκειμενον": 699,
  "οικειον": 699,
  "αλλης": 698,
  "ταυτο": 698,
  "γεγονεν": 698,
  "κακων": 697,
  "ζητειν": 697,
  "##εσ": 696,
  "ακουσας": 696,
  "χρηματισ": 695,
  "##ατο": 695,
  "##ομενω": 695,
  "ψα": 694,
  "πατρι": 694,
  "ποιεισθαι": 694,
  "##τικος": 693,
  "εαυτης": 693,
  "εμπροσθεν": 693,
  "λαμπ": 692,
  "##σεις": 689,
  "ετερας": 689,
  "τουτεστιν": 689,
  "ηρακλη": 688,
  "αρθ": 687,
  "εχοντες": 687,
  "γερ": 686,
  "εξει": 686,
  "##ικα": 684,
  "επιγον": 684,
  "##οκ": 684,
  "αληθως": 684,
  "##τοι": 682,
  "αναγ": 681,
  "εμ": 679,
  "μορια": 679,
  "διοσκορου": 678,
  "μητρο": 678,
  "##χωρ": 678,
  "ησαν": 678,
  "λαμ": 677,
  "##ϡ": 677,
  "##ματι": 676,
  "χωραν": 676,
  "μεγαλου": 675,
  "μαξιμιανου": 675,
  "ενδεχεσθαι": 674,
  "ονοματος": 673,
  "χει": 672,
  "ερμα": 671,
  "ετεραν": 671,
  "##σον": 670,
  "στρ": 670,
  "##πι": 670,
  "##ριον": 670,
  "ανδ": 668,
  "##οδωρου": 668,
  "δημο": 668,
  "οσοι": 668,
  "εικος": 668,
  "παρθ": 667,
  "στρα": 667,
  "ονοι": 667,
  "τουτεστι": 667,
  "ενδοξ": 665,
  "αντιν": 664,
  "δικαιου": 664,
  "υποκειμενου": 664,
  "ερμ": 663,
  "αμφοτερα": 663,
  "εχομεν": 662,
  "χρησιμον": 661,
  "τιμη": 659,
  "εντευθεν": 658,
  "αδ": 657,
  "##εισθαι": 657,
  "γενομενου": 656,
  "κοινων": 656,
  "ηδυ": 656,
  "##ιδι": 653,
  "μελαν": 653,
  "##τικης": 652,
  "##φι": 652,
  "πλειστον": 652,
  "##δει": 650,
  "##λε": 650,
  "απογραφ": 650,
  "φλαυ": 648,
  "νομων": 648,
  "φυλ": 648,
  "εκεινοις": 648,
  "μον": 647,
  "ομνυ": 646,
  "αυγουστου": 646,
  "εχοντος": 645,
  "αισθητον": 644,
  "##ικω": 643,
  "φορ": 643,
  "νομ": 643,
  "##ουντες": 643,
  "σισ": 642,
  "αληθης": 642,
  "##ρει": 641,
  "ισχυρ": 641,
  "λαβων": 639,
  "τουδε": 639,
  "##ειτο": 638,
  "##οπαι": 638,
  "πασων": 638,
  "τοιαυτης": 638,
  "τρις": 637,
  "ρξ": 637,
  "εξηκοντα": 637,
  "ταλαντα": 637,
  "##ησιος": 636,
  "αρτεμι": 636,
  "δεσποτων": 636,
  "##γι": 635,
  "##υσι": 635,
  "ωι": 635,
  "εκεινος": 634,
  "πραξεως": 634,
  "οιν": 634,
  "βουλη": 634,
  "ειπον": 634,
  "εχουσα": 633,
  "αρυ": 632,
  "ρλ": 632,
  "απολ": 631,
  "##τει": 630,
  "##ικη": 630,
  "αχρι": 629,
  "ωριωνος": 629,
  "##ψ": 629,
  "νος": 628,
  "βησ": 627,
  "##κως": 627,
  "##ναι": 626,
  "μηδενα": 625,
  "##ουμενου": 625,
  "μελι": 624,
  "κομμο": 624,
  "ασπ": 622,
  "φιλα": 622,
  "πρα": 622,
  "κοινη": 621,
  "##ατος": 620,
  "ειτ": 620,
  "κοσμου": 620,
  "κωλυει": 620,
  "ται": 618,
  "##ρια": 618,
  "αγχ": 618,
  "ζωοις": 617,
  "κυκλω": 617,
  "##θις": 616,
  "φωνη": 615,
  "##κει": 613,
  "θεν": 613,
  "τεχνης": 613,
  "κυριε": 612,
  "μεσου": 610,
  "##ελ": 609,
  "##ουρ": 609,
  "δος": 608,
  "απολλωνιος": 608,
  "εργων": 608,
  "γαιου": 608,
  "##μος": 607,
  "##ιωνι": 607,
  "ονοματα": 607,
  "εκαστη": 607,
  "##κοι": 606,
  "οικ": 606,
  "νομον": 606,
  "πολεμων": 606,
  "##τιου": 605,
  "επιφαν": 605,
  "ικανως": 605,
  "ωσι": 604,
  "ψυχρον": 604,
  "##θεισης": 603,
  "αρχ": 603,
  "επελε": 603,
  "ποια": 603,
  "δημοσια": 602,
  "κενον": 602,
  "##γα": 601,
  "γυνη": 600,
  "δευτερου": 598,
  "φυλακ": 598,
  "στοιχειων": 598,
  "δημοσιω": 597,
  "γραμ": 596,
  "##ιρ": 596,
  "##θεντες": 596,
  "ομοια": 596,
  "##οχ": 595,
  "προγ": 595,
  "πρωτης": 594,
  "νομι": 594,
  "ενεκεν": 594,
  "##πα": 593,
  "παθ": 593,
  "##τως": 593,
  "δικαια": 593,
  "##φυ": 592,
  "λογισ": 592,
  "ολων": 592,
  "αδελφω": 591,
  "##τερον": 591,
  "ανθ": 591,
  "αρχι": 591,
  "επειδαν": 591,
  "οντας": 590,
  "ταξιν": 590,
  "λεγομενα": 590,
  "μηκος": 590,
  "##οσ": 589,
  "μοριων": 589,
  "γυναικος": 588,
  "ρμ": 588,
  "##μης": 587,
  "##σιου": 587,
  "νομους": 586,
  "γινομενων": 586,
  "αμφοιν": 586,
  "ρα": 585,
  "##χο": 585,
  "θηβαι": 585,
  "τυχην": 584,
  "φιλοπ": 584,
  "##ζειν": 584,
  "αλεξ": 583,
  "λδ": 583,
  "ουθ": 583,
  "απολλωνι": 582,
  "##απ": 582,
  "οψιν": 582,
  "ενια": 582,
  "εχη": 580,
  "μειζων": 580,
  "##δης": 579,
  "εσο": 579,
  "καστωρ": 579,
  "κρονιων": 579,
  "ορος": 579,
  "αποδειξις": 579,
  "ναυλ": 578,
  "ιωαννης": 578,
  "##ειται": 578,
  "κακα": 578,
  "πασαι": 578,
  "καλου": 576,
  "##ουντας": 576,
  "εικοτως": 576,
  "ορισμος": 576,
  "##κας": 575,
  "τροπω": 574,
  "##ουντων": 574,
  "μεγιστον": 574,
  "αισθητα": 574,
  "αιωνιου": 572,
  "γενομενον": 572,
  "τισιν": 572,
  "ενεργειας": 572,
  "βοηθ": 571,
  "κυριω": 570,
  "ορα": 569,
  "##εχ": 568,
  "ατε": 568,
  "σαν": 567,
  "##θει": 566,
  "ουσι": 566,
  "εχοι": 566,
  "βαλ": 565,
  "τεσσαρακοντα": 564,
  "παλαι": 563,
  "βασιλεως": 563,
  "σα": 562,
  "εφην": 562,
  "σει": 561,
  "ηρακ": 560,
  "τερ": 560,
  "υπατ": 560,
  "##πω": 560,
  "γραφει": 560,
  "ουσων": 560,
  "εσεσθαι": 560,
  "##δελφ": 559,
  "λαμβανει": 559,
  "ηρω": 558,
  "##τυν": 558,
  "βια": 557,
  "##στι": 556,
  "τρι": 556,
  "χαρ": 556,
  "κεφαλαιου": 556,
  "τιν": 556,
  "αγαθος": 556,
  "##τατον": 556,
  "δεδεικται": 556,
  "υμ": 555,
  "##εα": 555,
  "αλλαι": 555,
  "##ραν": 553,
  "μνημης": 553,
  "οικο": 553,
  "ηρακλης": 552,
  "##κο": 552,
  "##λη": 552,
  "νεω": 550,
  "πανταχου": 550,
  "παθων": 550,
  "##οου": 549,
  "βουλ": 549,
  "παροντος": 549,
  "πατερα": 549,
  "τοπους": 549,
  "οψεως": 549,
  "##σασθαι": 548,
  "ιωσηφ": 548,
  "μδ": 548,
  "##και": 547,
  "##ομενοις": 547,
  "εικοσ": 546,
  "##οτος": 546,
  "μαι": 545,
  "πρωτην": 545,
  "ανδρι": 545,
  "αριθμων": 545,
  "##υσις": 544,
  "##οντ": 543,
  "λεκτεον": 543,
  "ουλ": 542,
  "ωδε": 542,
  "νον": 542,
  "μειζονος": 542,
  "διοικ": 541,
  "##ατι": 540,
  "δομι": 540,
  "αυλης": 540,
  "βιβλι": 540,
  "πραξεις": 540,
  "κινησεις": 540,
  "κυρ": 539,
  "μισ": 538,
  "ημει": 538,
  "νερ": 538,
  "επιμ": 538,
  "μετρον": 538,
  "##αντος": 537,
  "πρεσβ": 537,
  "##τερα": 537,
  "συναγ": 536,
  "δαπανη": 536,
  "ψαι": 534,
  "πνευματος": 534,
  "απαν": 534,
  "αισθανεσθαι": 534,
  "μονος": 533,
  "κυριον": 532,
  "χε": 532,
  "πρωτων": 532,
  "αγοραν": 532,
  "διαστημα": 532,
  "##κοντα": 531,
  "μενει": 531,
  "##ερω": 531,
  "##𐅵": 530,
  "ιερας": 530,
  "φασ": 530,
  "υπαρχουσα": 530,
  "λογοι": 530,
  "##ομενην": 530,
  "δευτερω": 530,
  "οντως": 530,
  "προβ": 529,
  "τελεσ": 529,
  "μονη": 529,
  "ψο": 528,
  "νω": 525,
  "μων": 525,
  "εκουσιως": 525,
  "βασιλειας": 525,
  "ευδαιμον": 525,
  "ουδεμια": 525,
  "ιδειν": 525,
  "ορους": 525,
  "##ορι": 524,
  "##δες": 524,
  "καστο": 524,
  "διελ": 524,
  "επιφ": 523,
  "εαυτους": 522,
  "##ικην": 522,
  "##ουμενων": 522,
  "εκεινον": 522,
  "υπαρξει": 522,
  "##ρας": 521,
  "θεοδωρου": 521,
  "μικ": 521,
  "αριθ": 520,
  "σεβ": 520,
  "κινη": 520,
  "αναλογον": 520,
  "ενιοτε": 520,
  "ημισους": 519,
  "ηρακλειδης": 517,
  "πλειον": 517,
  "βουλομαι": 517,
  "καθαρον": 517,
  "τηδε": 517,
  "χωμα": 516,
  "ιερεως": 516,
  "##ραμ": 516,
  "##χα": 516,
  "πεφυκεν": 516,
  "πολιτειας": 516,
  "##μας": 515,
  "##ωνται": 515,
  "εγγυς": 514,
  "ορωμεν": 514,
  "ανυπερ": 513,
  "οσαι": 513,
  "μεταβολη": 513,
  "ασφαλειαν": 512,
  "##θιου": 512,
  "δω": 512,
  "εξις": 512,
  "αναγκαια": 512,
  "βερ": 511,
  "ηλιον": 511,
  "αυθις": 511,
  "διανοια": 511,
  "παρασχ": 510,
  "##ηνου": 510,
  "αιρετον": 509,
  "ταμ": 508,
  "δουναι": 508,
  "##νον": 507,
  "μεγ": 507,
  "##αιου": 507,
  "κρι": 507,
  "##θησεται": 507,
  "παρουσης": 506,
  "μονω": 506,
  "ραδιον": 506,
  "##εξ": 505,
  "##τους": 505,
  "σεση": 505,
  "αμπ": 505,
  "ορον": 505,
  "ουδαμως": 505,
  "εχεις": 504,
  "ιδεας": 504,
  "πρασ": 503,
  "σπ": 503,
  "εξιν": 503,
  "ενιοι": 503,
  "ημερ": 502,
  "προτερα": 502,
  "προσθεν": 502,
  "υποκειμενω": 502,
  "πρωτος": 502,
  "απολλ": 501,
  "κοινα": 501,
  "ενδεχομενον": 501,
  "μει": 500,
  "κελευσ": 500,
  "επιμελη": 500,
  "δειται": 500,
  "απαρ": 499,
  "ηλι": 499,
  "##υσ": 499,
  "##εμ": 499,
  "##σεται": 499,
  "##αντες": 499,
  "ιδιαν": 499,
  "βιω": 499,
  "δο": 498,
  "##βου": 497,
  "##νιου": 497,
  "τετ": 497,
  "τισι": 497,
  "ηλιος": 497,
  "##ρεμ": 496,
  "δικαιω": 496,
  "κρατι": 496,
  "μενειν": 496,
  "τυχης": 495,
  "επιστολην": 495,
  "##μονος": 495,
  "##ησει": 495,
  "δοκειν": 495,
  "αντιγραφον": 494,
  "γειτονες": 494,
  "##υσεως": 494,
  "εγωγε": 494,
  "##λει": 493,
  "γιν": 493,
  "βω": 493,
  "##εσιν": 492,
  "βουλομενος": 492,
  "αληθειαν": 492,
  "ετερος": 491,
  "γραψαι": 491,
  "##φθ": 491,
  "διδοναι": 491,
  "μεσω": 491,
  "χρηματα": 491,
  "διοπερ": 491,
  "εσχατον": 491,
  "αποφασις": 491,
  "ουσιαι": 491,
  "διονυσιος": 490,
  "##νης": 490,
  "αιμα": 490,
  "οψις": 490,
  "ταχυ": 489,
  "##ιοις": 489,
  "διοικη": 489,
  "αβρο": 489,
  "ναυτ": 489,
  "καλων": 489,
  "χρηματων": 489,
  "οφι": 488,
  "ηρακλε": 488,
  "##αμενος": 488,
  "σφραγ": 488,
  "##ητος": 487,
  "ημερων": 487,
  "τοιουτου": 487,
  "επιζητ": 486,
  "νεου": 486,
  "τεταρτου": 486,
  "##υρε": 486,
  "##δε": 485,
  "πλ": 485,
  "δοξης": 485,
  "χαλεπον": 485,
  "πλειστα": 484,
  "λω": 484,
  "##ριν": 484,
  "##βιου": 484,
  "##θα": 484,
  "γενομενος": 484,
  "προσο": 484,
  "αποδειξιν": 484,
  "αληθειας": 484,
  "ασκ": 483,
  "χειρο": 483,
  "δεκατ": 483,
  "καρ": 483,
  "ουπω": 483,
  "φερεται": 483,
  "κι": 482,
  "λημ": 482,
  "ηι": 481,
  "##λον": 480,
  "##αυ": 480,
  "##ητε": 480,
  "απηλ": 480,
  "χωρας": 480,
  "##ημα": 479,
  "πρω": 479,
  "λοιπων": 479,
  "ετεροις": 479,
  "αντικειμενον": 479,
  "##υρι": 478,
  "##οβ": 478,
  "ενθαδε": 478,
  "νομισματος": 478,
  "##ιαι": 478,
  "##ιθ": 478,
  "πολις": 478,
  "ποι": 477,
  "μεμφ": 477,
  "γινομενα": 477,
  "##τοις": 477,
  "κοσμον": 477,
  "δηπου": 477,
  "φη": 476,
  "##που": 476,
  "προσηκει": 476,
  "τυγχανει": 476,
  "ολω": 476,
  "ιερου": 475,
  "μβ": 475,
  "ιουλιου": 475,
  "ποιων": 475,
  "ονοματων": 475,
  "ημι": 474,
  "πληρους": 474,
  "ειμι": 473,
  "πω": 473,
  "πωλ": 473,
  "κειται": 473,
  "ελαττονος": 473,
  "λευκου": 473,
  "δηλοι": 473,
  "χρειας": 472,
  "φιλους": 472,
  "χωρ": 472,
  "οιος": 472,
  "γιγνομενον": 472,
  "ηδονας": 472,
  "νεων": 471,
  "φαινεσθαι": 471,
  "τοιουτοις": 471,
  "κρε": 470,
  "##ιανου": 470,
  "ποιουσιν": 470,
  "κινει": 470,
  "δημητριου": 469,
  "καλειται": 469,
  "ποθεν": 469,
  "##κους": 468,
  "αποδουναι": 468,
  "##σιος": 468,
  "ισιδωρος": 467,
  "##αμεν": 467,
  "##ουσαι": 467,
  "αβρααμ": 467,
  "σεμ": 467,
  "σν": 467,
  "αρτι": 467,
  "αληθ": 467,
  "##οη": 465,
  "προκειμενου": 465,
  "##ουντι": 465,
  "επαγ": 464,
  "καθα": 464,
  "ψευδη": 464,
  "φιλω": 463,
  "παρει": 463,
  "νοειν": 463,
  "##εου": 462,
  "γυναικα": 462,
  "##ετω": 462,
  "οσων": 461,
  "##μενας": 461,
  "##ησι": 461,
  "μετοχ": 461,
  "παι": 461,
  "τροφη": 461,
  "ηρας": 460,
  "ποιειται": 460,
  "γενομενης": 460,
  "##ικος": 460,
  "σαι": 458,
  "δρ": 458,
  "απολλωνιω": 458,
  "ουσιων": 458,
  "πολλας": 458,
  "κνι": 458,
  "χρηται": 458,
  "ελαττων": 458,
  "αδελφον": 457,
  "αποτε": 457,
  "##ηλ": 457,
  "δικην": 457,
  "##στα": 456,
  "ευπο": 456,
  "τελους": 456,
  "ανασκευ": 456,
  "φιλια": 456,
  "οτιουν": 456,
  "αποφατικον": 456,
  "##αβ": 455,
  "##ρους": 455,
  "##θειη": 455,
  "αποδειξεως": 455,
  "αγορασ": 454,
  "αριστον": 454,
  "ογδο": 454,
  "ρπ": 454,
  "οξ": 454,
  "αμμωνιος": 453,
  "νβ": 453,
  "υπαρχουσαν": 453,
  "ακουειν": 453,
  "##λω": 452,
  "ρο": 452,
  "ωσιν": 452,
  "δικαιοσυνη": 452,
  "αισθησεις": 452,
  "δοξα": 452,
  "διαφοραι": 452,
  "##τατω": 451,
  "##τιανου": 451,
  "τεκνων": 451,
  "ταδε": 451,
  "ιερω": 451,
  "δικαιως": 451,
  "αλογον": 451,
  "φαναι": 451,
  "αισχρον": 451,
  "ποιω": 450,
  "ς": 450,
  "##εκ": 450,
  "##ισα": 450,
  "αφροδισι": 450,
  "ορκον": 450,
  "εκεινης": 450,
  "εθ": 449,
  "##θιος": 449,
  "πλησιον": 449,
  "ερμαι": 448,
  "διακοσιας": 448,
  "νομος": 448,
  "συνταξ": 448,
  "χαιρ": 447,
  "οξυ": 447,
  "##χις": 447,
  "απη": 447,
  "καιρον": 447,
  "εθος": 447,
  "ζωω": 447,
  "μυ": 446,
  "λζ": 446,
  "ρε": 446,
  "σωτηρι": 446,
  "ταξει": 446,
  "επιδι": 446,
  "διαφερειν": 446,
  "##τιων": 445,
  "φιλο": 445,
  "ραδιως": 445,
  "δηλω": 444,
  "παυλου": 444,
  "ειδως": 444,
  "τουνομα": 444,
  "##εναι": 443,
  "ποιησει": 443,
  "διανοιαν": 443,
  "σωκρατους": 442,
  "παιδων": 442,
  "δις": 442,
  "φερεσθαι": 442,
  "τροπος": 442,
  "ταναντια": 442,
  "##κειν": 441,
  "##ριω": 441,
  "μηκετι": 441,
  "##λας": 440,
  "μεσος": 440,
  "ολης": 440,
  "βαρυ": 440,
  "##τικαι": 440,
  "λεγονται": 440,
  "κινησει": 440,
  "φιλον": 439,
  "δεινα": 439,
  "ευδ": 439,
  "εαυτην": 439,
  "υδατι": 439,
  "λθ": 438,
  "##μουν": 438,
  "οικεια": 438,
  "λικιν": 438,
  "πικ": 438,
  "δεικνυται": 438,
  "αιτιων": 438,
  "πυρων": 437,
  "##λιοι": 436,
  "##ηναι": 436,
  "βερεν": 436,
  "##ησας": 435,
  "σημερον": 435,
  "φαινηται": 435,
  "αυλη": 435,
  "μενον": 435,
  "ακυ": 435,
  "##ευτος": 435,
  "σοφια": 435,
  "δειξας": 435,
  "ευθεως": 434,
  "οψων": 434,
  "τοποις": 434,
  "##στον": 433,
  "ιδιου": 433,
  "##υμ": 432,
  "σην": 432,
  "##θεισα": 432,
  "κωμα": 432,
  "##κοις": 432,
  "κοινως": 431,
  "παντελως": 431,
  "πολλην": 431,
  "λογικον": 431,
  "κεφαλ": 430,
  "αυτοκρατορων": 430,
  "πεσ": 430,
  "εαυτοις": 430,
  "γραφ": 429,
  "##τηι": 429,
  "υποθη": 428,
  "##οκρατ": 428,
  "αποδιδ": 428,
  "διανοιας": 428,
  "ποιητικον": 428,
  "##ρυ": 427,
  "##εω": 427,
  "πυλ": 427,
  "δυοιν": 427,
  "δρα": 426,
  "διχα": 426,
  "##ωτου": 426,
  "##νευ": 426,
  "φορον": 426,
  "πανι": 426,
  "μονο": 426,
  "ενωχ": 426,
  "φορα": 426,
  "##οιν": 425,
  "ακουσι": 425,
  "αλι": 425,
  "αγαθω": 425,
  "τατ": 424,
  "χρεια": 424,
  "##μει": 424,
  "αμφοτεροι": 424,
  "πολλου": 424,
  "ιδιων": 424,
  "υποκειται": 424,
  "ανδρες": 424,
  "αρχειν": 424,
  "ποιη": 423,
  "ξυλ": 423,
  "λει": 423,
  "##οιτ": 423,
  "αρο": 423,
  "##ουνται": 423,
  "γενων": 423,
  "προτασις": 423,
  "##φων": 422,
  "##σο": 422,
  "φαντασια": 422,
  "τιθ": 421,
  "δακ": 421,
  "περτιν": 421,
  "##οτητος": 421,
  "τριτω": 421,
  "οικον": 420,
  "δοξη": 420,
  "##λημ": 420,
  "εα": 420,
  "ποιησασθαι": 420,
  "αριστοτελης": 420,
  "##τειν": 419,
  "τακ": 419,
  "δυσι": 419,
  "λιαν": 418,
  "ταχ": 418,
  "νεκ": 418,
  "χρυσιου": 418,
  "υπομνημα": 418,
  "ταχα": 418,
  "καθαρ": 418,
  "αδηλον": 418,
  "##καλ": 417,
  "χορτου": 417,
  "ενεχ": 417,
  "αναγραφ": 417,
  "συνεχες": 417,
  "ηκιστα": 417,
  "σιλβ": 416,
  "αλληλ": 416,
  "ενιαυτον": 416,
  "νει": 416,
  "τραπ": 416,
  "φημι": 416,
  "μειζονα": 416,
  "γιγνονται": 416,
  "δεικνυσιν": 416,
  "##ισ": 415,
  "##περ": 415,
  "##ιλου": 415,
  "φοι": 415,
  "υγρου": 415,
  "##σαρ": 414,
  "ομολογουμεν": 414,
  "##ακος": 414,
  "μενων": 414,
  "ισας": 414,
  "ακριβως": 414,
  "λυπη": 414,
  "##αριων": 413,
  "γομ": 413,
  "##μια": 413,
  "πεντα": 413,
  "επανω": 413,
  "ευλογως": 413,
  "κοιν": 413,
  "ελεγον": 413,
  "μητρι": 412,
  "ενδεκα": 412,
  "##καμεν": 412,
  "πυρι": 412,
  "επιβαλλον": 412,
  "παθους": 412,
  "νων": 411,
  "##τις": 411,
  "##ωτο": 411,
  "γλυκυ": 411,
  "##λος": 410,
  "##ανος": 410,
  "μηδεμιαν": 410,
  "βουλει": 410,
  "##πτ": 410,
  "##τικοι": 410,
  "ξε": 409,
  "επερ": 409,
  "δευτερας": 409,
  "ανωθεν": 409,
  "υπαρχ": 409,
  "φερε": 409,
  "κακου": 409,
  "νεμεσ": 408,
  "φυ": 408,
  "φιλου": 408,
  "εντα": 408,
  "ετει": 408,
  "φροντισ": 408,
  "βεβαι": 408,
  "##κιν": 408,
  "διογενους": 408,
  "πολλαχως": 408,
  "σφ": 407,
  "συνο": 407,
  "σμ": 407,
  "μηνας": 407,
  "##ταις": 407,
  "γεγονε": 407,
  "ζη": 407,
  "διοκλητιανου": 407,
  "λεγωμεν": 407,
  "ευλογον": 407,
  "απλουν": 406,
  "οιονται": 406,
  "##ελλ": 405,
  "##στω": 405,
  "##ριας": 405,
  "αργυριον": 405,
  "##ζεσθαι": 405,
  "πρωτως": 405,
  "πανταπασιν": 405,
  "υπηρετ": 404,
  "##θετως": 404,
  "τεταρ": 404,
  "εκατερου": 404,
  "##διου": 403,
  "ερωτα": 403,
  "δεξιω": 403,
  "δευτερα": 403,
  "ουρανον": 403,
  "ταρ": 402,
  "δανει": 402,
  "αναλωμα": 402,
  "δυναμενον": 402,
  "##οτης": 402,
  "κινουν": 402,
  "φαντασιαν": 402,
  "δηλονοτι": 401,
  "επαναγ": 401,
  "οικονομ": 401,
  "##ματε": 401,
  "μισθου": 401,
  "ερει": 401,
  "φωνης": 401,
  "πεφυκε": 401,
  "πορρω": 401,
  "ξυλα": 400,
  "καθαρου": 400,
  "δεκ": 400,
  "##ορος": 400,
  "μεταβαλλει": 400,
  "τεκνα": 399,
  "δυνανται": 399,
  "##μοι": 398,
  "μεγιστων": 398,
  "##τιν": 398,
  "ουδενα": 398,
  "μαλα": 398,
  "απειρα": 398,
  "ενθα": 397,
  "ρη": 397,
  "##ουμ": 397,
  "ορμ": 397,
  "φερ": 397,
  "τροφ": 397,
  "δημοσιον": 397,
  "διαιρεσιν": 397,
  "στερησις": 397,
  "επιτροπ": 396,
  "κασ": 396,
  "τωδε": 396,
  "μεμετρη": 396,
  "ταξεως": 396,
  "καθηκει": 396,
  "##ουμενοι": 396,
  "χειρον": 396,
  "οιει": 396,
  "αγιας": 395,
  "βε": 395,
  "γυμνασια": 395,
  "πραξις": 395,
  "διωρυ": 395,
  "νεφ": 395,
  "ευδοκ": 395,
  "οστις": 395,
  "επιστ": 394,
  "διαδο": 394,
  "διαγραφ": 394,
  "βασιλει": 394,
  "##ειω": 393,
  "διαστ": 393,
  "ποτι": 393,
  "γαλλ": 393,
  "καιρω": 393,
  "ιππος": 393,
  "##εθε": 393,
  "συμβεβηκεν": 393,
  "##οτητα": 393,
  "σχηματος": 393,
  "«": 393,
  "εισ": 392,
  "ηγεμονος": 392,
  "μεγαλα": 392,
  "ελαττω": 392,
  "δημοσιου": 391,
  "τεω": 391,
  "ομοιοτητα": 391,
  "ψυχ": 391,
  "τρο": 390,
  "παροντων": 390,
  "##σαντες": 390,
  "τηνδε": 390,
  "κτημα": 390,
  "σκ": 390,
  "ελαι": 389,
  "χρησιν": 389,
  "προκει": 389,
  "##οπολι": 389,
  "φιλοσοφιας": 389,
  "ποιησεις": 388,
  "ιερων": 388,
  "ιδιοις": 388,
  "ορι": 388,
  "ουσιν": 388,
  "ανηλω": 387,
  "λεγ": 387,
  "τετρακ": 387,
  "##λλ": 387,
  "##σια": 387,
  "θαττον": 387,
  "εκεινη": 387,
  "##θαρ": 387,
  "##ιλ": 386,
  "οσω": 386,
  "γινομενης": 386,
  "ταυ": 386,
  "ανν": 386,
  "ποιουσι": 386,
  "εκεινοι": 386,
  "δεικνυσι": 386,
  "ταβ": 385,
  "τελει": 385,
  "##ωμεθα": 385,
  "θεοι": 385,
  "οιδεν": 385,
  "μονου": 385,
  "φαινομενον": 385,
  "##ηνος": 384,
  "##φις": 384,
  "πολυν": 384,
  "θων": 384,
  "αερι": 384,
  "κοσμος": 384,
  "στοιχειον": 384,
  "αριθμους": 384,
  "αμφοτεροις": 383,
  "κλαυ": 383,
  "##σαμεν": 383,
  "προβλημα": 383,
  "ειν": 382,
  "##δωρω": 382,
  "εγραψεν": 382,
  "κωνσταντιου": 382,
  "βου": 382,
  "νυνι": 382,
  "παντ": 382,
  "φθορα": 382,
  "πεν": 381,
  "κυριος": 381,
  "νομω": 381,
  "##λιον": 381,
  "τεφ": 381,
  "πλατος": 381,
  "##εντα": 380,
  "##αρα": 380,
  "πιν": 380,
  "##ωμαι": 380,
  "##δωρου": 380,
  "δημητρι": 380,
  "βασιλικον": 380,
  "ευδαιμων": 380,
  "φανη": 380,
  "πολεις": 380,
  "διεληλυθ": 379,
  "χρηστη": 379,
  "ακολουθει": 379,
  "συλλογισμον": 379,
  "##τιος": 378,
  "##σαντος": 378,
  "##ροι": 378,
  "κειμενον": 378,
  "συμπεφ": 378,
  "οποτε": 378,
  "παλ": 377,
  "##πολ": 377,
  "μακρο": 377,
  "συρ": 377,
  "φατ": 377,
  "εξεδ": 377,
  "##ουσων": 377,
  "##οτα": 377,
  "μεταβαλλειν": 377,
  "ευχομαι": 376,
  "θυ": 376,
  "δεον": 376,
  "##ουμενος": 376,
  "μονης": 376,
  "##τατα": 376,
  "γραμμη": 376,
  "κομισ": 375,
  "##σεων": 375,
  "αφροδιτης": 375,
  "υγιειαν": 375,
  "μητερα": 375,
  "##τικως": 375,
  "οιεται": 375,
  "σον": 374,
  "ισου": 374,
  "κινειν": 374,
  "ψευδης": 374,
  "##αριου": 373,
  "##τορ": 373,
  "οινον": 373,
  "σαφως": 373,
  "ελθειν": 372,
  "μακαριου": 372,
  "υπατειαν": 372,
  "φορε": 372,
  "νεα": 372,
  "ανδρας": 372,
  "##μοις": 372,
  "αιδιον": 372,
  "»": 372,
  "υποτε": 371,
  "θι": 371,
  "συλλογισμου": 371,
  "ορισμον": 371,
  "πεμ": 370,
  "κυρι": 370,
  "χρονων": 370,
  "τοκ": 370,
  "αναγκαιας": 369,
  "κατηγορ": 369,
  "ειποι": 369,
  "αληθους": 369,
  "μω": 368,
  "γον": 368,
  "##ειων": 368,
  "δυ": 367,
  "αρουρης": 367,
  "χιλιας": 367,
  "ιερον": 367,
  "##ηρε": 367,
  "ουδεποτε": 367,
  "αριθμη": 367,
  "αισθησει": 367,
  "##μιν": 366,
  "##νικ": 366,
  "δην": 366,
  "υγια": 366,
  "δικαιοσυνης": 366,
  "βακχ": 365,
  "ευσεβ": 365,
  "επιδεδω": 365,
  "παρασχειν": 365,
  "ονομ": 365,
  "μικρα": 365,
  "επιστασθαι": 365,
  "καλλος": 365,
  "ειπομεν": 365,
  "δεικνυναι": 365,
  "κελλ": 364,
  "ουρανου": 364,
  "##βις": 363,
  "κλει": 363,
  "##μους": 363,
  "ρϙ": 363,
  "βορ": 363,
  "ελεγεν": 363,
  "ειρημενον": 363,
  "αιματος": 363,
  "χαλ": 362,
  "νϛ": 362,
  "μγ": 362,
  "υπολογ": 362,
  "υπογ": 362,
  "ιερ": 362,
  "γραμματων": 362,
  "παρακ": 362,
  "πολλω": 362,
  "θερμοτητος": 362,
  "αποφατικη": 362,
  "##διων": 361,
  "καθοτι": 361,
  "##ωσης": 361,
  "##πη": 361,
  "δουλος": 361,
  "δυναμεων": 361,
  "αριστα": 361,
  "οικειαν": 361,
  "αδυνατου": 361,
  "##κυ": 360,
  "γαιος": 360,
  "##αρχιας": 360,
  "##ρειν": 360,
  "θεσιν": 360,
  "μεγεθους": 360,
  "##οτατου": 359,
  "νεχ": 359,
  "##ασιν": 359,
  "γνωσιν": 359,
  "φιλ": 358,
  "ιμ": 358,
  "εσχηκεναι": 358,
  "οιδα": 358,
  "λαχ": 358,
  "ειχεν": 358,
  "λογγ": 358,
  "παραδο": 358,
  "ειρημενα": 358,
  "αποριαν": 358,
  "κακια": 358,
  "##βιων": 357,
  "##σειν": 357,
  "##τηθεις": 357,
  "ωμο": 357,
  "νικαν": 357,
  "##βη": 357,
  "κριθων": 357,
  "καταγ": 357,
  "##σατο": 357,
  "##i": 356,
  "υπογραφ": 356,
  "κομι": 356,
  "αντικ": 356,
  "λεγομενου": 356,
  "ογ": 356,
  "αξιαν": 356,
  "##τορι": 355,
  "εξα": 355,
  "τοτ": 355,
  "πλατωνος": 355,
  "ιερεων": 355,
  "λεγοντος": 355,
  "υποθεσεως": 355,
  "ευδαιμονιαν": 355,
  "διπουν": 355,
  "ματι": 354,
  "ευεργετ": 354,
  "ουσας": 354,
  "φιλομη": 354,
  "φωνην": 354,
  "αιρετωτερον": 354,
  "συλλογισμων": 354,
  "απολλων": 353,
  "αραβ": 353,
  "σωτηρ": 353,
  "αμπελ": 353,
  "μν": 353,
  "ψι": 353,
  "επιστημων": 353,
  "αρετας": 353,
  "συλλογισ": 353,
  "δισ": 352,
  "αναγκαιων": 352,
  "τριτης": 352,
  "διαφορων": 352,
  "πασχει": 352,
  "επεμψα": 351,
  "θεμιστο": 351,
  "εαυτο": 351,
  "καταφατικον": 351,
  "επιγ": 350,
  "##στη": 350,
  "αγιου": 350,
  "κατοικι": 350,
  "πανα": 350,
  "διανοη": 350,
  "διοσκο": 349,
  "##ωρ": 349,
  "ικανον": 349,
  "θηλυ": 349,
  "οικειων": 349,
  "γυναικι": 348,
  "παραβ": 348,
  "##τωι": 348,
  "ιππ": 348,
  "##νυ": 348,
  "αναπαλιν": 348,
  "προτασιν": 348,
  "##ωσ": 347,
  "##πολι": 347,
  "##ησε": 347,
  "##ομην": 347,
  "συνεχως": 347,
  "νοει": 347,
  "εξεις": 347,
  "πληθους": 347,
  "σκοπειν": 347,
  "αω": 346,
  "##αγ": 346,
  "απατωρ": 346,
  "παραδειγμα": 346,
  "καρδια": 346,
  "σχ": 345,
  "πλινθ": 345,
  "##σθη": 345,
  "τρυφων": 345,
  "##ησεν": 345,
  "καμ": 345,
  "επιτη": 345,
  "μηδι": 345,
  "αδιαιρετον": 345,
  "##μεναι": 345,
  "πηχ": 345,
  "επιθυμιας": 345,
  "επεσθαι": 345,
  "επομενον": 345,
  "##κις": 344,
  "τεκ": 344,
  "δου": 344,
  "οπ": 344,
  "πολλη": 344,
  "##σιας": 344,
  "οικι": 344,
  "συμφερον": 344,
  "συμβεβηκοτα": 344,
  "πελ": 343,
  "##υρ": 343,
  "##μις": 343,
  "φιλοξεν": 343,
  "ευεργετων": 343,
  "##μιος": 343,
  "##υθ": 343,
  "εναντιου": 343,
  "ειθ": 343,
  "ζωην": 343,
  "αισθησεων": 343,
  "πτολεμαιω": 342,
  "εχουσαν": 342,
  "##αφ": 342,
  "##ροις": 342,
  "φιλοι": 342,
  "αλεξανδ": 341,
  "φης": 341,
  "λαμπρας": 341,
  "αγι": 341,
  "ζωης": 341,
  "πιστιν": 341,
  "αρι": 340,
  "δεδα": 340,
  "τοιαυτας": 340,
  "αρπαγ": 340,
  "ρυ": 340,
  "αμεινον": 340,
  "βη": 339,
  "λεων": 339,
  "##στ": 339,
  "ρου": 339,
  "##στος": 339,
  "τεως": 339,
  "οικειας": 339,
  "##αρχ": 339,
  "παυσ": 339,
  "σοφιας": 339,
  "θανατον": 339,
  "ακ": 338,
  "##τυ": 338,
  "μεγαλης": 338,
  "φιλιαν": 338,
  "υπαρχουσης": 338,
  "##αντα": 338,
  "βραχυ": 338,
  "ηδονων": 338,
  "##υσο": 337,
  "γεωργου": 337,
  "αλε": 337,
  "εξουσιαν": 337,
  "ομοιων": 337,
  "ετεροι": 337,
  "ταυταις": 336,
  "μητηρ": 336,
  "κοινου": 336,
  "διασημ": 336,
  "κατηγορουμενον": 336,
  "##θον": 335,
  "##ιβ": 335,
  "απορ": 335,
  "ελαττονα": 335,
  "φιλι": 334,
  "αθην": 334,
  "διονυσιω": 334,
  "γεωργιου": 334,
  "νειλου": 334,
  "απασι": 334,
  "##αμενοι": 334,
  "σιτι": 334,
  "##οδι": 334,
  "υπαρχοντος": 334,
  "ορισ": 334,
  "ουσαι": 334,
  "αδικειν": 334,
  "λαχαν": 333,
  "πισ": 333,
  "##μερ": 333,
  "διοσκου": 333,
  "μελανος": 333,
  "θεο": 333,
  "τοιουτοι": 333,
  "κακιας": 333,
  "##ιη": 332,
  "παραχωρ": 332,
  "κρατειν": 332,
  "ηρακλεους": 332,
  "υιων": 332,
  "θαυμαστον": 332,
  "κινδυνω": 331,
  "σωτηρος": 331,
  "ηραι": 331,
  "##σθωμεν": 331,
  "μεταβολην": 331,
  "φρονησις": 331,
  "##σων": 330,
  "πιτ": 330,
  "φιλε": 330,
  "##ατ": 330,
  "γυναικων": 330,
  "καταφατικης": 330,
  "αχιλλ": 329,
  "##ετε": 329,
  "υπαρ": 329,
  "απαξ": 329,
  "##ουμενης": 329,
  "τελειον": 329,
  "μονην": 329,
  "συναγεται": 329,
  "υγιαινειν": 328,
  "πετρου": 328,
  "διακ": 328,
  "πρασιν": 328,
  "στερη": 328,
  "τοιουτους": 328,
  "##τικας": 328,
  "δεσμ": 327,
  "νδ": 327,
  "τοκου": 327,
  "ηδε": 327,
  "μϛ": 327,
  "εντ": 327,
  "##δην": 327,
  "μετεχειν": 327,
  "πολεμον": 327,
  "επιφερ": 326,
  "##βλ": 326,
  "θατερου": 326,
  "##εστατου": 326,
  "##εστατων": 326,
  "δοξειεν": 326,
  "ποιουν": 326,
  "γραμματι": 325,
  "αποτα": 325,
  "##ωπ": 325,
  "ομοιω": 325,
  "επιτιμ": 325,
  "φερειν": 325,
  "τοιουτω": 325,
  "κυκλου": 325,
  "σωμασιν": 325,
  "φαντασιας": 325,
  "γνωριμον": 325,
  "κον": 324,
  "διδυμος": 324,
  "κουρ": 324,
  "##ωλ": 324,
  "##ηθη": 324,
  "θειοτατου": 324,
  "αλω": 324,
  "φορας": 323,
  "υπερφυ": 323,
  "νομιζειν": 323,
  "διαλεκ": 323,
  "σιτον": 322,
  "##αμην": 322,
  "αδελφη": 322,
  "μειζω": 322,
  "ηδεως": 322,
  "ρον": 322,
  "εποιησεν": 322,
  "ευλογ": 322,
  "συμβαινειν": 322,
  "μετε": 321,
  "σωσι": 321,
  "μανθανειν": 321,
  "βασιλευς": 321,
  "δεικνυ": 321,
  "##διον": 320,
  "συμβι": 320,
  "παιδια": 320,
  "θει": 320,
  "δηλου": 320,
  "πανευ": 320,
  "εκεινην": 320,
  "##δας": 319,
  "δημοσι": 319,
  "αλεξανδρεια": 319,
  "εκατερα": 319,
  "αρε": 318,
  "##φιλ": 318,
  "πληρης": 318,
  "τραπεζης": 318,
  "##ποι": 318,
  "γενησεται": 318,
  "ευρειν": 318,
  "ζωη": 318,
  "καταβ": 317,
  "δα": 317,
  "αυθαιρ": 317,
  "ηρ": 317,
  "γεμ": 316,
  "οδον": 316,
  "##κοτων": 316,
  "υποκειμενων": 316,
  "μεγεθει": 316,
  "τουρ": 316,
  "χρωνται": 316,
  "ευδοκιμ": 316,
  "ενιων": 316,
  "σκεπτεον": 316,
  "ξα": 315,
  "##πον": 315,
  "νομισματα": 315,
  "οποταν": 315,
  "##ρως": 315,
  "βασιλικου": 315,
  "φιλιας": 315,
  "ιωαν": 315,
  "##ασι": 315,
  "γεωμετ": 315,
  "βαδι": 315,
  "ϛʹ": 315,
  "αποκριν": 315,
  "αντιστρεφει": 315,
  "##πο": 314,
  "##ειλ": 314,
  "προσχ": 314,
  "ολην": 314,
  "##ταν": 314,
  "μεμ": 314,
  "χον": 314,
  "αμπελου": 314,
  "επικαλ": 314,
  "##ογραμ": 314,
  "ανται": 314,
  "σοφος": 314,
  "κτ": 313,
  "εξηγη": 313,
  "πατερ": 313,
  "λων": 313,
  "δεη": 313,
  "υγιειας": 313,
  "απαιτη": 313,
  "##ρητος": 313,
  "εργω": 313,
  "ορω": 313,
  "δοκουσιν": 313,
  "νοητον": 313,
  "διοσκορος": 312,
  "##μιω": 312,
  "##δελ": 312,
  "παιδας": 312,
  "##τερος": 312,
  "κοινωνιαν": 312,
  "φυτων": 312,
  "φιλη": 311,
  "διονυσια": 311,
  "ογδοηκοντα": 311,
  "δικαιων": 311,
  "λυσι": 311,
  "αποφατικης": 311,
  "##καν": 310,
  "λακ": 310,
  "λον": 310,
  "περσης": 310,
  "εμης": 310,
  "πετρων": 310,
  "ευδαιμονος": 310,
  "αυτοθεν": 310,
  "ζητει": 310,
  "##οτερον": 310,
  "αξιοι": 310,
  "φιλοσοφιαν": 310,
  "αποφα": 310,
  "οε": 309,
  "##ηνι": 309,
  "σαμ": 309,
  "γραμμα": 309,
  "δεσποτ": 309,
  "ταξ": 309,
  "##ζει": 309,
  "πδ": 309,
  "γιγνομενα": 309,
  "θελω": 308,
  "ουδεμιαν": 308,
  "αιων": 308,
  "βουλονται": 308,
  "##τικοις": 308,
  "αφαιρ": 308,
  "φθορας": 308,
  "αναιρ": 308,
  "φρονησιν": 308,
  "μουσικον": 308,
  "γενεσει": 308,
  "διαιρε": 307,
  "αθ": 307,
  "##ωσεν": 307,
  "φυτα": 307,
  "##κιος": 307,
  "προαιρεσιν": 307,
  "τοιουτο": 307,
  "δογματι": 307,
  "##ιωι": 306,
  "εκα": 306,
  "##τωσαν": 306,
  "νυκτος": 306,
  "επαρ": 306,
  "εκτε": 306,
  "##οξ": 306,
  "φαινομενα": 306,
  "συμβεβηκε": 306,
  "βασιλευοντος": 305,
  "κωνσταντινου": 305,
  "##υτο": 305,
  "##σθηναι": 305,
  "αναλ": 305,
  "εω": 305,
  "χρωμενος": 305,
  "ανδρεια": 305,
  "φθειρεται": 305,
  "καταφατικη": 305,
  "κοντα": 304,
  "##σπ": 304,
  "διμοι": 304,
  "χρυσι": 304,
  "υγιεια": 304,
  "κρον": 304,
  "αφε": 304,
  "αιτιος": 304,
  "αλληλαις": 304,
  "δεησει": 304,
  "ολιγου": 304,
  "φωτος": 304,
  "εντελεχεια": 304,
  "πουπ": 303,
  "κληρονομ": 303,
  "αψ": 303,
  "##τισ": 303,
  "λευκω": 303,
  "##ησαν": 303,
  "διεξ": 303,
  "οργανον": 303,
  "καταχ": 303,
  "πληθει": 303,
  "πεμψον": 302,
  "οσ": 302,
  "εμην": 302,
  "##ιδα": 302,
  "νεον": 302,
  "##ανι": 302,
  "στρατηγ": 302,
  "ειδοτος": 302,
  "τησδε": 302,
  "αλλαις": 302,
  "εχοντας": 302,
  "αρρεν": 302,
  "υγεια": 301,
  "τιτ": 301,
  "##βιος": 301,
  "μαθειν": 301,
  "##ειον": 301,
  "ανεπι": 301,
  "αρμενια": 301,
  "##χης": 301,
  "χρωματων": 301,
  "κρινειν": 301,
  "εμψυχον": 301,
  "αναγκαιως": 300,
  "ορκω": 300,
  "χειρι": 300,
  "διπλασιον": 300,
  "μεταβολης": 300,
  "##διω": 299,
  "δεκατης": 299,
  "ειργ": 299,
  "οκτα": 299,
  "αναλω": 299,
  "##τατος": 299,
  "εων": 299,
  "φιλος": 299,
  "πολλαι": 299,
  "ερως": 299,
  "##κοτος": 299,
  "τοσαυτα": 299,
  "προτασεως": 299,
  "εκεινους": 299,
  "τοιαυται": 299,
  "λεγοντας": 299,
  "καρδιαν": 299,
  "γο": 298,
  "αναγκην": 298,
  "##θων": 298,
  "αρουρα": 298,
  "διακει": 298,
  "νερωνος": 298,
  "ετ": 298,
  "μεγαλων": 298,
  "παραπαν": 298,
  "##ξε": 297,
  "##σθ": 297,
  "λαβη": 297,
  "##ζον": 297,
  "θατ": 297,
  "τοιονδε": 297,
  "ιατρος": 296,
  "##ανω": 296,
  "##κτου": 296,
  "##ουση": 296,
  "##φει": 296,
  "ες": 296,
  "##λακ": 296,
  "##μενως": 296,
  "φαινονται": 296,
  "ειμαρμενην": 296,
  "συλλογισμοι": 296,
  "##ιτου": 295,
  "παρεχει": 295,
  "διονυσ": 295,
  "εκτον": 295,
  "οργανων": 295,
  "πολιτειαν": 295,
  "##λις": 294,
  "κοσμ": 294,
  "παρεξ": 294,
  "κρατη": 294,
  "ξυλον": 294,
  "φιλοσοφια": 294,
  "φοραν": 293,
  "ξηρον": 293,
  "##αλ": 293,
  "ιησου": 293,
  "αυτηι": 293,
  "##ομι": 293,
  "##ττ": 293,
  "##ουσας": 293,
  "##ουμενα": 293,
  "μονων": 293,
  "πασαις": 293,
  "ματ": 292,
  "εκτου": 292,
  "απολλωνος": 292,
  "αξιων": 292,
  "ωσ": 292,
  "απελ": 292,
  "μζ": 292,
  "αμοι": 292,
  "##αστ": 292,
  "παρη": 292,
  "εμαυτον": 292,
  "κτηματος": 292,
  "ομοιου": 292,
  "ολιγα": 292,
  "τεχνας": 292,
  "ασωματον": 292,
  "λεγοντα": 292,
  "γνωμη": 291,
  "δικαι": 291,
  "κοσ": 291,
  "παιδ": 291,
  "διω": 291,
  "στι": 291,
  "διπ": 291,
  "γενομενων": 291,
  "βαρος": 291,
  "επιθυμιαν": 291,
  "φρονησεως": 291,
  "αρετων": 291,
  "ενε": 290,
  "δημητριος": 290,
  "##θο": 290,
  "επιθυμια": 290,
  "νυνδη": 290,
  "##ραφ": 289,
  "απαιτησ": 289,
  "πολυδευ": 289,
  "##εχωρη": 289,
  "οφειλει": 289,
  "ασκληπιαδου": 289,
  "μουσαι": 289,
  "ποτα": 289,
  "πολλης": 289,
  "απαιτ": 289,
  "απεργ": 289,
  "εναντιας": 289,
  "ληφθη": 289,
  "δυας": 289,
  "##ατε": 288,
  "αρουραν": 288,
  "παραδωσω": 288,
  "απεγ": 288,
  "παρον": 288,
  "ταμι": 288,
  "θαυ": 288,
  "επιμελειαν": 288,
  "θυγατηρ": 288,
  "κεφαλην": 288,
  "διαφεροντα": 288,
  "ατο": 287,
  "μετρα": 287,
  "ιππον": 287,
  "ρυμη": 287,
  "σωζ": 287,
  "κρισιν": 287,
  "εχοντι": 287,
  "μελας": 287,
  "ευλαβ": 287,
  "μελ": 286,
  "##υτι": 286,
  "τελευτην": 286,
  "αξια": 286,
  "κειμενων": 286,
  "γινομενη": 286,
  "εδοκει": 286,
  "τριγωνον": 286,
  "αριθμοι": 286,
  "απεχειν": 285,
  "ψω": 285,
  "##τρα": 285,
  "γεγ": 285,
  "πτο": 285,
  "ομολογιαν": 285,
  "εναρ": 285,
  "αγορα": 285,
  "κλεοπατρας": 285,
  "##μπ": 285,
  "##εβ": 285,
  "επιμελ": 285,
  "πραγματι": 285,
  "φρονειν": 285,
  "ελεγε": 285,
  "γνωσις": 285,
  "βιος": 285,
  "πλη": 284,
  "##αρια": 284,
  "μεγαλη": 284,
  "##λαου": 284,
  "##ζων": 284,
  "περιεχει": 284,
  "πεποιημαι": 284,
  "τν": 284,
  "απελευθ": 284,
  "εκατερω": 284,
  "ολη": 284,
  "αντικειμενων": 284,
  "μετεχει": 284,
  "##γελ": 283,
  "μθ": 283,
  "##ψαι": 283,
  "τυχειν": 283,
  "##χθαι": 283,
  "αντικειμενα": 283,
  "πραξ": 282,
  "νομοις": 282,
  "κληρον": 282,
  "συμφ": 282,
  "ενεργειν": 282,
  "σχηματα": 282,
  "##ξαι": 281,
  "δωρι": 281,
  "καταλειπ": 281,
  "##μεως": 281,
  "συμβ": 281,
  "##ωτι": 281,
  "##κοτα": 281,
  "μελλει": 281,
  "κριτηριον": 281,
  "αισθανεται": 281,
  "θερμοτητα": 281,
  "μενου": 280,
  "χειρας": 280,
  "πεντακοσια": 280,
  "ηρατο": 280,
  "στοιχει": 280,
  "δεξια": 280,
  "##ταρ": 280,
  "γονεων": 280,
  "##δους": 280,
  "δεινος": 280,
  "ποσου": 280,
  "τρισ": 280,
  "##τερων": 280,
  "τρε": 279,
  "μηνων": 279,
  "##χομεν": 279,
  "##ειδ": 279,
  "##υφ": 279,
  "##ζοντος": 279,
  "##νων": 279,
  "εξετα": 279,
  "εσμεν": 279,
  "αμφοτεραι": 279,
  "οροι": 279,
  "ψυχρου": 279,
  "υγρα": 279,
  "ενδεχομενου": 279,
  "θμ": 278,
  "ημισ": 278,
  "##αθι": 278,
  "##θεισαν": 278,
  "##εντος": 278,
  "αγαθοι": 278,
  "λειπεται": 278,
  "κορ": 277,
  "αιγυπτου": 277,
  "ακου": 277,
  "ημεραις": 277,
  "υπερθε": 277,
  "θυγατρι": 277,
  "κυριαν": 277,
  "##ενος": 277,
  "ευημερ": 277,
  "##ευειν": 277,
  "σλ": 277,
  "αιει": 277,
  "πλειονος": 277,
  "θεια": 277,
  "αληθεια": 277,
  "οποια": 277,
  "φησομεν": 277,
  "διογενης": 276,
  "υμεις": 276,
  "ηγεμονι": 276,
  "αξιωθεις": 276,
  "επαν": 276,
  "μενοι": 276,
  "ζητουμεν": 276,
  "μετρου": 275,
  "φιλιππου": 275,
  "αρξ": 275,
  "ωρω": 275,
  "δανειον": 275,
  "χρηματι": 275,
  "νοσον": 275,
  "βαδιζειν": 275,
  "εναντιω": 275,
  "##ινον": 274,
  "##νην": 274,
  "τισ": 274,
  "βαι": 274,
  "##τοφ": 274,
  "οποιον": 274,
  "ετερους": 274,
  "##τεροι": 274,
  "δυσ": 274,
  "πολιτων": 274,
  "νοησις": 274,
  "κρειττον": 274,
  "σχηματων": 274,
  "##αδ": 273,
  "λιτ": 273,
  "υποδε": 273,
  "##ηγ": 273,
  "πατρων": 273,
  "αμι": 273,
  "##ιπ": 273,
  "σια": 273,
  "ειρηκεν": 273,
  "εψ": 273,
  "ωρισμενον": 273,
  "ορμη": 273,
  "επιφανεια": 273,
  "περιττωμα": 273,
  "δωσ": 272,
  "ποσα": 272,
  "παις": 272,
  "μαρκος": 272,
  "οδε": 272,
  "προνοη": 272,
  "τεταρτης": 272,
  "##υτ": 272,
  "λημμα": 272,
  "συμ": 272,
  "πυρω": 272,
  "καλειν": 272,
  "ενεστι": 272,
  "θεωρειν": 272,
  "ρητεον": 272,
  "αρμα": 271,
  "##ετως": 271,
  "ξη": 271,
  "πλειονα": 271,
  "σεληνης": 271,
  "ευδαιμονια": 271,
  "οπη": 271,
  "συνεχη": 271,
  "κατηγορεισθαι": 271,
  "##χυ": 270,
  "##υσε": 270,
  "##οτητι": 270,
  "στιχ": 270,
  "απασιν": 270,
  "χρεωστ": 270,
  "##τατου": 270,
  "σοφιαν": 270,
  "δοξει": 270,
  "δʹ": 270,
  "ρω": 269,
  "##κιω": 269,
  "ιουλιος": 269,
  "##κυρ": 269,
  "ηρακλειου": 269,
  "ενδον": 269,
  "δοκω": 269,
  "σωμασι": 269,
  "υπερβολην": 269,
  "μηδεποτε": 269,
  "σκοπου": 269,
  "αττα": 269,
  "##σμου": 268,
  "πεμπτου": 268,
  "θυγατρος": 268,
  "γεγραπται": 268,
  "πραξιν": 268,
  "εξαγ": 268,
  "εξουσιας": 268,
  "εμον": 268,
  "##ασα": 268,
  "εκφ": 267,
  "ανακ": 267,
  "κατοικ": 267,
  "μνα": 267,
  "πεδια": 267,
  "κερα": 267,
  "διαθεσιν": 267,
  "εισω": 267,
  "ψυχας": 267,
  "μελλοντα": 267,
  "κακιαν": 267,
  "##εθ": 266,
  "ελαιον": 266,
  "ταχεως": 266,
  "υει": 266,
  "προσωπον": 266,
  "αδριαν": 266,
  "αυτοθι": 266,
  "περιττον": 266,
  "##δον": 266,
  "δικαιοσυνην": 266,
  "ζο": 265,
  "ακρο": 265,
  "οικοδομ": 265,
  "κεφαλαιον": 265,
  "στρατηγου": 265,
  "σκεπ": 265,
  "εικα": 265,
  "γνωσ": 265,
  "εχουσης": 265,
  "##εστερον": 265,
  "τεχνων": 265,
  "σωφροσυνη": 265,
  "ποιητικα": 265,
  "λεγοιτο": 265,
  "πεμψ": 264,
  "ανηκο": 264,
  "σπορι": 264,
  "αδελφης": 264,
  "γραφειν": 264,
  "##βων": 264,
  "εμισθ": 264,
  "φθο": 264,
  "αγαθοις": 264,
  "μνημη": 264,
  "μοναδος": 264,
  "i": 263,
  "οιδε": 263,
  "διου": 263,
  "παραστη": 263,
  "εβδομηκοντα": 263,
  "αδελφ": 263,
  "θεογ": 263,
  "νειλ": 263,
  "##δυ": 263,
  "ηγη": 263,
  "##ατου": 263,
  "αιρε": 263,
  "##υνε": 263,
  "λευκος": 263,
  "συνθετον": 263,
  "θνητον": 263,
  "καταφατικην": 263,
  "αρτο": 262,
  "κληρω": 262,
  "##αδος": 262,
  "##ιμου": 262,
  "προχ": 262,
  "##τικ": 262,
  "διαν": 262,
  "νοσω": 262,
  "ιατρικη": 262,
  "μουσικος": 262,
  "καλλι": 261,
  "οψ": 261,
  "αντωνιου": 261,
  "θηλ": 261,
  "οινος": 261,
  "##αμενον": 261,
  "ορμην": 261,
  "εκων": 261,
  "δικαιος": 261,
  "εμοιγε": 261,
  "αντιφ": 260,
  "ηγορα": 260,
  "διαπ": 260,
  "συγγραφην": 260,
  "##ησω": 260,
  "ετοιμως": 260,
  "οδος": 260,
  "##ιδου": 260,
  "αποδεδ": 260,
  "θεοδωρος": 260,
  "συναπ": 260,
  "κατασκευασ": 260,
  "αληθεις": 260,
  "οραται": 260,
  "##ονα": 259,
  "ασκληπια": 259,
  "μεση": 259,
  "##ξα": 259,
  "πλοιον": 259,
  "καθηκ": 259,
  "πυρον": 259,
  "##λλα": 259,
  "δεισθαι": 259,
  "ραον": 259,
  "##ηνης": 259,
  "υποθεσιν": 259,
  "δελφ": 258,
  "δεσπο": 258,
  "ταμα": 258,
  "εκτισ": 258,
  "βουλομεθα": 258,
  "##ρειου": 258,
  "πρωτο": 258,
  "νεας": 258,
  "βασιλευ": 258,
  "εκκαιδεκα": 258,
  "προειρημενων": 258,
  "επομενα": 258,
  "συζυγια": 258,
  "γραφω": 257,
  "τραπεζ": 257,
  "νγ": 257,
  "απλη": 257,
  "προβατα": 257,
  "προνοιαν": 257,
  "απλα": 257,
  "λεξιν": 257,
  "ευθειας": 257,
  "καταφασις": 257,
  "καλω": 256,
  "##εος": 256,
  "χειρων": 256,
  "αιθ": 256,
  "##ισθ": 256,
  "αστ": 256,
  "ιω": 256,
  "εμφ": 256,
  "τελων": 256,
  "ωρας": 256,
  "εσ": 256,
  "πατα": 256,
  "ποταμων": 256,
  "##μιας": 256,
  "αγειν": 256,
  "μικρου": 256,
  "ομηρος": 256,
  "μαθηματικα": 256,
  "εξεως": 256,
  "στερησιν": 256,
  "##εισ": 255,
  "αντ": 255,
  "λην": 255,
  "##τευ": 255,
  "μενη": 255,
  "##μετ": 255,
  "ηλια": 255,
  "δισσ": 255,
  "τετρακοσια": 255,
  "παρε": 255,
  "προσαγ": 255,
  "δεομαι": 255,
  "##εντων": 255,
  "βουλευτ": 255,
  "επακολουθ": 255,
  "τροπους": 255,
  "κεισθαι": 255,
  "εφαμεν": 255,
  "δεινον": 255,
  "ελεγομεν": 255,
  "εμπεδοκλης": 255,
  "ποιοτης": 255,
  "προσκυν": 254,
  "καλ": 254,
  "##φαν": 254,
  "##αθου": 254,
  "διαφεροντων": 254,
  "##ησεις": 254,
  "ηπερ": 254,
  "ματην": 254,
  "πραξεων": 254,
  "φυσεις": 254,
  "κυν": 253,
  "ισχ": 253,
  "αρτε": 253,
  "ονον": 253,
  "ιακωβ": 253,
  "πρασσ": 253,
  "καγω": 253,
  "υν": 253,
  "μακ": 253,
  "προκειμενων": 253,
  "σιμ": 253,
  "αγγ": 253,
  "ευσεβων": 253,
  "αχιλλεως": 253,
  "θεωρια": 253,
  "αστρων": 253,
  "αοριστον": 253,
  "##πει": 252,
  "απαντας": 252,
  "##ιην": 252,
  "##ηση": 252,
  "προκειμενα": 252,
  "##ησεται": 252,
  "ζωσι": 252,
  "διαφορον": 252,
  "αναλογιαν": 252,
  "χωριζ": 252,
  "σημαινομενον": 252,
  "σημαινειν": 252,
  "προβληματα": 252,
  "καταφα": 252,
  "αντιστρεφ": 252,
  "##αρι": 251,
  "ιππεων": 251,
  "τοκους": 251,
  "##ετο": 251,
  "##επ": 251,
  "ημε": 251,
  "γιγνωσ": 251,
  "τωνδε": 251,
  "ιππου": 251,
  "μνημονευ": 251,
  "παρειναι": 251,
  "##οτ": 250,
  "ευχ": 250,
  "πορ": 250,
  "##ζε": 250,
  "κρα": 250,
  "##ριαν": 250,
  "στη": 250,
  "##ησαμεν": 250,
  "##δικ": 250,
  "νοσου": 250,
  "εμποι": 250,
  "ειχε": 250,
  "διαφερον": 250,
  "μεγεθη": 250,
  "σοφον": 250,
  "αισθητοις": 250,
  "βυ": 249,
  "μενα": 249,
  "##θος": 249,
  "κατασπ": 249,
  "##σαντα": 249,
  "επιδο": 249,
  "τικ": 249,
  "δουλ": 249,
  "##ημ": 249,
  "##οφυλακ": 249,
  "##ριοις": 249,
  "ιδων": 249,
  "ακουσαι": 249,
  "αρχει": 249,
  "μηπω": 249,
  "θαλαττης": 249,
  "αγνοιαν": 249,
  "λεγουσα": 249,
  "κατοι": 249,
  "θανατου": 249,
  "καλλιστα": 249,
  "απαντες": 249,
  "σπερματος": 249,
  "ειρησθαι": 249,
  "φυσικων": 249,
  "διαιρειται": 249,
  "δυαδος": 249,
  "##βω": 248,
  "νευ": 248,
  "ιδιας": 248,
  "##γενους": 248,
  "αποδοσιν": 248,
  "##ψιν": 248,
  "##τατη": 248,
  "παιδες": 248,
  "ποιοτητα": 248,
  "ιερευς": 247,
  "γραψ": 247,
  "##ενν": 247,
  "δοχ": 247,
  "##υχ": 247,
  "##σσ": 247,
  "ζε": 247,
  "δοξας": 247,
  "##τητι": 247,
  "ατι": 247,
  "μονοις": 247,
  "εμποδι": 247,
  "δυναμενος": 247,
  "##τικους": 247,
  "πολιτεια": 247,
  "καρδιας": 247,
  "κει": 246,
  "ευαγ": 246,
  "μεσ": 246,
  "σωτηριας": 246,
  "αριστερω": 246,
  "οα": 246,
  "μενος": 246,
  "##ιε": 246,
  "θειου": 246,
  "αλλοτε": 246,
  "##ουμενη": 246,
  "ακινητον": 246,
  "κυκλον": 246,
  "κληρονομοι": 245,
  "πρασι": 245,
  "##ινος": 245,
  "##οτερα": 245,
  "εμφαν": 245,
  "σαλ": 245,
  "τυγχανειν": 245,
  "διαφερ": 245,
  "πλουτον": 245,
  "ερουμεν": 245,
  "αμμω": 244,
  "ελε": 244,
  "στρατηγος": 244,
  "επιστολης": 244,
  "κοινην": 244,
  "##3": 244,
  "φιλοις": 244,
  "συστασιν": 244,
  "##πολει": 244,
  "ωδι": 244,
  "χρωματα": 244,
  "αλεξανδρος": 243,
  "γραψον": 243,
  "τηρ": 243,
  "επισ": 243,
  "##σιαν": 243,
  "##ξεν": 243,
  "ταφ": 243,
  "ηγεμων": 243,
  "ψυ": 243,
  "σπει": 243,
  "λαμπρα": 243,
  "χρυσιππος": 243,
  "παθειν": 243,
  "##ζεται": 243,
  "τοποι": 243,
  "##οιεν": 243,
  "αγαθους": 243,
  "σεραπ": 242,
  "παλλ": 242,
  "##ρωι": 242,
  "##δηποτε": 242,
  "μαν": 242,
  "##ημι": 242,
  "εμη": 242,
  "φιλοσοφου": 242,
  "##ιζειν": 242,
  "ακοη": 242,
  "συγκατα": 242,
  "γυναικας": 242,
  "καιπερ": 242,
  "αντικειται": 242,
  "αισθητου": 242,
  "τρισι": 241,
  "ωρι": 241,
  "##δεις": 241,
  "μελη": 241,
  "βαρ": 241,
  "δυνη": 241,
  "σποραν": 241,
  "ενο": 241,
  "βασιλεα": 241,
  "γεωργων": 241,
  "θεας": 241,
  "ειχον": 241,
  "καθαρα": 241,
  "##ομεναι": 241,
  "χειρ": 241,
  "πλουτου": 241,
  "κεφαλης": 241,
  "δηποτε": 241,
  "γʹ": 241,
  "παραπλησιως": 241,
  "σαρκος": 241,
  "συμπερασματος": 241,
  "δεκτικον": 241,
  "εδειχθη": 241,
  "αποχην": 240,
  "τες": 240,
  "ερωτω": 240,
  "πολε": 240,
  "ειδ": 240,
  "##υσα": 240,
  "πραγματευ": 240,
  "##ινω": 240,
  "στεφανου": 240,
  "##μβ": 240,
  "αισθη": 240,
  "μετριως": 240,
  "κεφαλη": 240,
  "αποδοθεν": 240,
  "κυκλος": 240,
  "αισθαν": 240,
  "συμβεβηκοτος": 240,
  "υκ": 239,
  "ζυγω": 239,
  "διογεν": 239,
  "##ψεως": 239,
  "##ιτων": 239,
  "ισο": 239,
  "##μασι": 239,
  "ταυθ": 239,
  "##οδω": 238,
  "αμελη": 238,
  "ευρη": 238,
  "θεοδο": 238,
  "τοκων": 238,
  "πλουτι": 238,
  "##γη": 238,
  "καταμ": 238,
  "κορνη": 238,
  "κυρου": 238,
  "αποβ": 238,
  "##ιους": 238,
  "##ομενας": 238,
  "λεγη": 238,
  "##αμενων": 238,
  "κοσμω": 238,
  "ληπτεον": 238,
  "ιδεαι": 238,
  "ακο": 237,
  "πληρω": 237,
  "##ιωνα": 237,
  "##ωνα": 237,
  "ελληνων": 237,
  "##ιλλ": 237,
  "νοι": 237,
  "φυτοις": 237,
  "εγγεγραμ": 237,
  "τελη": 237,
  "ταγ": 237,
  "##ειρ": 237,
  "βασιλικης": 237,
  "αναγκαιαν": 237,
  "##οτατον": 237,
  "##ωρι": 237,
  "τυπω": 237,
  "συμβησεται": 237,
  "μεγιστα": 237,
  "οψει": 237,
  "γραμμης": 237,
  "αισθητικον": 237,
  "υπερβολη": 237,
  "ορατον": 237,
  "πον": 236,
  "καρα": 236,
  "ωφ": 236,
  "##ουμενους": 236,
  "γνωναι": 236,
  "προσδε": 236,
  "##οιη": 236,
  "##τορων": 236,
  "οργανα": 236,
  "ισ": 235,
  "τριακοσιας": 235,
  "κεκο": 235,
  "γνωμην": 235,
  "βουβ": 235,
  "ωτα": 235,
  "##ερε": 235,
  "δημω": 235,
  "εκειθεν": 235,
  "εκτης": 235,
  "##ρουν": 235,
  "δεσποτη": 235,
  "##ουμεθα": 235,
  "κρισεως": 235,
  "πρι": 235,
  "ορθον": 235,
  "σκοπει": 235,
  "κινουμενα": 235,
  "ιεναι": 235,
  "ουι": 234,
  "##σθε": 234,
  "υπογεγραμ": 234,
  "χωρισ": 234,
  "προδι": 234,
  "##σχ": 234,
  "φερει": 234,
  "παροντα": 234,
  "συνεβη": 234,
  "υποκειμενα": 234,
  "σεληνη": 234,
  "αδικον": 234,
  "δεχεσθαι": 234,
  "καλλιον": 234,
  "ακρων": 234,
  "πανθ": 233,
  "ονω": 233,
  "φε": 233,
  "##ερου": 233,
  "φρον": 233,
  "##θμ": 233,
  "νιν": 233,
  "τριτη": 233,
  "εβδομου": 233,
  "βουληται": 233,
  "παιδα": 233,
  "πωλου": 233,
  "εμβ": 233,
  "δεικνυς": 233,
  "αντλ": 233,
  "συμφυ": 233,
  "πλουτος": 233,
  "τουθ": 233,
  "μαθηματων": 233,
  "δοκουσι": 233,
  "ενεργειαι": 233,
  "θερμοτης": 233,
  "προβληματων": 233,
  "##ουσ": 232,
  "κλα": 232,
  "##λοι": 232,
  "λιν": 232,
  "υπογραφης": 232,
  "ημιολια": 232,
  "αξιουμεν": 232,
  "ηλιας": 232,
  "αιδε": 232,
  "μοσχ": 232,
  "οικω": 232,
  "παρο": 232,
  "##ιαδος": 232,
  "αποσ": 232,
  "εισαγ": 232,
  "σωσ": 232,
  "##ολογ": 232,
  "απορια": 232,
  "σμικρον": 232,
  "επαναγκες": 231,
  "γεγονος": 231,
  "εμαυτου": 231,
  "ρων": 231,
  "καπι": 231,
  "ηθος": 231,
  "μηχαν": 231,
  "ειρηκε": 231,
  "εχρην": 231,
  "λανθαν": 231,
  "##ητεον": 231,
  "θετεον": 231,
  "σοφιστ": 231,
  "αντιφασιν": 231,
  "ενδεχομενης": 231,
  "χαι": 230,
  "##παρ": 230,
  "κν": 230,
  "ουσ": 230,
  "κλε": 230,
  "διοι": 230,
  "##ωτης": 230,
  "λοιπας": 230,
  "ακολουθον": 230,
  "παρεχ": 230,
  "αυλ": 230,
  "λεγοντων": 230,
  "προστιθε": 230,
  "υπερεχ": 230,
  "γιγνομενων": 230,
  "μοχ": 230,
  "σημεια": 230,
  "χυμων": 230,
  "αντιφασεως": 230,
  "εστ": 229,
  "##ρισ": 229,
  "γω": 229,
  "ανυπο": 229,
  "αναφερ": 229,
  "καστ": 229,
  "##ωρισ": 229,
  "τιμο": 229,
  "χρονοις": 229,
  "εμετ": 229,
  "##υω": 229,
  "σξ": 229,
  "εναπο": 229,
  "θεωριαν": 229,
  "εκαστοτε": 229,
  "λυπης": 229,
  "μορφην": 229,
  "αποριας": 229,
  "ευθειαν": 229,
  "διχως": 229,
  "##φο": 228,
  "λαβοντες": 228,
  "αριστερα": 228,
  "##σμον": 228,
  "απε": 228,
  "ξυλων": 228,
  "χριστου": 228,
  "ελαβον": 228,
  "##φω": 228,
  "αμμωνα": 228,
  "προφερ": 228,
  "##κοσιας": 228,
  "βλαβη": 228,
  "βολ": 228,
  "χειμωνος": 228,
  "κεφ": 228,
  "μεγαλην": 228,
  "βαθος": 228,
  "πολεσιν": 228,
  "χρωμενοι": 228,
  "φερομενον": 228,
  "φιλοσοφων": 228,
  "πεζον": 227,
  "κρο": 227,
  "##σιω": 227,
  "σπερματα": 227,
  "θειων": 227,
  "##ζοντες": 227,
  "ηρωδου": 227,
  "##εστατον": 227,
  "ζητουμενον": 227,
  "πρωτας": 227,
  "ποιουντες": 227,
  "δειξιν": 227,
  "εδειξεν": 227,
  "αλληλας": 227,
  "αμφισβητ": 227,
  "συλλογιστικη": 227,
  "##ητ": 226,
  "δωσω": 226,
  "αση": 226,
  "νομα": 226,
  "παροντι": 226,
  "αξ": 226,
  "εδοξεν": 226,
  "σπουδ": 226,
  "αποδειξεις": 226,
  "σελ": 226,
  "υποθε": 226,
  "απολειπ": 226,
  "ανακλ": 226,
  "φαυλα": 226,
  "θʹ": 226,
  "αθανατον": 226,
  "ουδετερον": 226,
  "ιδεα": 226,
  "##φη": 225,
  "θειας": 225,
  "##ησθαι": 225,
  "##δυο": 225,
  "βεβ": 225,
  "ορας": 225,
  "ευεργετου": 225,
  "ηλικιαν": 225,
  "θυμον": 225,
  "ωφελιμον": 225,
  "##ηλατ": 224,
  "##ορα": 224,
  "##κοσ": 224,
  "κατοικων": 224,
  "συμβολον": 224,
  "προστι": 224,
  "μαριας": 224,
  "συρι": 224,
  "προστα": 224,
  "συνει": 224,
  "συντελ": 224,
  "μερεσι": 224,
  "εντο": 224,
  "##κτον": 224,
  "πυθ": 224,
  "χωριου": 224,
  "παρεχειν": 224,
  "φαυλον": 224,
  "ισχυν": 224,
  "φιλειν": 224,
  "βʹ": 224,
  "διαλεγεσθαι": 224,
  "εκαστοις": 224,
  "ηγεισθαι": 224,
  "φθειρεσθαι": 224,
  "##οδο": 223,
  "αρτα": 223,
  "νης": 223,
  "νοτον": 223,
  "##ογραφ": 223,
  "προσαγορευ": 223,
  "κεν": 223,
  "δθ": 223,
  "γεροντι": 223,
  "συστα": 223,
  "εκεισε": 223,
  "##κρα": 223,
  "τυρ": 223,
  "##οστ": 223,
  "ξεν": 223,
  "εξειναι": 223,
  "##κρι": 223,
  "ανδρειαν": 223,
  "μαλιστ": 223,
  "δεχεται": 223,
  "ιδιως": 223,
  "αριθμοις": 223,
  "σεληνην": 223,
  "υγρω": 223,
  "παιδι": 222,
  "χρυ": 222,
  "##ξη": 222,
  "##ισι": 222,
  "##αμου": 222,
  "λευκο": 222,
  "δημητριω": 222,
  "λοιπαι": 222,
  "##ιλος": 222,
  "##λης": 222,
  "##οτι": 222,
  "##γεν": 222,
  "κυριευει": 222,
  "εννοιαν": 222,
  "προπ": 222,
  "επειπερ": 222,
  "##σεσι": 222,
  "ενδεχομενη": 222,
  "αιγ": 221,
  "γαιω": 221,
  "συνισταται": 221,
  "τοπο": 221,
  "τιμων": 221,
  "λεγομενη": 221,
  "εφο": 221,
  "καθαρας": 221,
  "χερσ": 221,
  "##τατων": 221,
  "κακεινο": 221,
  "σχεσιν": 221,
  "θεωρη": 221,
  "ανισον": 221,
  "υγιειν": 221,
  "φαιη": 221,
  "αποδεικ": 221,
  "ανει": 220,
  "##αντων": 220,
  "ομολογια": 220,
  "##αδι": 220,
  "προσει": 220,
  "παρακαλω": 220,
  "δωρο": 220,
  "##ατω": 220,
  "εμων": 220,
  "διαδεχ": 220,
  "##συ": 220,
  "χερσου": 220,
  "ινδικτιωνος": 220,
  "##κοτες": 220,
  "περαι": 220,
  "αυξησιν": 220,
  "καθοσον": 220,
  "δυαδα": 220,
  "αποφατικην": 220,
  "χυ": 219,
  "ουεσπασιανου": 219,
  "τριακο": 219,
  "φρ": 219,
  "εξο": 219,
  "ησσον": 219,
  "##αιτο": 219,
  "##εψ": 219,
  "λυ": 219,
  "ταριχ": 219,
  "γεννα": 219,
  "μυρια": 219,
  "διαιρεσεως": 219,
  "προηγουμενως": 219,
  "ακουσ": 219,
  "κακω": 219,
  "λυπην": 219,
  "ουαλεριος": 218,
  "μετρ": 218,
  "ποδας": 218,
  "βασ": 218,
  "τξ": 218,
  "αγραφ": 218,
  "ορου": 218,
  "ελαιων": 218,
  "χωρα": 218,
  "ενιοις": 218,
  "δεξασθαι": 218,
  "πορρωθεν": 218,
  "ψυχαις": 218,
  "ιδεαν": 218,
  "μαθημα": 218,
  "απειρος": 218,
  "κινησεων": 218,
  "χρησ": 217,
  "ορμω": 217,
  "κινδυνου": 217,
  "ευστα": 217,
  "αρχιδ": 217,
  "##λιοις": 217,
  "ξβ": 217,
  "ξϛ": 217,
  "κεραμι": 217,
  "ρος": 217,
  "παρων": 217,
  "εκκλησιας": 217,
  "##ζω": 217,
  "εσχεν": 217,
  "θειω": 217,
  "εργοις": 217,
  "θυμου": 217,
  "##τατην": 217,
  "αποφασιν": 217,
  "εμπαλιν": 217,
  "φευγειν": 217,
  "αδελφε": 216,
  "##ινο": 216,
  "νεμ": 216,
  "υποκ": 216,
  "αναφ": 216,
  "κροκο": 216,
  "κατεργ": 216,
  "ιππων": 216,
  "ιματιον": 216,
  "τορ": 216,
  "αναδο": 216,
  "παυλος": 216,
  "συνεχης": 216,
  "γιγνηται": 216,
  "##πος": 215,
  "##οδ": 215,
  "τυχ": 215,
  "φω": 215,
  "##ολι": 215,
  "εγγραφ": 215,
  "μαχ": 215,
  "ηλικιας": 215,
  "αδελφους": 215,
  "διακο": 215,
  "συνεκ": 215,
  "##φημ": 215,
  "μισθον": 215,
  "γαλα": 215,
  "θεωριας": 215,
  "##υρις": 214,
  "τοκον": 214,
  "ζμ": 214,
  "##ομου": 214,
  "επαιν": 214,
  "ερω": 214,
  "βιας": 214,
  "ναρ": 214,
  "##ψεν": 214,
  "##ικοις": 214,
  "προσπ": 214,
  "ηνικα": 214,
  "διχ": 214,
  "ειποντος": 214,
  "αρμονια": 214,
  "ειρημενοις": 214,
  "ποιοτητος": 214,
  "##ρηται": 213,
  "σθαι": 213,
  "αναπο": 213,
  "ενδε": 213,
  "##ηκεναι": 213,
  "διοδωρου": 213,
  "##οδωρος": 213,
  "πρεσβυτερου": 213,
  "##υκ": 213,
  "μιν": 213,
  "κενου": 213,
  "επιπεδον": 213,
  "απλων": 213,
  "πρωτοις": 213,
  "ωσθ": 213,
  "αιρετωτερα": 213,
  "##ηνω": 212,
  "αρειου": 212,
  "κατεχ": 212,
  "ποιου": 212,
  "ποιησω": 212,
  "κανονος": 212,
  "σησαμ": 212,
  "##θην": 212,
  "τρω": 212,
  "##ωσαν": 212,
  "βουλεσθαι": 212,
  "λεγομενοις": 212,
  "##ασ": 212,
  "πολεων": 212,
  "υπαρχη": 212,
  "ειλημ": 212,
  "γινομενου": 212,
  "πεπερασμενον": 212,
  "##ωμα": 211,
  "αναβ": 211,
  "ποσι": 211,
  "##ψα": 211,
  "τοσουτω": 211,
  "νικο": 211,
  "ερε": 211,
  "προσαπο": 211,
  "ισω": 211,
  "βεβαια": 211,
  "σεσ": 211,
  "##θωσιν": 211,
  "##θεντας": 211,
  "προτ": 211,
  "λιτρας": 211,
  "αριστο": 211,
  "χαρι": 211,
  "εαυτη": 211,
  "ευδαιμονιας": 211,
  "##εον": 210,
  "ωραν": 210,
  "##οα": 210,
  "##ιχ": 210,
  "επιθυμη": 210,
  "δαπ": 210,
  "παραθη": 210,
  "##οδωρω": 210,
  "γορ": 210,
  "##ημενην": 210,
  "προτε": 210,
  "γεωργος": 210,
  "δυσιν": 210,
  "##ωμενον": 210,
  "ακολουθειν": 210,
  "ταγαθον": 210,
  "πραγματειας": 210,
  "μνας": 209,
  "διδ": 209,
  "αριστου": 209,
  "ονπερ": 209,
  "νοη": 209,
  "γεγραμμενα": 209,
  "προκειμενης": 209,
  "λεγε": 209,
  "γαμου": 209,
  "ζηνωνος": 209,
  "λεξεως": 209,
  "διι": 209,
  "ετυχεν": 209,
  "φευ": 209,
  "##ιαις": 209,
  "##ιανος": 208,
  "##αιον": 208,
  "θεοδοσιου": 208,
  "##θας": 208,
  "εδεξαμην": 208,
  "διε": 208,
  "διαιρεσις": 208,
  "##ξιν": 208,
  "##ουσθαι": 208,
  "βασιλεων": 208,
  "γενομενοι": 208,
  "οσοις": 208,
  "ελευθερι": 208,
  "##οιντο": 208,
  "επιστη": 208,
  "πανταπασι": 208,
  "επιστητον": 208,
  "γα": 207,
  "ιων": 207,
  "##θιν": 207,
  "τελευτη": 207,
  "##ατα": 207,
  "##βαι": 207,
  "ελαβεν": 207,
  "απολυ": 207,
  "διατ": 207,
  "ζευγ": 207,
  "τρ": 207,
  "τετακται": 207,
  "##ληφ": 207,
  "##ητου": 207,
  "ποιητης": 207,
  "πλοιου": 207,
  "χρησιμα": 207,
  "φθοραν": 207,
  "φοβον": 207,
  "καλουσιν": 207,
  "φυσικη": 207,
  "οιεσθαι": 207,
  "ηδοναι": 207,
  "θαλατταν": 207,
  "κινουμενου": 207,
  "ενδεχ": 207,
  "κελε": 206,
  "ακινδυν": 206,
  "βιβ": 206,
  "οφειλ": 206,
  "κρατ": 206,
  "καλλιν": 206,
  "γραφη": 206,
  "βλαβος": 206,
  "φυτ": 206,
  "λιθος": 206,
  "σαρξ": 206,
  "οδ": 205,
  "πεμπτης": 205,
  "##αντι": 205,
  "παρι": 205,
  "##εας": 205,
  "βαν": 205,
  "##ημενης": 205,
  "τροπων": 205,
  "##θεντι": 205,
  "υπεροχην": 205,
  "πεισ": 205,
  "συνεπ": 205,
  "τονδε": 205,
  "υγειας": 205,
  "οπωσουν": 205,
  "μουσικη": 205,
  "αισχρα": 205,
  "χρωματος": 205,
  "χορηγ": 204,
  "επιστολ": 204,
  "διων": 204,
  "νικων": 204,
  "##πολιτων": 204,
  "##κια": 204,
  "εγκαλ": 204,
  "μηθ": 204,
  "σπουδης": 204,
  "επιφανων": 204,
  "δοκεις": 204,
  "εγινετο": 204,
  "γραμμην": 204,
  "##ευτ": 203,
  "##διαν": 203,
  "ασπαζομαι": 203,
  "σων": 203,
  "υπε": 203,
  "εκουσια": 203,
  "δαι": 203,
  "##τρων": 203,
  "##ιει": 203,
  "##εσθω": 203,
  "##ερον": 203,
  "##σασα": 203,
  "κοινω": 203,
  "κουφον": 203,
  "χαλκος": 203,
  "πραγμασιν": 203,
  "οικει": 203,
  "φυσικον": 203,
  "νοητα": 203,
  "στομα": 202,
  "χρι": 202,
  "κεραμια": 202,
  "##εντ": 202,
  "εγγ": 202,
  "ξαν": 202,
  "φοινικ": 202,
  "εκβ": 202,
  "αποχ": 202,
  "##φου": 202,
  "εξακοσι": 202,
  "κελ": 202,
  "επιδεχ": 202,
  "βουλομενοι": 202,
  "αβου": 202,
  "δοκη": 202,
  "αλλοτριον": 202,
  "σωτηριαν": 202,
  "ημετερα": 202,
  "μαθηματα": 202,
  "υγιεινον": 202,
  "##οθη": 201,
  "##οφορου": 201,
  "ερμης": 201,
  "οφ": 201,
  "##ησειν": 201,
  "ασημ": 201,
  "##αριω": 201,
  "τριακ": 201,
  "##δωμι": 201,
  "συγγ": 201,
  "ενοχος": 201,
  "θαυμασιω": 201,
  "γενομενη": 201,
  "αρχοντος": 201,
  "επιδη": 201,
  "συνι": 201,
  "ποιησας": 201,
  "δυναμενων": 201,
  "οιοι": 201,
  "κλειν": 201,
  "διαλυ": 201,
  "συμβεβηκοτων": 201,
  "τελεως": 201,
  "βελτιων": 201,
  "ποτερα": 201,
  "αμμων": 200,
  "πεμψαι": 200,
  "νθ": 200,
  "αντω": 200,
  "ιερακος": 200,
  "κατο": 200,
  "θυγ": 200,
  "##εγγυ": 200,
  "ειρηνης": 200,
  "κατασκευην": 200,
  "υμετερα": 200,
  "αγαν": 200,
  "τρισκαιδεκα": 200,
  "##ατορος": 200,
  "νοτι": 200,
  "υπει": 200,
  "νειλος": 200,
  "ισμεν": 200,
  "αναχ": 200,
  "δοξαι": 200,
  "δειξει": 200,
  "μαρι": 199,
  "##υσιν": 199,
  "σημειου": 199,
  "ογδοον": 199,
  "σπερματων": 199,
  "οφελος": 199,
  "συνεχ": 199,
  "ασθενειαν": 199,
  "ρωμαιων": 199,
  "δουλον": 199,
  "##ωσεως": 199,
  "μοναδα": 199,
  "πωποτε": 199,
  "υστερα": 199,
  "προσεθηκε": 199,
  "αντιστροφης": 199,
  "θελη": 198,
  "##υπ": 198,
  "ιπ": 198,
  "συμβολα": 198,
  "μακαρι": 198,
  "##θεου": 198,
  "##στων": 198,
  "προσοδων": 198,
  "##οτατω": 198,
  "προθεσ": 198,
  "##τερου": 198,
  "κοιλιας": 198,
  "ακοης": 198,
  "κολλ": 197,
  "αυριον": 197,
  "παραγεν": 197,
  "παραδ": 197,
  "ανδρειας": 197,
  "##ματ": 197,
  "ειρην": 197,
  "αναφοραν": 197,
  "##ασαι": 197,
  "αγνοειν": 197,
  "τοθ": 197,
  "λανθανειν": 197,
  "τελε": 197,
  "##υλι": 197,
  "διαιρ": 197,
  "αφης": 197,
  "δεοι": 197,
  "σωφροσυνης": 197,
  "διαφεροντως": 197,
  "δικ": 196,
  "θησαυ": 196,
  "ολιγων": 196,
  "μολις": 196,
  "##οπο": 196,
  "νησ": 196,
  "χειρα": 196,
  "ματα": 196,
  "ασφαλ": 196,
  "ζητη": 196,
  "ενιαυτου": 196,
  "ωρισ": 196,
  "αναδιδ": 196,
  "ξηρα": 196,
  "θεσει": 196,
  "παιδειας": 196,
  "##ιζεσθαι": 196,
  "στοματος": 196,
  "αρεται": 196,
  "δυναιτο": 196,
  "τοιαδε": 196,
  "ψευδεις": 196,
  "φλεβων": 196,
  "δημοκριτος": 196,
  "##υβ": 195,
  "τροπου": 195,
  "πραξαι": 195,
  "διδυμα": 195,
  "##πτο": 195,
  "παιδος": 195,
  "πλοι": 195,
  "υπατων": 195,
  "ληφ": 195,
  "αυξ": 195,
  "λυπ": 195,
  "μηδαμως": 195,
  "φανερως": 195,
  "εναργως": 195,
  "επιστημον": 195,
  "ορεξις": 195,
  "##τιωνος": 194,
  "##ροχ": 194,
  "βι": 194,
  "##δεκα": 194,
  "εμα": 194,
  "##σται": 194,
  "χρημα": 194,
  "αξιωμα": 194,
  "κοινωνια": 194,
  "εμω": 194,
  "##χεν": 194,
  "##φορ": 194,
  "ασφαλειας": 194,
  "προτερων": 194,
  "##σονται": 194,
  "##τητος": 194,
  "βουλευτη": 194,
  "αποπλη": 194,
  "δυειν": 194,
  "δημος": 194,
  "δοξαζ": 194,
  "##ονι": 193,
  "ποιησις": 193,
  "επιτ": 193,
  "τιμιω": 193,
  "##μαχ": 193,
  "μητροπολεως": 193,
  "τετελευτη": 193,
  "ωα": 193,
  "ρυσ": 193,
  "τλ": 193,
  "αντιγραφ": 193,
  "προσηκον": 193,
  "##δευ": 193,
  "διδα": 193,
  "οτω": 193,
  "##τιω": 192,
  "##αριον": 192,
  "αφροδι": 192,
  "σημ": 192,
  "πετρος": 192,
  "κληρος": 192,
  "λιβα": 192,
  "απατ": 192,
  "##κλει": 192,
  "αλεξανδρειαν": 192,
  "τμ": 192,
  "συνεπι": 192,
  "παραγ": 192,
  "##νιος": 192,
  "πιττα": 192,
  "##ηθηναι": 192,
  "##ζουσι": 192,
  "ημετερας": 192,
  "ολα": 192,
  "μεγαλοπρεπ": 192,
  "αναγκα": 192,
  "ταξις": 192,
  "##ζουσιν": 192,
  "##ησαντες": 192,
  "αιρεσιν": 192,
  "επιφερει": 192,
  "επιστημας": 192,
  "απτεσθαι": 192,
  "ταυτου": 192,
  "τεκμηριον": 192,
  "γιγνοιτο": 192,
  "δηλωτικον": 192,
  "##ηκ": 191,
  "##κλ": 191,
  "τετρα": 191,
  "λατ": 191,
  "ρας": 191,
  "εμβο": 191,
  "ηπ": 191,
  "##κιον": 191,
  "επιστρατ": 191,
  "αντιποι": 191,
  "δεξ": 191,
  "μουσ": 191,
  "θεοδωρω": 191,
  "##ετου": 191,
  "ευρε": 191,
  "##χειτο": 191,
  "αλων": 191,
  "φωτι": 191,
  "##ζομενον": 191,
  "παιδευ": 191,
  "ηδεα": 191,
  "προαιρεσις": 191,
  "βελτιστον": 191,
  "μουσικην": 191,
  "μοναδες": 191,
  "κατηγοριας": 191,
  "λεον": 190,
  "##δαν": 190,
  "αγαθη": 190,
  "ανελ": 190,
  "##ολε": 190,
  "οφρυ": 190,
  "οφειλη": 190,
  "αυτοκρατορα": 190,
  "ηρωι": 190,
  "ψεγ": 190,
  "ανη": 190,
  "##οφ": 190,
  "ταλαντων": 190,
  "δευρο": 190,
  "ορισμου": 190,
  "γινωσκειν": 190,
  "ωρα": 190,
  "τρεφ": 190,
  "καλουμεν": 190,
  "γινομενην": 190,
  "θανατος": 190,
  "αποδιδοναι": 190,
  "πλειστοι": 190,
  "μεταλαμβαν": 190,
  "ελεγετο": 190,
  "πει": 189,
  "μετωπω": 189,
  "λαυ": 189,
  "αλλαγ": 189,
  "βελτιω": 189,
  "επιβ": 189,
  "εκκλ": 189,
  "θεμα": 189,
  "ειην": 189,
  "##ρομ": 189,
  "ιερη": 189,
  "υποδο": 189,
  "εποιησε": 189,
  "οιδ": 189,
  "αληθων": 189,
  "ουκετ": 189,
  "##κτη": 188,
  "##βια": 188,
  "##δομ": 188,
  "ιωαννη": 188,
  "βεβαιον": 188,
  "τραπεζαν": 188,
  "καισαρα": 188,
  "φοινικων": 188,
  "##νις": 188,
  "χωριον": 188,
  "ανυ": 188,
  "οινω": 188,
  "ειδοτες": 188,
  "ποιηται": 188,
  "ογκον": 188,
  "κακ": 188,
  "γυναικες": 188,
  "πλειων": 188,
  "δοκουν": 188,
  "ταχιστα": 188,
  "τιθεσθαι": 188,
  "χρησιμος": 188,
  "δεικνυμεν": 188,
  "ενυπαρχον": 188,
  "αρχαις": 188,
  "ανδρειος": 188,
  "νζ": 187,
  "##ψη": 187,
  "##ινα": 187,
  "εθεμην": 187,
  "##ερος": 187,
  "νομοι": 187,
  "αμφοτερας": 187,
  "πατριδος": 187,
  "##ψι": 187,
  "##κιας": 187,
  "τελειου": 187,
  "##οποι": 187,
  "##ζοντα": 187,
  "ιππω": 187,
  "κεντρον": 187,
  "λυπας": 187,
  "ψευδους": 187,
  "βλεπειν": 187,
  "γελοιον": 187,
  "υδρο": 186,
  "εσω": 186,
  "ειλη": 186,
  "##τομ": 186,
  "##ανον": 186,
  "##ζη": 186,
  "εξαρ": 186,
  "κωμων": 186,
  "πρυταν": 186,
  "ποδι": 186,
  "καλη": 186,
  "δωδεκατη": 186,
  "νοτα": 186,
  "διατι": 186,
  "διαστηματος": 186,
  "ταυτω": 186,
  "ρια": 185,
  "τεκτον": 185,
  "##ισαι": 185,
  "αγει": 185,
  "αφο": 185,
  "##οτων": 185,
  "ηλθεν": 185,
  "γει": 185,
  "##ραι": 185,
  "ενδοξον": 185,
  "λημματων": 185,
  "προσβ": 185,
  "λυσιμαχου": 185,
  "συνεργ": 185,
  "υδατων": 185,
  "εδειξε": 185,
  "προνοιας": 185,
  "διαιρετον": 185,
  "ηθη": 185,
  "υποστασιν": 185,
  "μεταβαλλον": 185,
  "μηποτε": 185,
  "φθειρ": 185,
  "νευρων": 185,
  "διδασκειν": 185,
  "ενδεχομενων": 185,
  "χωριστον": 185,
  "ηρεμειν": 185,
  "χαλκω": 184,
  "αββα": 184,
  "διπλα": 184,
  "παντοιων": 184,
  "##εδ": 184,
  "##κασιν": 184,
  "θυγατερα": 184,
  "##ξει": 184,
  "υμετερας": 184,
  "##ιτη": 184,
  "καταβο": 184,
  "υπερβ": 184,
  "κην": 184,
  "##αται": 184,
  "##τρι": 184,
  "μαρτυρ": 184,
  "ηγ": 184,
  "ηνπερ": 184,
  "λαμβανων": 184,
  "χαιρε": 184,
  "ενεστωτι": 184,
  "ασπερ": 184,
  "βουλευ": 184,
  "σομ": 184,
  "χρω": 184,
  "πεμπτον": 184,
  "χρυσοχ": 184,
  "αναι": 184,
  "σωφρονι": 184,
  "δοκουντα": 184,
  "απειρου": 184,
  "εκουσιον": 184,
  "εικαδι": 183,
  "αμω": 183,
  "προι": 183,
  "ξηρου": 183,
  "ομολογουντα": 183,
  "λογιζομενον": 183,
  "ανε": 183,
  "λοιπου": 183,
  "παρουσια": 183,
  "μελλων": 183,
  "##υια": 183,
  "ζητησιν": 183,
  "δεικ": 183,
  "αρχοντων": 183,
  "αλη": 183,
  "ποιουνται": 183,
  "οφθαλμων": 183,
  "μεχρις": 183,
  "ωρισται": 183,
  "λογισμον": 183,
  "εναντιως": 183,
  "οργης": 183,
  "##ιγ": 182,
  "ερρωσθαι": 182,
  "ποιησον": 182,
  "τεκνοις": 182,
  "κοσμη": 182,
  "πρια": 182,
  "επω": 182,
  "δωδεκατον": 182,
  "διαγραμμα": 182,
  "γονεις": 182,
  "δικη": 182,
  "##αων": 182,
  "θεις": 182,
  "αρχεσθαι": 182,
  "μεγαλ": 182,
  "##ικως": 182,
  "αγαθο": 182,
  "αλμυ": 182,
  "ειρηκαμεν": 182,
  "παιδειαν": 182,
  "αυξησις": 182,
  "σιγ": 181,
  "επαφ": 181,
  "ξγ": 181,
  "τεταρτω": 181,
  "μαξιμ": 181,
  "ιερει": 181,
  "μετη": 181,
  "##κλη": 181,
  "##οιτων": 181,
  "γενομενην": 181,
  "βασιλι": 181,
  "καιρου": 181,
  "καμε": 181,
  "##τιαν": 181,
  "λαβ": 181,
  "τανα": 181,
  "πωμα": 181,
  "αυτικα": 181,
  "προει": 181,
  "δεδωκεν": 181,
  "τελειω": 181,
  "μνημην": 181,
  "οντ": 181,
  "κεκλη": 181,
  "##οκν": 181,
  "##κεως": 181,
  "πειθεσθαι": 181,
  "ζευς": 181,
  "σαρκα": 181,
  "δειξις": 181,
  "φθ": 180,
  "δους": 180,
  "ελκ": 180,
  "εξον": 180,
  "##ωγ": 180,
  "ταμει": 180,
  "##υθε": 180,
  "ακρον": 180,
  "χου": 180,
  "τιμας": 180,
  "ανερ": 180,
  "ομολογιας": 180,
  "##μασιν": 180,
  "κεραμ": 180,
  "αλο": 180,
  "συνων": 180,
  "τιθεμεν": 180,
  "##ουμενην": 180,
  "ελενης": 180,
  "##πυ": 180,
  "##σαντων": 180,
  "αξιος": 180,
  "τελεια": 180,
  "##χως": 180,
  "υπνος": 180,
  "λογισμω": 180,
  "τρυγ": 180,
  "νοσος": 180,
  "αμηχανον": 180,
  "ιδεων": 180,
  "δυω": 179,
  "παυλ": 179,
  "δουλι": 179,
  "επιμελεια": 179,
  "πληρες": 179,
  "##κται": 179,
  "##ιησι": 179,
  "χρο": 179,
  "μηδεμια": 179,
  "ενδεκατη": 179,
  "ουση": 179,
  "##ειη": 179,
  "μυριαδας": 179,
  "##ησ": 179,
  "αυγουστω": 179,
  "εντυχ": 179,
  "παραδω": 179,
  "συναπο": 179,
  "οζ": 179,
  "δευτεραν": 179,
  "##οφυ": 179,
  "βιβλια": 179,
  "##αθ": 179,
  "πλατωνι": 179,
  "ελθων": 179,
  "##αμενου": 179,
  "αποπ": 179,
  "##ισθαι": 179,
  "##χοι": 179,
  "οριζ": 179,
  "συλλογ": 179,
  "μεταβα": 179,
  "φανερα": 179,
  "πραττει": 179,
  "αρμονιαν": 179,
  "ποσω": 179,
  "σφαιρα": 179,
  "ορισμω": 179,
  "##οιμεν": 179,
  "αδε": 178,
  "ομογ": 178,
  "κελευσαι": 178,
  "αδιαβ": 178,
  "μικρω": 178,
  "αριστ": 178,
  "εξη": 178,
  "##δοις": 178,
  "ερωτι": 178,
  "##γωγ": 178,
  "πολυκ": 178,
  "ενοχλ": 178,
  "αρτων": 178,
  "προαιρε": 178,
  "τιθεναι": 178,
  "διοικησεως": 178,
  "ομοιος": 178,
  "ωφελι": 178,
  "χρησασθαι": 178,
  "αδικου": 178,
  "διακοσιων": 178,
  "ευδαιμονα": 178,
  "πολεμω": 178,
  "##ηκεν": 178,
  "φθαρ": 178,
  "ταληθες": 178,
  "δειχθησεται": 178,
  "ουρανω": 178,
  "αιτιου": 178,
  "επιστημαι": 178,
  "επαγωγης": 178,
  "νυξ": 178,
  "τετταρα": 178,
  "αντιστρεφειν": 178,
  "πραι": 177,
  "πιστ": 177,
  "καλος": 177,
  "επινεμ": 177,
  "χρυσιον": 177,
  "συμφων": 177,
  "##τλ": 177,
  "αναγκαιου": 177,
  "αποχη": 177,
  "##ουμενοις": 177,
  "συνα": 177,
  "##ουμενω": 177,
  "γιγν": 177,
  "λαμβανεται": 177,
  "μηδεις": 177,
  "τυχον": 177,
  "ιακ": 177,
  "διαθεσις": 177,
  "μεθοδον": 177,
  "κοιλιαν": 177,
  "ορασθαι": 177,
  "αφην": 177,
  "σπουδαια": 177,
  "γενεσεις": 177,
  "μοριου": 177,
  "μασ": 176,
  "ονων": 176,
  "καταστα": 176,
  "δεν": 176,
  "λευ": 176,
  "δεσποτα": 176,
  "##λυ": 176,
  "τυχοι": 176,
  "προσαν": 176,
  "παρην": 176,
  "περιελ": 176,
  "αρχοντας": 176,
  "ελαττονι": 176,
  "δραν": 176,
  "πολιτικον": 176,
  "μεσα": 176,
  "κατωθεν": 176,
  "αναλυ": 176,
  "καγαθ": 176,
  "ενεργειαις": 176,
  "ομωνυμως": 176,
  "διαφανες": 176,
  "κουρα": 175,
  "χλ": 175,
  "##ρατου": 175,
  "φεν": 175,
  "εκομι": 175,
  "##νησι": 175,
  "ομολογουσιν": 175,
  "βασιλικη": 175,
  "ξενε": 175,
  "σπορου": 175,
  "δεονται": 175,
  "ολο": 175,
  "αρχε": 175,
  "ισαι": 175,
  "##πειν": 175,
  "σπουδαιον": 175,
  "φαινομενων": 175,
  "θαλ": 175,
  "συγγραφ": 175,
  "μελλον": 175,
  "οικειου": 175,
  "συνθεσιν": 175,
  "αυξη": 175,
  "γνωριζειν": 175,
  "γυμναστικη": 175,
  "χαλκον": 174,
  "διον": 174,
  "ευρον": 174,
  "δουλην": 174,
  "καγ": 174,
  "λυσ": 174,
  "μενε": 174,
  "γυμνα": 174,
  "##ησαντος": 174,
  "επισταται": 174,
  "παρεκ": 174,
  "παρελ": 174,
  "##ετα": 174,
  "##τρια": 174,
  "φαι": 174,
  "##ετι": 174,
  "εργου": 174,
  "οικοδομη": 174,
  "κοινης": 174,
  "αλυπ": 174,
  "αναγκαζ": 174,
  "οργην": 174,
  "περατα": 174,
  "σμικ": 174,
  "θελ": 173,
  "##ιμα": 173,
  "##πλ": 173,
  "πιστεως": 173,
  "επεστ": 173,
  "διοσκ": 173,
  "αρεσ": 173,
  "πρεσβυτερος": 173,
  "βασιλικω": 173,
  "αγωγ": 173,
  "βρετ": 173,
  "##ρικων": 173,
  "παραμ": 173,
  "επιτελε": 173,
  "τιμημα": 173,
  "πρεσβυτ": 173,
  "##σεσθαι": 173,
  "απολογ": 173,
  "συνημ": 173,
  "αναιρειται": 173,
  "νοητων": 173,
  "συλλογισμους": 173,
  "απαγωγης": 173,
  "υγρων": 173,
  "ρει": 172,
  "διονυσι": 172,
  "##σωμεν": 172,
  "εσπ": 172,
  "σκοπ": 172,
  "δομ": 172,
  "παρελαβον": 172,
  "διν": 172,
  "##βιω": 172,
  "ογδοης": 172,
  "καρπους": 172,
  "##υρων": 172,
  "##οκο": 172,
  "συγκειται": 172,
  "κικ": 172,
  "εκδικ": 172,
  "ρουφ": 172,
  "ακρα": 172,
  "θεοδω": 172,
  "επιμελεισθαι": 172,
  "πολεμου": 172,
  "δυνατω": 172,
  "πολιτας": 172,
  "λεξει": 172,
  "αμερες": 172,
  "μουσικης": 172,
  "αναποδεικ": 172,
  "αδυνατα": 172,
  "δεκαπεντε": 171,
  "προσφων": 171,
  "ηυ": 171,
  "εδωκεν": 171,
  "ποιουμενος": 171,
  "βρ": 171,
  "αφυ": 171,
  "κρατιστη": 171,
  "ενου": 171,
  "παραλη": 171,
  "αχιλλευς": 171,
  "οτου": 171,
  "##ητον": 171,
  "επιχειρη": 171,
  "##αντας": 171,
  "σημειω": 171,
  "συγκριν": 171,
  "αθηναιων": 171,
  "πασχον": 171,
  "ελαχιστον": 171,
  "πικρον": 171,
  "υπολαμβανειν": 171,
  "σπουδαιος": 171,
  "τιθεμενοι": 171,
  "##πτον": 170,
  "##επτα": 170,
  "φοβου": 170,
  "δελ": 170,
  "σεως": 170,
  "προνοια": 170,
  "ητ": 170,
  "μαγει": 170,
  "##πολεως": 170,
  "συναγομενον": 170,
  "πραγμασι": 170,
  "διαφερουσιν": 170,
  "##ιγν": 170,
  "ανελευθ": 170,
  "κατασκευαζειν": 170,
  "τελειος": 170,
  "συμπαντα": 170,
  "αρρενος": 170,
  "υγροτητα": 170,
  "διαφαν": 170,
  "ενδεχομενα": 170,
  "συλλογιστικως": 170,
  "##πις": 169,
  "##ξι": 169,
  "κιν": 169,
  "δοθηναι": 169,
  "πολι": 169,
  "##αμεθα": 169,
  "εβδομης": 169,
  "##μονι": 169,
  "##ητικον": 169,
  "##αρπ": 169,
  "ταλαντον": 169,
  "μαξιμου": 169,
  "ουδεπω": 169,
  "επιμελειας": 169,
  "επανα": 169,
  "θεσεως": 169,
  "βασσ": 169,
  "στασι": 169,
  "αθλ": 169,
  "δυναμενου": 169,
  "εσθ": 169,
  "αξιουν": 169,
  "οισθα": 169,
  "φυσικα": 169,
  "εγκεφαλον": 169,
  "γιγνωσκειν": 169,
  "κωλυ": 169,
  "διδωσιν": 169,
  "προστιθησι": 169,
  "ενεργειων": 169,
  "ομωνυμον": 169,
  "αισθητηριον": 169,
  "ζητησις": 168,
  "ελα": 168,
  "παρασ": 168,
  "##μιαν": 168,
  "ποιας": 168,
  "αδελφην": 168,
  "##εει": 168,
  "πανταχη": 168,
  "ωτ": 168,
  "προσγ": 168,
  "καταστη": 168,
  "##κοτας": 168,
  "ευγεν": 168,
  "προκειμενην": 168,
  "μεταδο": 168,
  "ωρει": 168,
  "χειρω": 168,
  "μειζονι": 168,
  "σωζεσθαι": 168,
  "ποιουντα": 168,
  "συνεξ": 168,
  "##κτι": 168,
  "μερεσιν": 168,
  "λογισμου": 168,
  "##μαν": 168,
  "ανωτατω": 168,
  "διωρισ": 168,
  "ποιαν": 168,
  "αδικια": 168,
  "μανθαν": 168,
  "κοινοτερον": 168,
  "νοησει": 168,
  "αποδεικνυ": 168,
  "ειδοποι": 168,
  "##ητης": 167,
  "κανω": 167,
  "##ξας": 167,
  "αδελφοι": 167,
  "ανεπ": 167,
  "κινδυν": 167,
  "προβατων": 167,
  "διακα": 167,
  "παρεθετο": 167,
  "δανι": 167,
  "ναυκλη": 167,
  "##λεως": 167,
  "##οκα": 167,
  "συνη": 167,
  "προσκ": 167,
  "##ετη": 167,
  "σευ": 167,
  "αντιπ": 167,
  "συνολον": 167,
  "ομοιοτ": 167,
  "ηδ": 167,
  "ηγουν": 167,
  "εγκεφαλου": 167,
  "διελθειν": 167,
  "μοναδων": 167,
  "σμικρα": 167,
  "υποστασεως": 166,
  "νεομην": 166,
  "αποστειλαι": 166,
  "εκτι": 166,
  "γεγραφα": 166,
  "πληρη": 166,
  "βαλαν": 166,
  "αιωνιων": 166,
  "ηρακλειας": 166,
  "αμφι": 166,
  "στεφ": 166,
  "##υον": 166,
  "επισημ": 166,
  "κατοχ": 166,
  "ερχεται": 166,
  "δεοντως": 166,
  "λευκα": 166,
  "αμφοτερους": 166,
  "ουεν": 166,
  "δευτερος": 166,
  "εσπαρ": 166,
  "οιαν": 166,
  "εχουσαι": 166,
  "γηρας": 166,
  "συζυγιας": 166,
  "αιρεισθαι": 166,
  "ελαττους": 166,
  "απτεται": 166,
  "##ερι": 165,
  "ικ": 165,
  "ματος": 165,
  "ολοκληρου": 165,
  "βουλης": 165,
  "##τηρ": 165,
  "##ριους": 165,
  "ερωτος": 165,
  "ειρη": 165,
  "δοκουντων": 165,
  "ισην": 165,
  "βελτι": 165,
  "ησυχιαν": 165,
  "αναξαγορας": 165,
  "σωκρατει": 165,
  "διδωσι": 165,
  "ηγεμονικον": 165,
  "αναπνε": 165,
  "ρειν": 164,
  "επε": 164,
  "μεσης": 164,
  "γραψας": 164,
  "μελανι": 164,
  "διεπ": 164,
  "##θαν": 164,
  "εξακ": 164,
  "τεθει": 164,
  "##ησομεν": 164,
  "βεβαιωσιν": 164,
  "εννο": 164,
  "πετω": 164,
  "θου": 164,
  "επαγομενων": 164,
  "θεραπευ": 164,
  "##οικ": 164,
  "εκαστων": 164,
  "χρωμενους": 164,
  "περιεχον": 164,
  "τρεφεσθαι": 164,
  "μελλοντος": 164,
  "προειρημενα": 164,
  "καλλιστον": 164,
  "μεσων": 164,
  "συμβαινον": 164,
  "μοναδι": 164,
  "σφαιρας": 164,
  "καλουσι": 164,
  "πεφυκος": 164,
  "##ιδης": 163,
  "##δρου": 163,
  "παθω": 163,
  "συρος": 163,
  "οδου": 163,
  "μεγας": 163,
  "##μν": 163,
  "θαλλ": 163,
  "λεγομενης": 163,
  "εμμεν": 163,
  "γαμ": 163,
  "##κοτ": 163,
  "αριστων": 163,
  "ορθ": 163,
  "##αδα": 163,
  "ημιολιον": 163,
  "μυλ": 163,
  "οικειω": 163,
  "επωνυ": 163,
  "λοχ": 163,
  "φυλαττειν": 163,
  "παρακολουθ": 163,
  "δυνατα": 163,
  "θηριων": 163,
  "ελεχθη": 163,
  "ορωντες": 163,
  "σωφροσυνην": 163,
  "ακολουθησει": 163,
  "πρεπον": 163,
  "επισκεπτεον": 163,
  "τραι": 162,
  "εγραψας": 162,
  "πεμφ": 162,
  "απολυσ": 162,
  "παλαιων": 162,
  "μεγαλω": 162,
  "ιερειων": 162,
  "##χθη": 162,
  "γευσ": 162,
  "ιατρου": 162,
  "κληρονομους": 162,
  "εναι": 162,
  "##βολ": 162,
  "πονου": 162,
  "##σουσιν": 162,
  "δηλουν": 162,
  "διακρι": 162,
  "εκελευσεν": 162,
  "δεομενον": 162,
  "προσεθηκεν": 162,
  "καταγελ": 162,
  "##οτερος": 162,
  "τιθεται": 162,
  "θυμος": 162,
  "εθελη": 162,
  "##αινειν": 162,
  "εκειτο": 162,
  "ουρανος": 162,
  "σαφεστερον": 162,
  "πλατωνα": 162,
  "νομιζουσιν": 162,
  "##αινει": 162,
  "φησει": 162,
  "γενναν": 162,
  "οθ": 161,
  "##ωσις": 161,
  "διανο": 161,
  "ευσ": 161,
  "##οβο": 161,
  "εξεστω": 161,
  "δεξιον": 161,
  "συντα": 161,
  "γνωμης": 161,
  "επεξ": 161,
  "φυλης": 161,
  "παρεσ": 161,
  "απεσταλ": 161,
  "αμυν": 161,
  "##κοτι": 161,
  "##ρην": 161,
  "##κολλ": 161,
  "αγνο": 161,
  "μακαριας": 161,
  "εδ": 161,
  "ιατρικην": 161,
  "δεδει": 161,
  "σαφες": 161,
  "ιχθυων": 161,
  "πραγματεια": 161,
  "σπερματι": 161,
  "ειγε": 161,
  "ακοην": 161,
  "ηπαρ": 161,
  "οριζεται": 161,
  "ιατρικης": 161,
  "##υε": 160,
  "εργασιαν": 160,
  "##ουλ": 160,
  "σωκρατη": 160,
  "τομ": 160,
  "ποιησ": 160,
  "δισχιλι": 160,
  "επισκεψ": 160,
  "##ουμαι": 160,
  "##μιαι": 160,
  "θρυ": 160,
  "κτηνων": 160,
  "γνωσεως": 160,
  "αδικως": 160,
  "ενεσ": 160,
  "πληρ": 160,
  "##ονος": 160,
  "μενης": 160,
  "επαρχου": 160,
  "##μμα": 160,
  "συντελει": 160,
  "μικρο": 160,
  "ορθη": 160,
  "λαβοι": 160,
  "νοησιν": 160,
  "πιθανον": 160,
  "αναιρειν": 160,
  "οσφραν": 160,
  "αδελφοις": 159,
  "οπισθεν": 159,
  "στρατ": 159,
  "χων": 159,
  "συμβη": 159,
  "κουφι": 159,
  "μαρκω": 159,
  "επιτα": 159,
  "μεμν": 159,
  "ενενηκοντα": 159,
  "αρη": 159,
  "ειρηναι": 159,
  "##στο": 159,
  "μαρτυρων": 159,
  "θιν": 159,
  "##σταν": 159,
  "##οτες": 159,
  "αφροδισια": 159,
  "εθε": 159,
  "αιτιω": 159,
  "λουκιος": 159,
  "επαι": 159,
  "θαλασσης": 159,
  "θεωρ": 159,
  "##κτα": 159,
  "δρομου": 159,
  "οργ": 159,
  "νικη": 159,
  "τιμαν": 159,
  "οσιον": 159,
  "γενοιτ": 159,
  "ταγαθα": 159,
  "υγιες": 159,
  "ενεργει": 159,
  "ποιητεον": 159,
  "ποιοι": 159,
  "ατομων": 159,
  "πλεοναχως": 159,
  "##κτο": 158,
  "μακραν": 158,
  "##νας": 158,
  "διοικειν": 158,
  "##λαι": 158,
  "καθη": 158,
  "μερισμου": 158,
  "αλα": 158,
  "περιστ": 158,
  "ιση": 158,
  "##ουται": 158,
  "τυραννος": 158,
  "δημα": 158,
  "δημαρ": 158,
  "αμβ": 158,
  "αιγυπτιων": 158,
  "ηγουμενον": 158,
  "νοησαι": 158,
  "επιφανειαν": 158,
  "επιφανειας": 158,
  "φιλοσοφειν": 158,
  "##διν": 157,
  "μενοντος": 157,
  "δημον": 157,
  "ακατα": 157,
  "##εγραφ": 157,
  "κριτων": 157,
  "επρι": 157,
  "κων": 157,
  "εκατερος": 157,
  "##ειαι": 157,
  "##χοις": 157,
  "ευη": 157,
  "παραχ": 157,
  "λαβε": 157,
  "γεγραμ": 157,
  "χρονους": 157,
  "καλαμου": 157,
  "καιρος": 157,
  "αστρα": 157,
  "τελειαν": 157,
  "##ιασ": 157,
  "##οτατος": 157,
  "ιπποκρατης": 157,
  "##τουσιν": 157,
  "καταληπ": 157,
  "απορη": 157,
  "αφθαρτον": 157,
  "βελτιους": 157,
  "πλει": 156,
  "ιδου": 156,
  "αυγ": 156,
  "##μαρ": 156,
  "ιματι": 156,
  "στω": 156,
  "κλαυδιος": 156,
  "θερμα": 156,
  "λινου": 156,
  "##ωμενων": 156,
  "ευτ": 156,
  "σημαιν": 156,
  "μεγαλοπ": 156,
  "γνω": 156,
  "περιχω": 156,
  "δανιηλ": 156,
  "ριγ": 156,
  "ελλ": 156,
  "##σεσιν": 156,
  "φιλοσοφος": 156,
  "##ερων": 156,
  "μονους": 156,
  "ποιουντος": 156,
  "αγα": 156,
  "ηρεμ": 156,
  "κατει": 156,
  "##οιο": 156,
  "ψεκ": 156,
  "ετεραι": 156,
  "##ευεται": 156,
  "εγχωρει": 156,
  "##ξις": 156,
  "πολυς": 156,
  "υπομενει": 156,
  "ουδαμου": 156,
  "μνημονευειν": 156,
  "ποιοτητας": 156,
  "θερμαι": 156,
  "διωρισται": 156,
  "ειδωλον": 156,
  "##ρογ": 155,
  "##αμε": 155,
  "βους": 155,
  "##χν": 155,
  "υπομνησ": 155,
  "καθαραν": 155,
  "καταξιω": 155,
  "##τρον": 155,
  "πτολεμαιον": 155,
  "αξι": 155,
  "φιλωνος": 155,
  "δυναμεθα": 155,
  "##θησαν": 155,
  "οροις": 155,
  "καλλικ": 155,
  "διαθεσεως": 155,
  "αγωγην": 155,
  "υποπ": 155,
  "παθει": 155,
  "##φορου": 155,
  "πλειστων": 155,
  "##τερι": 155,
  "παρασκευ": 155,
  "##ευεσθαι": 155,
  "##ζονται": 155,
  "πορους": 155,
  "απασαν": 155,
  "μιξεως": 155,
  "εʹ": 155,
  "σκοτος": 155,
  "νοειται": 155,
  "αιδου": 155,
  "κοτ": 154,
  "τως": 154,
  "τετραχ": 154,
  "##στης": 154,
  "##ριφ": 154,
  "τριαδος": 154,
  "χειρογραφον": 154,
  "θεαν": 154,
  "ηγουμενος": 154,
  "εγραφη": 154,
  "##υλ": 154,
  "μαρια": 154,
  "##γον": 154,
  "τριτην": 154,
  "εφανη": 154,
  "πεποιηται": 154,
  "ομολογειν": 154,
  "κολοβ": 154,
  "##λιαν": 154,
  "εργασ": 154,
  "εικο": 154,
  "αποδειξ": 154,
  "ισων": 154,
  "καλει": 154,
  "μειζονων": 154,
  "γενομενα": 154,
  "κακει": 154,
  "σωφρων": 154,
  "ηʹ": 154,
  "προειρηται": 154,
  "εικονα": 154,
  "σοφοι": 154,
  "ψυχρα": 154,
  "θεωρητικη": 154,
  "μεσοτης": 154,
  "χωριστα": 154,
  "##ειμ": 153,
  "λαγ": 153,
  "λιθον": 153,
  "επαρχ": 153,
  "γυν": 153,
  "χην": 153,
  "δαν": 153,
  "##λαμ": 153,
  "σιλ": 153,
  "στρατων": 153,
  "##ισιν": 153,
  "σθ": 153,
  "παρατε": 153,
  "βουκο": 153,
  "χρησις": 153,
  "αμφισβητη": 153,
  "στρατιωτων": 153,
  "επομενων": 153,
  "συνηθειαν": 153,
  "αγκ": 153,
  "κτησιν": 153,
  "δικαστηριον": 153,
  "κροτων": 153,
  "γεωμετρια": 153,
  "##τερους": 153,
  "διαπορ": 153,
  "φαντασμα": 153,
  "ορισμοι": 153,
  "φλεγμα": 153,
  "μελει": 152,
  "καλαμ": 152,
  "λεοντος": 152,
  "αγραμ": 152,
  "τετα": 152,
  "ανδρο": 152,
  "τυραννου": 152,
  "εκυ": 152,
  "θυρας": 152,
  "##τεως": 152,
  "επεσ": 152,
  "αποστα": 152,
  "κυρω": 152,
  "ηγεμον": 152,
  "πηλου": 152,
  "αρκει": 152,
  "συνερ": 152,
  "##ζομενος": 152,
  "##ευη": 152,
  "κακοις": 152,
  "εγγυτερω": 152,
  "κακοδαιμον": 152,
  "αρτιον": 152,
  "ψευδεσθαι": 152,
  "επος": 152,
  "εαντε": 152,
  "ηλιω": 151,
  "##χια": 151,
  "φει": 151,
  "##γω": 151,
  "τιμα": 151,
  "καταλαμβαν": 151,
  "αλθαι": 151,
  "##πετ": 151,
  "##γων": 151,
  "υιοι": 151,
  "##ημενα": 151,
  "αππ": 151,
  "δεδω": 151,
  "##μωι": 151,
  "κεχ": 151,
  "ξυστ": 151,
  "εσχη": 151,
  "συνεστ": 151,
  "ακρι": 151,
  "αμελει": 151,
  "καθηκοντα": 151,
  "πραξει": 151,
  "αναδε": 151,
  "ολιγω": 151,
  "βλαβ": 151,
  "##πων": 151,
  "##σθεις": 151,
  "μαχην": 151,
  "μιμη": 151,
  "εσχατα": 151,
  "αδικιαν": 151,
  "αισθανομεθα": 151,
  "νεους": 151,
  "εχομενον": 151,
  "επικουρος": 151,
  "στιγμη": 151,
  "κρασιν": 151,
  "διττον": 151,
  "κινουμενων": 151,
  "αιδιος": 151,
  "μειζους": 151,
  "αλλοιωσις": 151,
  "ελθ": 150,
  "κιβ": 150,
  "κτηνη": 150,
  "γενομενω": 150,
  "##ικους": 150,
  "##ωμι": 150,
  "κριθη": 150,
  "ανεν": 150,
  "χαρις": 150,
  "υπαρξ": 150,
  "##αρε": 150,
  "σχολ": 150,
  "διασ": 150,
  "ολοκληρον": 150,
  "υπουργ": 150,
  "##εο": 150,
  "δοκιμα": 150,
  "απασας": 150,
  "αδικη": 150,
  "εγενοντο": 150,
  "εξι": 150,
  "λοιδορ": 150,
  "αποδιδους": 150,
  "λεπτον": 150,
  "##ττειν": 150,
  "ιβʹ": 150,
  "δεικνυμενον": 150,
  "##ικας": 149,
  "κοτυ": 149,
  "##καρ": 149,
  "καρπον": 149,
  "αυλην": 149,
  "##ητα": 149,
  "##χθ": 149,
  "περιο": 149,
  "καταθε": 149,
  "##λους": 149,
  "δωρα": 149,
  "δαμα": 149,
  "παρατι": 149,
  "##κωι": 149,
  "πολιτευ": 149,
  "##σομεθα": 149,
  "γραμματικος": 149,
  "ισης": 149,
  "ετα": 149,
  "αποδειξαι": 149,
  "συνθεσις": 149,
  "δεσποτην": 149,
  "λαβωμεν": 149,
  "δυναμενα": 149,
  "σιδηρου": 149,
  "συνεστηκεν": 149,
  "θεωρειται": 149,
  "οποσα": 149,
  "πιστις": 149,
  "εναργ": 149,
  "παραδειγματα": 149,
  "φυσικης": 149,
  "φαντασ": 149,
  "αιδια": 149,
  "ελαττονων": 149,
  "ποτερ": 149,
  "ερωτων": 149,
  "μαυ": 148,
  "##βαλ": 148,
  "##ελα": 148,
  "ασπασ": 148,
  "αποδωσομεν": 148,
  "##ορας": 148,
  "απαι": 148,
  "##ησιου": 148,
  "γμ": 148,
  "δεοντα": 148,
  "ξθ": 148,
  "κουφ": 148,
  "νικην": 148,
  "πιστευειν": 148,
  "λεωνιδου": 148,
  "σημαινομενα": 148,
  "δουλου": 148,
  "φαιν": 148,
  "οικονομι": 148,
  "##σαμην": 148,
  "ρουφου": 148,
  "##οντο": 148,
  "καθαρω": 148,
  "##θειν": 148,
  "νοσ": 148,
  "κτην": 148,
  "συναν": 148,
  "συμπαρ": 148,
  "δυναμενοι": 148,
  "ανωτερω": 148,
  "πρωτους": 148,
  "φυλατ": 148,
  "κοινωνιας": 148,
  "γινομενοις": 148,
  "λανθανει": 148,
  "προθυμ": 148,
  "ορεξιν": 148,
  "ψοφος": 148,
  "ηδοναις": 148,
  "οργη": 148,
  "τριγωνου": 148,
  "υγι": 147,
  "απολι": 147,
  "ουαλ": 147,
  "ποιηση": 147,
  "γενναι": 147,
  "##ραφη": 147,
  "στοιχ": 147,
  "οιας": 147,
  "##αιος": 147,
  "γινηται": 147,
  "δημου": 147,
  "αδικος": 147,
  "##ριχ": 147,
  "##πορ": 147,
  "εθη": 147,
  "δωσει": 147,
  "λαι": 147,
  "απασης": 147,
  "##βους": 147,
  "μελιτος": 147,
  "στερεον": 147,
  "σοφω": 147,
  "επιδ": 147,
  "διονυ": 147,
  "συναλλαγ": 147,
  "λαμβανουσιν": 147,
  "συμμ": 147,
  "αντα": 147,
  "φιλοκ": 147,
  "παλη": 147,
  "συνεστη": 147,
  "πρεσβυτερον": 147,
  "πονων": 147,
  "αγων": 147,
  "εξαν": 147,
  "ζων": 147,
  "αδικιας": 147,
  "νευρα": 147,
  "θεωρησαι": 147,
  "ποιοτητες": 147,
  "διορισμον": 147,
  "δημητ": 146,
  "φαυ": 146,
  "κιτ": 146,
  "νην": 146,
  "βοι": 146,
  "συμπληρω": 146,
  "αιρω": 146,
  "ερη": 146,
  "λεμ": 146,
  "γεγενησθαι": 146,
  "κριτηριου": 146,
  "γινοιτο": 146,
  "επην": 146,
  "κατη": 146,
  "θυσιας": 146,
  "ανηλ": 146,
  "κεντ": 146,
  "ενοχ": 146,
  "ενεργ": 146,
  "αφει": 146,
  "υπομενειν": 146,
  "ζηνων": 146,
  "##ειους": 146,
  "κειμενου": 146,
  "θειαν": 146,
  "ξενων": 146,
  "μαρτυρει": 146,
  "μοιραν": 146,
  "στασιν": 146,
  "δυσχερ": 146,
  "πρωτοι": 146,
  "τεμν": 146,
  "φυτον": 146,
  "τεχναι": 146,
  "ψυχαι": 146,
  "συνημμενον": 146,
  "τετραγωνον": 146,
  "αλλοιωσιν": 146,
  "αννι": 145,
  "αντιλογιας": 145,
  "διετ": 145,
  "υλ": 145,
  "γωνιας": 145,
  "##μοσ": 145,
  "νικα": 145,
  "ταχει": 145,
  "τετρ": 145,
  "καθηκον": 145,
  "μοριω": 145,
  "αναπλ": 145,
  "κοινος": 145,
  "##αρου": 145,
  "γεγονως": 145,
  "αυτοκρατωρ": 145,
  "λαμβανοντες": 145,
  "ανεμων": 145,
  "φασις": 145,
  "μεταβ": 145,
  "αριστε": 145,
  "υφηγ": 145,
  "αναλογια": 145,
  "τοσουτων": 145,
  "κυνων": 145,
  "διαφερουσι": 145,
  "αλογων": 145,
  "##ιστον": 145,
  "ενεστιν": 145,
  "μορφη": 145,
  "οικοδομι": 145,
  "ηδιον": 145,
  "τοιαυταις": 145,
  "ηγειται": 145,
  "λιθους": 144,
  "ασκληπιαδης": 144,
  "γν": 144,
  "ομαλ": 144,
  "##οδου": 144,
  "φροντι": 144,
  "ασημος": 144,
  "παραν": 144,
  "εδηλωσεν": 144,
  "τελειας": 144,
  "##εμε": 144,
  "##ιμον": 144,
  "επακ": 144,
  "ημετερων": 144,
  "##εστατω": 144,
  "αθε": 144,
  "δικαστηριω": 144,
  "##οσε": 144,
  "υποτεταγ": 144,
  "φρε": 144,
  "σεμνο": 144,
  "πεντεκαιδεκατη": 144,
  "##ισμον": 144,
  "καταφρον": 144,
  "μελανα": 144,
  "ηφαιστι": 144,
  "διαθηκη": 144,
  "##ατον": 144,
  "προτερου": 144,
  "##ρωσιν": 144,
  "##σιον": 144,
  "μηδεπω": 144,
  "ανομ": 144,
  "γεγυμν": 144,
  "##τητε": 144,
  "φανειη": 144,
  "αντικρυς": 144,
  "αναιρε": 144,
  "εποιει": 144,
  "περιεχοντος": 144,
  "νυκτωρ": 144,
  "λεκ": 144,
  "δοξασ": 144,
  "κρινει": 144,
  "φρονιμος": 144,
  "ποιητικη": 144,
  "εναντιοις": 144,
  "χρωμεθα": 144,
  "ενδεχομενως": 144,
  "καυσ": 143,
  "##ρησθαι": 143,
  "##οτατων": 143,
  "εκατο": 143,
  "συντι": 143,
  "επικεκ": 143,
  "ομομητ": 143,
  "πρεσβυτερων": 143,
  "ευκλε": 143,
  "νοων": 143,
  "απατη": 143,
  "##καμ": 143,
  "εισο": 143,
  "αναγνωσ": 143,
  "ενετ": 143,
  "σινα": 143,
  "πειρω": 143,
  "λειτουργ": 143,
  "μονοι": 143,
  "πανταχοθεν": 143,
  "λεγομενω": 143,
  "επιπ": 143,
  "μακαρ": 143,
  "ονου": 143,
  "ειδοτων": 143,
  "αποστη": 143,
  "βασιλευοντων": 143,
  "ημετερον": 143,
  "οσας": 143,
  "ωρισμενα": 143,
  "υδρα": 143,
  "##νια": 143,
  "##πους": 143,
  "χρον": 143,
  "ακρατ": 143,
  "##τουσι": 143,
  "θερους": 143,
  "αθροι": 143,
  "μεγιστος": 143,
  "κεχρηται": 143,
  "##ικοι": 143,
  "ουδεμιας": 143,
  "ανδρασιν": 143,
  "υπερβαλλ": 143,
  "πνευματα": 143,
  "σκληρον": 143,
  "τετταρων": 143,
  "θεσις": 143,
  "διανοεισθαι": 143,
  "ζητητεον": 143,
  "συμμετρον": 143,
  "ειληπται": 143,
  "αισθητη": 143,
  "ορωμενον": 143,
  "ενδεχομενην": 143,
  "αρβ": 142,
  "πωλειν": 142,
  "γραφης": 142,
  "βοων": 142,
  "ανθρωπινον": 142,
  "##οθ": 142,
  "δαμ": 142,
  "παρευ": 142,
  "επιτε": 142,
  "παρεστιν": 142,
  "χριστ": 142,
  "##ιλα": 142,
  "επη": 142,
  "απελλ": 142,
  "μεταβαλ": 142,
  "πλουτ": 142,
  "υπερπ": 142,
  "ηξιω": 142,
  "δαιμων": 142,
  "πολιτ": 142,
  "##βεν": 142,
  "προσδι": 142,
  "ιερειας": 142,
  "ελευθερον": 142,
  "παντοθεν": 142,
  "αγωγης": 142,
  "υγειαν": 142,
  "τριτο": 142,
  "οστα": 142,
  "αβυ": 142,
  "επιεικ": 142,
  "πηγνυ": 142,
  "απορει": 142,
  "επιτηδευ": 142,
  "αγνοια": 142,
  "ευδαιμονειν": 142,
  "αθηναιοι": 142,
  "βουλευεσθαι": 142,
  "αυτοανθρω": 142,
  "αντιφασις": 142,
  "αδοξ": 142,
  "##υρο": 141,
  "εδο": 141,
  "διαλογισ": 141,
  "υπνω": 141,
  "κριτη": 141,
  "##ριδος": 141,
  "συντελε": 141,
  "##οτατη": 141,
  "κληρονομιας": 141,
  "επισκοπου": 141,
  "πεντεκαιδεκα": 141,
  "##ρακ": 141,
  "εφασαν": 141,
  "στε": 141,
  "γεωμετριας": 141,
  "εκκει": 141,
  "μαλακον": 141,
  "##χιας": 141,
  "θησαυρου": 141,
  "##κισ": 141,
  "διελθοντος": 141,
  "εθους": 141,
  "μαυρικιου": 141,
  "δρασ": 141,
  "επιτρεπ": 141,
  "αυταρ": 141,
  "βλαπ": 141,
  "δυνησεται": 141,
  "οφθαλμους": 141,
  "λεχ": 141,
  "##ευσαι": 141,
  "##θεισιν": 141,
  "ενδειαν": 141,
  "διωκειν": 141,
  "##ασεις": 141,
  "θυμ": 141,
  "χρωμενον": 141,
  "θηρε": 141,
  "ομηρου": 141,
  "κολαζ": 141,
  "σοφων": 141,
  "##ωδες": 141,
  "μαλακ": 141,
  "αυξαν": 140,
  "##οτο": 140,
  "ραι": 140,
  "υδρευ": 140,
  "δυνα": 140,
  "ομοπατ": 140,
  "περσι": 140,
  "γεωργιας": 140,
  "πεδιω": 140,
  "κεφαλων": 140,
  "ειρηνη": 140,
  "εξερ": 140,
  "κεφαλαιω": 140,
  "προσω": 140,
  "βιαν": 140,
  "##υη": 140,
  "επισκεψασθαι": 140,
  "πλοια": 140,
  "##αια": 140,
  "τρισχιλι": 140,
  "ανυσ": 140,
  "φοβος": 140,
  "διαρ": 140,
  "##ατων": 140,
  "##ασει": 140,
  "ολιγωρ": 140,
  "διαφ": 140,
  "##αντο": 140,
  "σκεψ": 140,
  "##θωμεν": 140,
  "ιατρων": 140,
  "εικη": 140,
  "εκεινως": 140,
  "ρητορικης": 140,
  "επαινειν": 140,
  "αρτηριας": 140,
  "ευτυχη": 139,
  "πλατ": 139,
  "καπ": 139,
  "μαλ": 139,
  "αλεξανδρειας": 139,
  "αλεξανδρω": 139,
  "θελει": 139,
  "ενεγ": 139,
  "καρπ": 139,
  "οξους": 139,
  "αταρ": 139,
  "αποφ": 139,
  "υπομνηματι": 139,
  "##ολου": 139,
  "νομισματων": 139,
  "##τρου": 139,
  "αδελφο": 139,
  "ταπι": 139,
  "##ηα": 139,
  "##υτη": 139,
  "αδολον": 139,
  "επιδε": 139,
  "ζωπ": 139,
  "##ημενων": 139,
  "ιππευς": 139,
  "επιβαλλ": 139,
  "μηκους": 139,
  "ικανος": 139,
  "ποσ": 139,
  "προαιρεσει": 139,
  "κελευει": 139,
  "αποτ": 139,
  "συνεισ": 139,
  "καλουμενον": 139,
  "διδους": 139,
  "νομιμα": 139,
  "ειρημενου": 139,
  "αφαιρε": 139,
  "εξαιφνης": 139,
  "ηπο": 139,
  "ενθεν": 139,
  "βιβλιον": 139,
  "ευρισκεται": 139,
  "##σειεν": 139,
  "επιχειρειν": 139,
  "κακεινα": 139,
  "παραπλησια": 139,
  "δοξαζειν": 139,
  "μιξις": 139,
  "⸏": 139,
  "ωοτο": 139,
  "##βαρ": 138,
  "##ρατι": 138,
  "καρπου": 138,
  "ευεργετη": 138,
  "δακτυλω": 138,
  "βοηθειας": 138,
  "παιδιον": 138,
  "χη": 138,
  "##ομα": 138,
  "##δρ": 138,
  "λικ": 138,
  "πλε": 138,
  "εξηγ": 138,
  "ζητ": 138,
  "##τευσαν": 138,
  "##θυ": 138,
  "αμελ": 138,
  "##θεισι": 138,
  "εκτα": 138,
  "διακριν": 138,
  "θερμο": 138,
  "##σισ": 138,
  "παρουσαν": 138,
  "αλλοτρια": 138,
  "##κασι": 138,
  "ησυχ": 138,
  "υποκεισθαι": 138,
  "επιδεχεται": 138,
  "πλειστοις": 138,
  "πραττων": 138,
  "γινομενος": 138,
  "αρμονιας": 138,
  "διδασκαλιας": 138,
  "θερμω": 138,
  "ειδωλα": 138,
  "δειπνον": 138,
  "επεκεινα": 138,
  "αναιρει": 138,
  "μιξιν": 138,
  "συνεχει": 138,
  "θεωρει": 138,
  "συμφερει": 138,
  "επιθυμιων": 138,
  "τοδι": 138,
  "ατομα": 138,
  "υπαρχοντως": 138,
  "##ελλα": 137,
  "οη": 137,
  "κλι": 137,
  "##κρατ": 137,
  "αριστερας": 137,
  "##εσα": 137,
  "##τιας": 137,
  "ερμων": 137,
  "απολλωνιον": 137,
  "βεβαιαν": 137,
  "μακαριος": 137,
  "γραφην": 137,
  "##χορ": 137,
  "καινον": 137,
  "σπορον": 137,
  "##γος": 137,
  "προσι": 137,
  "##υσαν": 137,
  "τετρω": 137,
  "##ιης": 137,
  "##κευ": 137,
  "χωριων": 137,
  "τριτος": 137,
  "αναμνησ": 137,
  "δυνατος": 137,
  "πεποιηκεν": 137,
  "κρισις": 137,
  "τρεπ": 137,
  "μικρων": 137,
  "παραπλησιον": 137,
  "μεσην": 137,
  "τοια": 137,
  "ρητορικη": 137,
  "ποτον": 137,
  "διορισ": 137,
  "ηγουνται": 137,
  "αναθυμιασις": 137,
  "εναντιαι": 137,
  "εγγιγν": 137,
  "απολιν": 136,
  "λεοντι": 136,
  "χαλκι": 136,
  "σατορν": 136,
  "##σατε": 136,
  "θελεις": 136,
  "ελθη": 136,
  "αποκαταστ": 136,
  "πεντη": 136,
  "##ραπ": 136,
  "##αχου": 136,
  "θεαι": 136,
  "##αρσ": 136,
  "αδιαιρ": 136,
  "##καλε": 136,
  "##κτω": 136,
  "γραφεν": 136,
  "κτηματων": 136,
  "ριπ": 136,
  "υποδι": 136,
  "##ωσα": 136,
  "παραλλ": 136,
  "πεμπ": 136,
  "αλεξανδρεων": 136,
  "##σαντας": 136,
  "κυβερνη": 136,
  "##σμους": 136,
  "##ρυγ": 136,
  "τρυγη": 136,
  "προσθ": 136,
  "εσε": 136,
  "εαυτα": 136,
  "δουλων": 136,
  "νεστ": 136,
  "αντιδι": 136,
  "ασκη": 136,
  "τελευταιον": 136,
  "##κεται": 136,
  "αποφασεις": 136,
  "αδικεισθαι": 136,
  "δεικνυσθαι": 136,
  "φωνας": 136,
  "ρηθησεται": 136,
  "ψοφ": 136,
  "φοβεισθαι": 136,
  "ηρεμα": 136,
  "ακρατης": 136,
  "ερωταν": 136,
  "ραν": 135,
  "δερμα": 135,
  "##ριμ": 135,
  "εκτ": 135,
  "αγιων": 135,
  "ενσ": 135,
  "κρατει": 135,
  "οπλα": 135,
  "##ψομεν": 135,
  "διογ": 135,
  "ετε": 135,
  "μετρι": 135,
  "επτακαιδεκα": 135,
  "εδοξε": 135,
  "ανο": 135,
  "τηνικαυτα": 135,
  "γραφων": 135,
  "διεστ": 135,
  "##γει": 135,
  "εκτη": 135,
  "ολοκλη": 135,
  "δαπανης": 135,
  "αποστι": 135,
  "αληθευειν": 135,
  "τειν": 135,
  "ποιμ": 135,
  "οτ": 135,
  "υπεροχη": 135,
  "απολλωνα": 135,
  "προχει": 135,
  "##σαντι": 135,
  "πορευ": 135,
  "##ειεν": 135,
  "υπαλλ": 135,
  "πορων": 135,
  "ειρηκεναι": 135,
  "κτησεως": 135,
  "τιθε": 135,
  "ενδοξων": 135,
  "δυναμενους": 135,
  "βραδυτερον": 135,
  "σαρκι": 135,
  "λυπηρον": 135,
  "λεγοιεν": 135,
  "αιρετα": 135,
  "διοισει": 135,
  "υπερεχον": 135,
  "χαλεπα": 135,
  "ομματων": 135,
  "φαυλ": 135,
  "ηπατος": 135,
  "##κορ": 134,
  "σκυτ": 134,
  "##ληφεναι": 134,
  "σεβασ": 134,
  "ερωτηθεις": 134,
  "φορων": 134,
  "##οντως": 134,
  "σκευ": 134,
  "διαπεμ": 134,
  "αλογως": 134,
  "φαλ": 134,
  "μακεδων": 134,
  "συγχωρη": 134,
  "##λαβ": 134,
  "χορτον": 134,
  "παραλειπ": 134,
  "ιππια": 134,
  "φυλαξ": 134,
  "συνηθειας": 134,
  "ερα": 134,
  "προκειμενη": 134,
  "δικαιοις": 134,
  "παραδουναι": 134,
  "##ωμενος": 134,
  "##τητα": 134,
  "συνεφ": 134,
  "πλειοσιν": 134,
  "##ιδων": 134,
  "γναφ": 134,
  "ισχει": 134,
  "νεως": 134,
  "##ζοντας": 134,
  "ερων": 134,
  "τρεφεται": 134,
  "προυπαρχ": 134,
  "=": 134,
  "κενω": 134,
  "πιθαν": 134,
  "αριστοτελους": 134,
  "θεωρημα": 134,
  "εναργες": 134,
  "αρχεται": 134,
  "αναθυμιασιν": 134,
  "αισθητηριων": 134,
  "μιξει": 134,
  "ενυπαρχει": 134,
  "ιεραξ": 133,
  "##αιω": 133,
  "επαρχω": 133,
  "##ανα": 133,
  "τεθη": 133,
  "##εκα": 133,
  "##οργ": 133,
  "##ροδο": 133,
  "##εμπ": 133,
  "απεδ": 133,
  "##υτου": 133,
  "##ημου": 133,
  "παχυ": 133,
  "ιουστινου": 133,
  "ερωτη": 133,
  "ταλαν": 133,
  "ελλην": 133,
  "οιτινες": 133,
  "μεμφιν": 133,
  "##ερως": 133,
  "ποπ": 133,
  "ενει": 133,
  "ευσεβεστατου": 133,
  "σωκρατην": 133,
  "δανεισ": 133,
  "νυκτι": 133,
  "εχρησατο": 133,
  "μελιτ": 133,
  "μεστα": 133,
  "κινδυνευει": 133,
  "τυγχανουσιν": 133,
  "περιεχεται": 133,
  "πολεμιων": 133,
  "νεος": 133,
  "παρεστι": 133,
  "αφαιρειται": 133,
  "αστερων": 133,
  "κρασις": 133,
  "διαφθειρ": 133,
  "πηγνυται": 133,
  "οκ": 132,
  "τεν": 132,
  "αχρις": 132,
  "αποσπα": 132,
  "σημαν": 132,
  "##υι": 132,
  "##ειος": 132,
  "επιτελ": 132,
  "προσταξαι": 132,
  "κυριας": 132,
  "συγκρι": 132,
  "εστωσαν": 132,
  "οιων": 132,
  "αναστα": 132,
  "##ησασθαι": 132,
  "στρατηγον": 132,
  "##υσαι": 132,
  "##πεν": 132,
  "##ιανω": 132,
  "νεωτερου": 132,
  "##θωσι": 132,
  "αχρη": 132,
  "ανδρασι": 132,
  "λεξις": 132,
  "λογιζ": 132,
  "οιου": 132,
  "περιγεν": 132,
  "περιποι": 132,
  "αποκρινασθαι": 132,
  "διδασκ": 132,
  "αντιστ": 132,
  "αρχοντα": 132,
  "αποδεκ": 132,
  "θαυμαζειν": 132,
  "ασυμ": 132,
  "παρεχεται": 132,
  "λυπεισθαι": 132,
  "αοριστου": 132,
  "αλογου": 132,
  "ρητορικην": 132,
  "αλμυρον": 132,
  "κελσος": 132,
  "χρυσο": 131,
  "καλανδων": 131,
  "δηλωσαι": 131,
  "γων": 131,
  "ηρο": 131,
  "##ρειας": 131,
  "αποδοσ": 131,
  "σιων": 131,
  "σχοιν": 131,
  "αυταρκες": 131,
  "περιτι": 131,
  "συναγεσθαι": 131,
  "συνοικ": 131,
  "ησ": 131,
  "βασιλικων": 131,
  "λοιποι": 131,
  "δεχ": 131,
  "##κουν": 131,
  "αριστι": 131,
  "##καις": 131,
  "##ενην": 131,
  "##νειν": 131,
  "##νους": 131,
  "##υρον": 131,
  "οφειλομεν": 131,
  "συνειναι": 131,
  "καιροις": 131,
  "οικοι": 131,
  "φασκων": 131,
  "πολεμιους": 131,
  "δογματων": 131,
  "τουτι": 131,
  "λαμβανοι": 131,
  "λεχθεν": 131,
  "ζωοτο": 131,
  "παθεσι": 131,
  "οφθαλμος": 131,
  "αισθητικη": 131,
  "συνεχους": 131,
  "χυμον": 131,
  "##αιν": 130,
  "##βας": 130,
  "γου": 130,
  "κεναι": 130,
  "πεπληρωσθαι": 130,
  "##κελλ": 130,
  "##λειν": 130,
  "φων": 130,
  "##εστ": 130,
  "##παν": 130,
  "φιλοτιμ": 130,
  "πρωην": 130,
  "δυστ": 130,
  "ηρακλεια": 130,
  "##υρας": 130,
  "##οπωλ": 130,
  "ευφυ": 130,
  "ελεου": 130,
  "διαμ": 130,
  "##λισ": 130,
  "ασυν": 130,
  "διαιρεσει": 130,
  "δυν": 130,
  "ελεγχον": 130,
  "##εστερα": 130,
  "μελλοντων": 130,
  "αισχυν": 130,
  "διεψευ": 130,
  "##ζομεν": 130,
  "ολος": 130,
  "αρμο": 130,
  "διαφορους": 130,
  "##τηται": 130,
  "βουλομενον": 130,
  "##γνυ": 130,
  "μεγαλας": 130,
  "##οτατα": 130,
  "κακος": 130,
  "αʹ": 130,
  "σωφρον": 130,
  "διαμετρον": 130,
  "γνωριμω": 130,
  "πινειν": 130,
  "πολλαχου": 130,
  "φθαρτα": 130,
  "αψυχον": 130,
  "##οιμεθα": 130,
  "##τατοις": 129,
  "επιτροπος": 129,
  "τιβερι": 129,
  "εστη": 129,
  "μοσ": 129,
  "ειημεν": 129,
  "οιομενος": 129,
  "ενιαυσι": 129,
  "##ωρα": 129,
  "ταχος": 129,
  "μετρησει": 129,
  "σας": 129,
  "σπερμ": 129,
  "ειδω": 129,
  "ερμη": 129,
  "εσχε": 129,
  "γυμ": 129,
  "ελαβε": 129,
  "υιοις": 129,
  "καθολι": 129,
  "επισκ": 129,
  "ραπ": 129,
  "αγγειον": 129,
  "αμου": 129,
  "αδιαφορ": 129,
  "προστ": 129,
  "##ιοι": 129,
  "βελλ": 129,
  "##ουργ": 129,
  "κατι": 129,
  "γεγονοτος": 129,
  "##τεραν": 129,
  "προαιρ": 129,
  "κοινας": 129,
  "εμμελ": 129,
  "ανδρει": 129,
  "εξεστι": 129,
  "ορεγ": 129,
  "##τοντες": 129,
  "##κεσθαι": 129,
  "πραγματειαν": 129,
  "κυρος": 129,
  "αποφαιν": 129,
  "πειρασθαι": 129,
  "ορθην": 129,
  "εναντιαν": 129,
  "κεχωρισμενον": 129,
  "φαυλος": 129,
  "φευκτον": 129,
  "ουτωσι": 129,
  "υπαρχοι": 129,
  "νομοθετης": 129,
  "αριστοκρατι": 129,
  "αναθυμιασεως": 129,
  "συμπλοκη": 129,
  "τεμ": 128,
  "εξουσια": 128,
  "γλαυ": 128,
  "##ημον": 128,
  "ειδι": 128,
  "βιων": 128,
  "##τιδος": 128,
  "εκατερας": 128,
  "αναλωματα": 128,
  "εχθ": 128,
  "συμμαχ": 128,
  "αμεμπτως": 128,
  "απολει": 128,
  "##φραγ": 128,
  "παραστα": 128,
  "μεριδα": 128,
  "εισπραξ": 128,
  "προτα": 128,
  "χρηστον": 128,
  "θαυμασι": 128,
  "##κες": 128,
  "ηγεμονιας": 128,
  "ψωμι": 128,
  "ονομασι": 128,
  "κοινωνειν": 128,
  "αρκ": 128,
  "##αυτο": 128,
  "συντ": 128,
  "γεγονοτων": 128,
  "κυων": 128,
  "συμβαλλεται": 128,
  "χρηναι": 128,
  "αδικων": 128,
  "##ʹ": 128,
  "λεγοντι": 128,
  "φιλοσοφον": 128,
  "προσλαμβαν": 128,
  "πολιτικη": 128,
  "κατηγοριων": 128,
  "συμπερασματι": 128,
  "ανδριαντος": 128,
  "στερησεως": 128,
  "πατρο": 127,
  "εισα": 127,
  "##ροκ": 127,
  "ιματια": 127,
  "βαλλ": 127,
  "αλεξαν": 127,
  "##αλα": 127,
  "ξι": 127,
  "φρουριου": 127,
  "πηχεις": 127,
  "νησω": 127,
  "##σαμενος": 127,
  "##ευτο": 127,
  "##εσθε": 127,
  "σιτια": 127,
  "##λιν": 127,
  "συμφωνια": 127,
  "##λιανου": 127,
  "τοσαυτην": 127,
  "##τεσθαι": 127,
  "##οφυλαξ": 127,
  "##ειε": 127,
  "ενορ": 127,
  "απλην": 127,
  "##ατη": 127,
  "λυσιν": 127,
  "κεχωρισ": 127,
  "κρισεις": 127,
  "##αζειν": 127,
  "μαχη": 127,
  "πανοπ": 127,
  "συνακ": 127,
  "ανια": 127,
  "ενυ": 127,
  "φιλει": 127,
  "ακριβ": 127,
  "ανδριας": 127,
  "φωμεν": 127,
  "πολεσι": 127,
  "συμπερασματα": 127,
  "επιχ": 126,
  "ευρησ": 126,
  "αποδοσεως": 126,
  "νυκτα": 126,
  "τησ": 126,
  "σκευη": 126,
  "δεσποτης": 126,
  "ηλικια": 126,
  "πορι": 126,
  "ονος": 126,
  "##ρησιν": 126,
  "περση": 126,
  "πυρο": 126,
  "εξεσται": 126,
  "θερ": 126,
  "βοη": 126,
  "εξαμ": 126,
  "πολιτικης": 126,
  "αγορας": 126,
  "απετ": 126,
  "##ολα": 126,
  "καταπλ": 126,
  "καταστησαι": 126,
  "##εισης": 126,
  "##θεισαι": 126,
  "δεσμα": 126,
  "##νοι": 126,
  "επιπεδα": 126,
  "##χουν": 126,
  "αγνοει": 126,
  "δογμα": 126,
  "ευνοιαν": 126,
  "προσκειται": 126,
  "##τατοι": 126,
  "συστασεως": 126,
  "ζητειται": 126,
  "γυμνασ": 126,
  "προηγ": 126,
  "συναγει": 126,
  "λιθου": 126,
  "κεχωρισμενα": 126,
  "απεπ": 126,
  "νοουν": 126,
  "διδακτον": 126,
  "ευρεσιν": 126,
  "φυσικοις": 126,
  "μεταβολας": 126,
  "αιτιαι": 126,
  "μαθηματικων": 126,
  "συγκεισθαι": 126,
  "δεδωκα": 125,
  "##υδ": 125,
  "εργασιας": 125,
  "φιλοκαλ": 125,
  "εννομ": 125,
  "##ελε": 125,
  "χρεων": 125,
  "κτησι": 125,
  "απεχει": 125,
  "##κλεους": 125,
  "προσεχειν": 125,
  "επεσταλ": 125,
  "στεφαν": 125,
  "ενη": 125,
  "ημετεραν": 125,
  "μυριων": 125,
  "διηρη": 125,
  "εργαζ": 125,
  "κρονου": 125,
  "επαυ": 125,
  "ακανθ": 125,
  "ανην": 125,
  "παραδιδ": 125,
  "οιομενοι": 125,
  "κιθαρ": 125,
  "στερ": 125,
  "##οτροφ": 125,
  "συνδυ": 125,
  "προσποι": 125,
  "μοναδας": 125,
  "συμπ": 125,
  "ενδεια": 125,
  "##αυν": 125,
  "φαρμακον": 125,
  "ηρεμει": 125,
  "πεφυκ": 125,
  "πυθαγορειοι": 125,
  "ειπωμεν": 125,
  "εδωκα": 124,
  "εισε": 124,
  "##αρχου": 124,
  "αθηνα": 124,
  "αντιλαμβαν": 124,
  "νεο": 124,
  "##κατα": 124,
  "χαριτος": 124,
  "νεωτερος": 124,
  "εξηρ": 124,
  "##λεν": 124,
  "##αμενη": 124,
  "ουθεις": 124,
  "μετοχων": 124,
  "οικετου": 124,
  "αξιας": 124,
  "ηξιου": 124,
  "##ιπτον": 124,
  "πλω": 124,
  "δουλης": 124,
  "τρυφ": 124,
  "ευθυν": 124,
  "βαστα": 124,
  "διατα": 124,
  "πτ": 124,
  "ολιγοι": 124,
  "##ηθεις": 124,
  "##ιδας": 124,
  "τριω": 124,
  "μεγιστη": 124,
  "σταθ": 124,
  "γεγονοτα": 124,
  "##ημενον": 124,
  "##τεα": 124,
  "##ηματα": 124,
  "υπηρχεν": 124,
  "απειρω": 124,
  "ρητωρ": 124,
  "αποφαν": 124,
  "υπερεχει": 124,
  "στασις": 124,
  "ψευδων": 124,
  "νομοθετου": 124,
  "οικειως": 124,
  "επαινου": 124,
  "ορθαις": 124,
  "τριχες": 124,
  "αντιστραφεισης": 124,
  "ρωμη": 123,
  "##κοπ": 123,
  "##ητη": 123,
  "φον": 123,
  "αποτι": 123,
  "διακοσια": 123,
  "επιβαλ": 123,
  "ερρωσ": 123,
  "δεσποινης": 123,
  "καλουμενου": 123,
  "υμετεραν": 123,
  "##καλεσ": 123,
  "κατακεχ": 123,
  "βραδυ": 123,
  "##οκοπ": 123,
  "ανδρε": 123,
  "αβδ": 123,
  "υπετ": 123,
  "δικα": 123,
  "αναγκαι": 123,
  "##λαμβαν": 123,
  "προθυμως": 123,
  "βιβλιων": 123,
  "πιστει": 123,
  "δηλ": 123,
  "ελαττου": 123,
  "υπηρεσιαν": 123,
  "##ζουσα": 123,
  "συνηθεια": 123,
  "υδατα": 123,
  "πολυτ": 123,
  "τρεφειν": 123,
  "μικρας": 123,
  "γεγονασιν": 123,
  "στερεα": 123,
  "ευθεια": 123,
  "διδασκαλιαν": 123,
  "ηθ": 123,
  "πλησι": 123,
  "διαφων": 123,
  "συμβαλλ": 123,
  "ενεργη": 123,
  "χρηστεον": 123,
  "ατομον": 123,
  "φυσικην": 123,
  "νοουμεν": 123,
  "ωετο": 123,
  "ελλειψιν": 123,
  "οσμη": 123,
  "διαιρειν": 123,
  "εποιησα": 122,
  "αναν": 122,
  "μενω": 122,
  "κρισ": 122,
  "φου": 122,
  "δημοσιας": 122,
  "ετελευτησεν": 122,
  "κοσμι": 122,
  "##λαν": 122,
  "διεκ": 122,
  "αναφο": 122,
  "μεμφι": 122,
  "σωματ": 122,
  "##σουσι": 122,
  "γεωργιος": 122,
  "##ακι": 122,
  "ζευγη": 122,
  "##τυρ": 122,
  "οφειλειν": 122,
  "ακω": 122,
  "θαυμαζω": 122,
  "αισχ": 122,
  "αχι": 122,
  "γειτνι": 122,
  "οποτερον": 122,
  "επιχειρ": 122,
  "σωτηρια": 122,
  "μαθ": 122,
  "επισταμενος": 122,
  "πνευματι": 122,
  "ηδεσθαι": 122,
  "δικας": 122,
  "ατεχν": 122,
  "φαυλων": 122,
  "διδασκει": 122,
  "ποιητων": 122,
  "αμαρτανειν": 122,
  "ενστασιν": 122,
  "διαλεκτικη": 122,
  "ομοιαν": 122,
  "κρειττων": 122,
  "συμμετρια": 122,
  "αλλοιωσεως": 122,
  "καταφατικων": 122,
  "ημικ": 121,
  "τερον": 121,
  "θην": 121,
  "ειληφεναι": 121,
  "##ερας": 121,
  "απει": 121,
  "##βαν": 121,
  "μηδεμιας": 121,
  "ηγεμονα": 121,
  "παρεξω": 121,
  "διπλην": 121,
  "##θεω": 121,
  "##βο": 121,
  "διοδωρος": 121,
  "##στως": 121,
  "αντισ": 121,
  "κεκρι": 121,
  "ερημ": 121,
  "δυνηται": 121,
  "##ωτα": 121,
  "τερα": 121,
  "συνιστασθαι": 121,
  "απεστι": 121,
  "υγιως": 121,
  "διατειν": 121,
  "πεπ": 121,
  "##μονα": 121,
  "μακαριω": 121,
  "##ζομενοι": 121,
  "υπολειπ": 121,
  "γυμνασιου": 121,
  "##ωτερον": 121,
  "εξειν": 121,
  "οχε": 121,
  "##ξαν": 121,
  "διαιταν": 121,
  "εγνω": 121,
  "αντιτυπ": 121,
  "ζητησεως": 121,
  "λαμβανομεν": 121,
  "γνωριμων": 121,
  "ιππους": 121,
  "απαντ": 121,
  "μεγιστην": 121,
  "εφαρμο": 121,
  "παθητικον": 121,
  "παμπαν": 121,
  "επαγει": 121,
  "κινητικον": 121,
  "αποδεικτικη": 121,
  "συμβεβηκεναι": 121,
  "χυμος": 121,
  "συζυγιαν": 121,
  "πεδ": 120,
  "καισαρι": 120,
  "##ειδι": 120,
  "καθευδ": 120,
  "##σμων": 120,
  "##κιαν": 120,
  "περιγ": 120,
  "##κιων": 120,
  "##στην": 120,
  "χαλκουν": 120,
  "νικης": 120,
  "κολλη": 120,
  "πολεμ": 120,
  "απατης": 120,
  "μουν": 120,
  "ματων": 120,
  "##ιστα": 120,
  "αντε": 120,
  "γνωμ": 120,
  "επισπ": 120,
  "##εσον": 120,
  "ειδυ": 120,
  "κομιδη": 120,
  "αντιλαμβανεσθαι": 120,
  "ενεχυρα": 120,
  "εμαυτω": 120,
  "##ευων": 120,
  "θαυμασ": 120,
  "##ψει": 120,
  "τεχν": 120,
  "διασαφ": 120,
  "εκπι": 120,
  "##σσων": 120,
  "θερμαν": 120,
  "##τομενον": 120,
  "προσωπου": 120,
  "σπουδη": 120,
  "δηλα": 120,
  "πλευρας": 120,
  "##κοντες": 120,
  "φασκοντες": 120,
  "ελληνες": 120,
  "χρωματι": 120,
  "περιπατου": 120,
  "στωικοι": 120,
  "υποθεσις": 120,
  "##ζοι": 120,
  "θαλαττη": 120,
  "εναντιωσιν": 120,
  "αποκ": 119,
  "εδωκε": 119,
  "ευρω": 119,
  "οικονομειν": 119,
  "ιουλιανου": 119,
  "πεμπτη": 119,
  "αποστειλον": 119,
  "##ρευ": 119,
  "θεογον": 119,
  "οικειν": 119,
  "##σμα": 119,
  "##ζα": 119,
  "##θεισων": 119,
  "ινδι": 119,
  "επα": 119,
  "ενατης": 119,
  "πυλης": 119,
  "ωμ": 119,
  "βαβ": 119,
  "ιερε": 119,
  "γενεσι": 119,
  "##διος": 119,
  "##σιων": 119,
  "δων": 119,
  "##κεις": 119,
  "##ινη": 119,
  "αναλωματων": 119,
  "ειδεσι": 119,
  "μηνυ": 119,
  "τυπον": 119,
  "##ξεως": 119,
  "παλαιστ": 119,
  "ορμωμενος": 119,
  "φυλακη": 119,
  "κλω": 119,
  "οικειους": 119,
  "περσου": 119,
  "ανιε": 119,
  "##κουσιν": 119,
  "προδηλον": 119,
  "ωθ": 119,
  "αθροως": 119,
  "κατασκευαζ": 119,
  "σωζειν": 119,
  "προσταττ": 119,
  "φθονου": 119,
  "μετεχον": 119,
  "μακρον": 119,
  "διειλ": 119,
  "ειδεσιν": 119,
  "δειχ": 119,
  "δηλος": 119,
  "πεπαιδευ": 119,
  "εννοιας": 119,
  "θηλεος": 119,
  "μαθηματικον": 119,
  "αυξεται": 119,
  "ορισμους": 119,
  "οστουν": 119,
  "καταφασιν": 119,
  "θαρ": 118,
  "##αω": 118,
  "##λλαχ": 118,
  "διαλογ": 118,
  "##ερμ": 118,
  "##ασαν": 118,
  "προαιρεσεως": 118,
  "παρασχε": 118,
  "γραμμαι": 118,
  "ιεραν": 118,
  "##ψε": 118,
  "λοιποις": 118,
  "##πατ": 118,
  "##μυ": 118,
  "μειζ": 118,
  "##αιων": 118,
  "εντευξεως": 118,
  "προη": 118,
  "αντει": 118,
  "τρισιν": 118,
  "ακυρον": 118,
  "δαιμονος": 118,
  "οντινα": 118,
  "οιω": 118,
  "##ριωνος": 118,
  "σαυτου": 118,
  "##θιω": 118,
  "κεκ": 118,
  "ανι": 118,
  "ευαρεστ": 118,
  "στοας": 118,
  "θυμω": 118,
  "συγχωρ": 118,
  "οποι": 118,
  "##ωται": 118,
  "μοιρα": 118,
  "διαιρεισθαι": 118,
  "γαστρος": 118,
  "πολλαπλασι": 118,
  "ανομοιον": 118,
  "μαχεσθαι": 118,
  "πειθειν": 118,
  "παραδειγματος": 118,
  "πυθαγορας": 118,
  "επιθυμειν": 118,
  "αρτηριων": 118,
  "κινουμενω": 118,
  "περια": 118,
  "αποκρινεσθαι": 118,
  "ατεχνως": 118,
  "ξηραι": 118,
  "τεκτων": 117,
  "##αιρ": 117,
  "εστε": 117,
  "ρακ": 117,
  "οπηνικα": 117,
  "προδο": 117,
  "ηρακλειδην": 117,
  "##ηκα": 117,
  "##ωμε": 117,
  "μεσσ": 117,
  "##θουν": 117,
  "εβδομη": 117,
  "υπη": 117,
  "διαφοροις": 117,
  "δημοσιαν": 117,
  "αγρω": 117,
  "εστα": 117,
  "υποθεσεις": 117,
  "εριφ": 117,
  "ευστ": 117,
  "θεκλ": 117,
  "παλαια": 117,
  "θρεψ": 117,
  "αποφερ": 117,
  "εφηβ": 117,
  "##γν": 117,
  "σαπ": 117,
  "ρις": 117,
  "αμαρταν": 117,
  "σεβασμιον": 117,
  "αθηνας": 117,
  "προκειμενος": 117,
  "μετειλη": 117,
  "δωρεας": 117,
  "λαμβανουσι": 117,
  "αη": 117,
  "##αιρε": 117,
  "υβριν": 117,
  "εγγραφον": 117,
  "κυριοι": 117,
  "ισχυς": 117,
  "##αμενους": 117,
  "πατριδα": 117,
  "παλαιοι": 117,
  "αριστος": 117,
  "νομοθετη": 117,
  "οιομεθα": 117,
  "θηρια": 117,
  "ζητων": 117,
  "ευεξια": 117,
  "##αινεσθαι": 117,
  "ειπη": 117,
  "λογικη": 117,
  "δοξειε": 117,
  "πρισ": 116,
  "μεθα": 116,
  "θυρ": 116,
  "δοκι": 116,
  "εξεστιν": 116,
  "εξακολου": 116,
  "απεδοτο": 116,
  "νεοις": 116,
  "απαντησ": 116,
  "οφθαλμον": 116,
  "λιμναι": 116,
  "εγγον": 116,
  "διακον": 116,
  "προσηκοντα": 116,
  "ασκλη": 116,
  "παλαιου": 116,
  "##ροτ": 116,
  "βρο": 116,
  "αποστ": 116,
  "ποταμον": 116,
  "βασιλισσης": 116,
  "συνν": 116,
  "##ψαν": 116,
  "##τικαις": 116,
  "ηγου": 116,
  "εθετο": 116,
  "διδω": 116,
  "λαβοντα": 116,
  "διαθε": 116,
  "προκειμενω": 116,
  "επιγεγραμ": 116,
  "παρεπ": 116,
  "ισιδος": 116,
  "##διας": 116,
  "προαγ": 116,
  "##βλη": 116,
  "αρχαιων": 116,
  "συναρ": 116,
  "##ηρα": 116,
  "επιπολ": 116,
  "##υρει": 116,
  "ενον": 116,
  "κτω": 116,
  "##εστατη": 116,
  "συμπληρ": 116,
  "θεραπευτ": 116,
  "καλλιας": 116,
  "##σθεν": 116,
  "σκοπον": 116,
  "##τατης": 116,
  "ζητουντες": 116,
  "συμπερι": 116,
  "ελλειπ": 116,
  "διπλασια": 116,
  "δεκαδος": 116,
  "οισθ": 116,
  "προσεχως": 116,
  "ηρεμουν": 116,
  "υγροτητος": 116,
  "κατηγορουμενου": 116,
  "##ρασ": 115,
  "##ειλα": 115,
  "λεσ": 115,
  "επικρατ": 115,
  "αριστερον": 115,
  "##σωσιν": 115,
  "##καιδεκατη": 115,
  "φορους": 115,
  "ξζ": 115,
  "ποταμου": 115,
  "γεωργοι": 115,
  "πολλ": 115,
  "##θισ": 115,
  "##ματου": 115,
  "πλα": 115,
  "οψα": 115,
  "πιων": 115,
  "λακκου": 115,
  "προειρημενοις": 115,
  "περιαγ": 115,
  "##φθη": 115,
  "μεταφερ": 115,
  "ητι": 115,
  "χιων": 115,
  "ευθ": 115,
  "διαιτη": 115,
  "παλαιον": 115,
  "αποκρισιν": 115,
  "δαπαν": 115,
  "παρασκευασ": 115,
  "εδηλωσε": 115,
  "##ψας": 115,
  "αμετα": 115,
  "εναφ": 115,
  "ληψ": 115,
  "ερισ": 115,
  "πολιτικην": 115,
  "λαμβανομενον": 115,
  "συναμφοτερον": 115,
  "παθεσιν": 115,
  "φυσικου": 115,
  "δημοκρατια": 115,
  "τοιν": 115,
  "φθαρτον": 115,
  "εθελειν": 115,
  "ειρ": 114,
  "αττ": 114,
  "διονυσιον": 114,
  "ειρηνην": 114,
  "παιδιοις": 114,
  "##εισι": 114,
  "ομολογων": 114,
  "βουκ": 114,
  "κτησ": 114,
  "εποιησαν": 114,
  "ορφαν": 114,
  "##λεις": 114,
  "αφι": 114,
  "επιτελειν": 114,
  "θεσθαι": 114,
  "ολυμπι": 114,
  "##δημ": 114,
  "χειριστ": 114,
  "εννεακαιδεκα": 114,
  "αιγυπτον": 114,
  "##ψις": 114,
  "##αλου": 114,
  "μειν": 114,
  "##ζοντων": 114,
  "απηρ": 114,
  "##δωρον": 114,
  "παρουσα": 114,
  "προνο": 114,
  "##εντι": 114,
  "##ασια": 114,
  "εκπλη": 114,
  "σημαινομενων": 114,
  "καλουμενην": 114,
  "νομιζω": 114,
  "ιατρον": 114,
  "ζηνωνι": 114,
  "αποθαν": 114,
  "αρχοντες": 114,
  "ημισε": 114,
  "θαλασσαν": 114,
  "λεγομενος": 114,
  "προσετι": 114,
  "ομματα": 114,
  "εκπεμπ": 114,
  "νοσειν": 114,
  "κινουντος": 114,
  "##ιζεται": 114,
  "μαθηματικη": 114,
  "επινοια": 114,
  "συγκειμενον": 114,
  "ψοφον": 114,
  "νουθετ": 114,
  "συλλογιζεσθαι": 114,
  "διαφανους": 114,
  "ευρων": 113,
  "γραφηναι": 113,
  "οκτωκαιδεκα": 113,
  "φερομενων": 113,
  "σκευων": 113,
  "αλαβ": 113,
  "ηλει": 113,
  "##γγ": 113,
  "απολελυ": 113,
  "εκκ": 113,
  "ιερεις": 113,
  "##ιζων": 113,
  "##οκτω": 113,
  "##ησαντα": 113,
  "ολκης": 113,
  "λυτ": 113,
  "κραν": 113,
  "πλατους": 113,
  "περιπ": 113,
  "γενομενους": 113,
  "θαμ": 113,
  "διδο": 113,
  "προειπον": 113,
  "δυναμαι": 113,
  "ταδι": 113,
  "προσθηκης": 113,
  "##αιε": 113,
  "γαλε": 113,
  "παρατ": 113,
  "συνηγορ": 113,
  "κεκτησθαι": 113,
  "εκλε": 113,
  "αφθον": 113,
  "δενδ": 113,
  "##ινων": 113,
  "κατηγοριαν": 113,
  "υπνον": 113,
  "μεμνησθαι": 113,
  "γραμματικη": 113,
  "απειρων": 113,
  "μετεχ": 113,
  "ορατ": 113,
  "περιπατειν": 113,
  "συστοι": 113,
  "προτειν": 113,
  "βουλησις": 113,
  "νοσων": 113,
  "χολην": 113,
  "αγενητον": 113,
  "πρωται": 113,
  "στερητικον": 113,
  "αδηλα": 113,
  "αγον": 112,
  "##ιλι": 112,
  "παιδαρ": 112,
  "κομισαι": 112,
  "επικριν": 112,
  "##εβη": 112,
  "κληρων": 112,
  "σιρ": 112,
  "ποιουμενοι": 112,
  "παρορ": 112,
  "καπιτω": 112,
  "ρινι": 112,
  "ωλ": 112,
  "διαφορ": 112,
  "συνδι": 112,
  "νας": 112,
  "αμμωνος": 112,
  "υφαν": 112,
  "εξειλ": 112,
  "σπουδην": 112,
  "εργαζεσθαι": 112,
  "##λλου": 112,
  "##αστον": 112,
  "λεπτο": 112,
  "##χην": 112,
  "χρησεως": 112,
  "χαιρει": 112,
  "παραλαβ": 112,
  "εσομενην": 112,
  "σταθμω": 112,
  "επιτηδειον": 112,
  "ηγουμενου": 112,
  "πλειστην": 112,
  "συνηρ": 112,
  "διαθηκην": 112,
  "επειδηπερ": 112,
  "στασεως": 112,
  "τιθενται": 112,
  "ποιουσα": 112,
  "εμφυτ": 112,
  "δεομενος": 112,
  "σαυτον": 112,
  "αναλογ": 112,
  "δυναμενοις": 112,
  "σκια": 112,
  "λαμβανεσθαι": 112,
  "ιχνος": 112,
  "ηδεος": 112,
  "σοφου": 112,
  "πτωσιν": 112,
  "πεφυκεναι": 112,
  "επαγωγη": 112,
  "επιθυμητικον": 112,
  "χαλεπως": 112,
  "συνουσιας": 112,
  "##ωδη": 112,
  "επιπολης": 112,
  "διαφοραις": 112,
  "κατηγορουμενα": 112,
  "καταψυχ": 112,
  "##τορα": 111,
  "οψον": 111,
  "ασπαζεται": 111,
  "##οιτη": 111,
  "ακα": 111,
  "μετο": 111,
  "ατελες": 111,
  "##ινε": 111,
  "θησαυρον": 111,
  "##υμι": 111,
  "ιππο": 111,
  "##ησον": 111,
  "πλοιων": 111,
  "σεκ": 111,
  "ικανα": 111,
  "ποδος": 111,
  "##δειν": 111,
  "##ρν": 111,
  "εχωμεν": 111,
  "ασχολ": 111,
  "ευτυχως": 111,
  "κουφα": 111,
  "μεγαν": 111,
  "ριζ": 111,
  "συγγεν": 111,
  "κνη": 111,
  "ακολουθιαν": 111,
  "##ππος": 111,
  "ισχυρα": 111,
  "μετρων": 111,
  "διεσ": 111,
  "συνεχεις": 111,
  "ατοπα": 111,
  "μακαριον": 111,
  "πεποιηκε": 111,
  "τροφας": 111,
  "##αξ": 111,
  "αλλοτριων": 111,
  "κειμενα": 111,
  "αριστη": 111,
  "αυταρκης": 111,
  "υπολαβειν": 111,
  "αποδιδωσιν": 111,
  "δημιουργος": 111,
  "εχθρους": 111,
  "αιδιου": 111,
  "σφαιραν": 111,
  "κεισθω": 111,
  "οριζεσθαι": 111,
  "τιθησι": 111,
  "κοιλια": 111,
  "κρασεως": 111,
  "ερωτημα": 111,
  "μαξιμος": 110,
  "αδι": 110,
  "εκθε": 110,
  "σκε": 110,
  "διερ": 110,
  "βουσι": 110,
  "##ιδη": 110,
  "κατανο": 110,
  "τριτ": 110,
  "##δημος": 110,
  "συναγειν": 110,
  "μεγιστης": 110,
  "ονομαζειν": 110,
  "λυθ": 110,
  "ανεμποδιστως": 110,
  "προσθεις": 110,
  "αρσεν": 110,
  "δρων": 110,
  "αλογα": 110,
  "εικ": 110,
  "παλα": 110,
  "##ωτων": 110,
  "χωρη": 110,
  "##αμενης": 110,
  "παχυμ": 110,
  "εκοντες": 110,
  "γενν": 110,
  "ισοτητα": 110,
  "επετ": 110,
  "πλεονακις": 110,
  "δητα": 110,
  "ανθρωπινων": 110,
  "συνθε": 110,
  "περιττου": 110,
  "αριστην": 110,
  "επιδεικνυ": 110,
  "θειη": 110,
  "πενια": 110,
  "προσθειναι": 110,
  "αδυνατος": 110,
  "ειρησθω": 110,
  "βιβλιω": 110,
  "ετερως": 110,
  "αιρετω": 110,
  "βουλοιτο": 110,
  "πυκνου": 110,
  "αποθανειν": 110,
  "υποληψις": 110,
  "θατερα": 110,
  "εγρηγορ": 110,
  "πολλαπλασια": 110,
  "πληγη": 110,
  "υστερων": 110,
  "δειξεως": 110,
  "αρον": 109,
  "μεταδ": 109,
  "αντωνιος": 109,
  "γυναι": 109,
  "χρεους": 109,
  "επιστολας": 109,
  "προσηκοντων": 109,
  "πραιτω": 109,
  "αβι": 109,
  "ενω": 109,
  "αθανασιου": 109,
  "οικη": 109,
  "γραμματευς": 109,
  "ιατρι": 109,
  "κυβερνητης": 109,
  "εχωσιν": 109,
  "ερμιον": 109,
  "αναπαυ": 109,
  "λιθων": 109,
  "υποσχ": 109,
  "##ηκο": 109,
  "προτερας": 109,
  "πολλαις": 109,
  "συνω": 109,
  "ευσεβειαν": 109,
  "παρεμ": 109,
  "##θεισας": 109,
  "σκεψιν": 109,
  "##αξα": 109,
  "οργανου": 109,
  "αποφασεως": 109,
  "##υειν": 109,
  "πλευρα": 109,
  "εσχατω": 109,
  "υπεξ": 109,
  "##μολογ": 109,
  "ουπερ": 109,
  "##θησονται": 109,
  "τροποι": 109,
  "ειρημενην": 109,
  "ακων": 109,
  "στεγ": 109,
  "ρητορι": 109,
  "##δαι": 109,
  "ενοπ": 109,
  "εβι": 109,
  "εγκωμια": 109,
  "##τατους": 109,
  "μοιρας": 109,
  "##ιζει": 109,
  "απεχεσθαι": 109,
  "πονους": 109,
  "αδιαφορον": 109,
  "ακολουθιας": 109,
  "πυθαγορι": 109,
  "μοριοις": 109,
  "πραξεσιν": 109,
  "αδυναμια": 109,
  "πνευματων": 109,
  "λογιστικον": 109,
  "πορρωτερω": 109,
  "συλλογισασθαι": 109,
  "τιω": 108,
  "σιδη": 108,
  "##εμι": 108,
  "αρω": 108,
  "αντιλ": 108,
  "επεχ": 108,
  "νομην": 108,
  "δεομεθα": 108,
  "ωπ": 108,
  "##φον": 108,
  "τροπωι": 108,
  "περιβλεπ": 108,
  "θεοφιλ": 108,
  "υποχ": 108,
  "##για": 108,
  "ουαλεντος": 108,
  "φυλα": 108,
  "##ηδ": 108,
  "χθ": 108,
  "##στησ": 108,
  "##βιον": 108,
  "πλου": 108,
  "##βαλλ": 108,
  "χρηματιζει": 108,
  "κατελ": 108,
  "φοβω": 108,
  "τυραννι": 108,
  "ποιησομεν": 108,
  "στερε": 108,
  "αναδεχ": 108,
  "λυκα": 108,
  "ισχυρας": 108,
  "κυνα": 108,
  "ετερο": 108,
  "μελλη": 108,
  "κατεσκευ": 108,
  "##εισα": 108,
  "χειμερι": 108,
  "ωφελ": 108,
  "συνεθ": 108,
  "ενιους": 108,
  "τεθναναι": 108,
  "μνημονευει": 108,
  "συμβουλ": 108,
  "ευκ": 108,
  "συνιστα": 108,
  "εχθρων": 108,
  "συντειν": 108,
  "προγονων": 108,
  "μελος": 108,
  "απασων": 108,
  "αχρηστον": 108,
  "ονομασιν": 108,
  "καλλους": 108,
  "ειπετο": 108,
  "γραμμων": 108,
  "ειμαρμενης": 108,
  "##ττει": 108,
  "σιτιων": 108,
  "φαινομενου": 108,
  "οτωουν": 108,
  "σχημασι": 108,
  "ελκει": 108,
  "ομοιοτητος": 108,
  "θαλαττα": 108,
  "πιε": 107,
  "##ροσ": 107,
  "εκο": 107,
  "γεωργοις": 107,
  "δεξιων": 107,
  "αριστερων": 107,
  "##ζου": 107,
  "##υρα": 107,
  "επληρωθη": 107,
  "##ππου": 107,
  "αιτη": 107,
  "μαθων": 107,
  "πεπληρω": 107,
  "##λησ": 107,
  "γραμμασιν": 107,
  "##λεισ": 107,
  "υποληψιν": 107,
  "##θεσθαι": 107,
  "λαβουσα": 107,
  "φιλονικ": 107,
  "εμους": 107,
  "μεταβαλλ": 107,
  "οφειλομενα": 107,
  "οχλη": 107,
  "στερεου": 107,
  "ενδοξου": 107,
  "οικων": 107,
  "υποτιθε": 107,
  "ασφαλες": 107,
  "κρατιστον": 107,
  "##ισμος": 107,
  "γεννη": 107,
  "ειδε": 107,
  "γαλ": 107,
  "χρυσιππου": 107,
  "επελ": 107,
  "σεμνον": 107,
  "ανανε": 107,
  "λυκου": 107,
  "αγωνα": 107,
  "γαμον": 107,
  "καταφ": 107,
  "ολιγους": 107,
  "κουφο": 107,
  "ηθων": 107,
  "αγνοιας": 107,
  "λυειν": 107,
  "αδικα": 107,
  "σχολην": 107,
  "βοηθειν": 107,
  "ακινητα": 107,
  "αληθει": 107,
  "κριτο": 107,
  "μονως": 107,
  "ταττ": 107,
  "επιχειρει": 107,
  "κατωτερω": 107,
  "καταμετ": 107,
  "γλυκεος": 107,
  "ολιγο": 107,
  "αλγειν": 107,
  "ταυτι": 107,
  "μαθησεως": 107,
  "ωφελιμω": 107,
  "κανταυθα": 107,
  "περιφερ": 107,
  "ετυχε": 107,
  "νεοι": 107,
  "κατηγοριαις": 107,
  "ηδεια": 107,
  "συναχθησεται": 107,
  "αρν": 106,
  "ιλαρ": 106,
  "οιδας": 106,
  "απολε": 106,
  "προκε": 106,
  "θετ": 106,
  "##εθα": 106,
  "ηκ": 106,
  "##εγραμ": 106,
  "##σιμω": 106,
  "πυρρου": 106,
  "##αλλ": 106,
  "ειληφεν": 106,
  "εστια": 106,
  "ναυπηγ": 106,
  "χρει": 106,
  "αποδωσει": 106,
  "φυλακην": 106,
  "ιουστινιανου": 106,
  "##μειν": 106,
  "επιζη": 106,
  "##κτων": 106,
  "συνηθ": 106,
  "##μησε": 106,
  "συστη": 106,
  "τεσσαρ": 106,
  "επιλογ": 106,
  "αδελφι": 106,
  "##δοι": 106,
  "##ωμενοι": 106,
  "ακολουθ": 106,
  "πιστον": 106,
  "συμφωνου": 106,
  "μηδετ": 106,
  "χρυσον": 106,
  "ομοιας": 106,
  "βιασ": 106,
  "καλην": 106,
  "##ζομενου": 106,
  "σωζεται": 106,
  "καβ": 106,
  "λαμπρον": 106,
  "αγροι": 106,
  "υποκειμενης": 106,
  "λεγομενην": 106,
  "ζωντα": 106,
  "αστυ": 106,
  "αδηλου": 106,
  "κρινον": 106,
  "φιλοσοφ": 106,
  "γλαυκων": 106,
  "οστων": 106,
  "ευροι": 106,
  "ωφελειν": 106,
  "αναπνοης": 106,
  "υπαρξιν": 106,
  "κυκλοφορ": 106,
  "απειρους": 106,
  "αποθνησκειν": 106,
  "θεμις": 106,
  "εμψυχων": 106,
  "εγρηγορο": 106,
  "χολη": 106,
  "ενυπαρχ": 106,
  "##πια": 105,
  "ποιουμεν": 105,
  "αμερ": 105,
  "εραν": 105,
  "##εμψ": 105,
  "διαφορου": 105,
  "νικ": 105,
  "##χας": 105,
  "μεσι": 105,
  "προκειμενοις": 105,
  "χρησιμων": 105,
  "βασιλικην": 105,
  "βασιλειου": 105,
  "θυν": 105,
  "συγγενους": 105,
  "ευρεθη": 105,
  "##ρικον": 105,
  "επιγραφ": 105,
  "χρα": 105,
  "εκτιν": 105,
  "εργαστη": 105,
  "επιστελλ": 105,
  "διαταγ": 105,
  "βαφ": 105,
  "##ασον": 105,
  "υιους": 105,
  "γιγνομενης": 105,
  "##κοσι": 105,
  "υποκει": 105,
  "τοισδε": 105,
  "αυθα": 105,
  "βαρβαρων": 105,
  "ψιλ": 105,
  "εγκυ": 105,
  "##κρη": 105,
  "στοματι": 105,
  "αιρεσεως": 105,
  "##ετων": 105,
  "μεταβεβλη": 105,
  "θεραπειας": 105,
  "ακολουθουν": 105,
  "ζητουμενου": 105,
  "λακων": 105,
  "##ρυσ": 105,
  "υπομενον": 105,
  "απαγ": 105,
  "βεβαιως": 105,
  "πυθαγορου": 105,
  "κοινωνει": 105,
  "ωσανει": 105,
  "υπολαμβαν": 105,
  "αποδειξεων": 105,
  "λιθοι": 105,
  "επισκοπειν": 105,
  "φιλοσοφοις": 105,
  "εταιρε": 105,
  "μεθοδος": 105,
  "ομολογουμενως": 105,
  "λεγηται": 105,
  "αλλοιουσθαι": 105,
  "χυμους": 105,
  "πνευμονα": 105,
  "μεταληφ": 105,
  "γεγραμμενον": 104,
  "ξο": 104,
  "κατερ": 104,
  "οπο": 104,
  "προγεγραπται": 104,
  "υγιαινον": 104,
  "παρεδ": 104,
  "βασιλικα": 104,
  "##ισθη": 104,
  "εγκαλειν": 104,
  "οβολους": 104,
  "ερμην": 104,
  "νομιζ": 104,
  "αβασ": 104,
  "ακουων": 104,
  "τραγ": 104,
  "κανονι": 104,
  "##εφαλ": 104,
  "##ειοις": 104,
  "μεταλαβ": 104,
  "##μαις": 104,
  "λια": 104,
  "αντιφων": 104,
  "γιγνομενου": 104,
  "##ηθεντα": 104,
  "##τερω": 104,
  "εχε": 104,
  "κατακει": 104,
  "##εστατος": 104,
  "ιδιωτων": 104,
  "λιτρ": 104,
  "σεαυτον": 104,
  "επιπεδου": 104,
  "##ασας": 104,
  "##χους": 104,
  "συγγενη": 104,
  "χαριζεσθαι": 104,
  "προτερος": 104,
  "διαιρει": 104,
  "ελεγχος": 104,
  "πονειν": 104,
  "συμβαινοντα": 104,
  "ομολογουμενον": 104,
  "γραμμας": 104,
  "αντικει": 104,
  "πεπερ": 104,
  "ορωμενα": 104,
  "ακολαστος": 104,
  "θατερω": 104,
  "αντιπερι": 104,
  "ολιγαρχ": 104,
  "πυθαγορειων": 104,
  "ψυχροτητα": 104,
  "##υρω": 103,
  "λυσις": 103,
  "εμβεβλη": 103,
  "ακινδυνον": 103,
  "##αλε": 103,
  "ειδης": 103,
  "καταν": 103,
  "ευσχημον": 103,
  "οσπ": 103,
  "κολου": 103,
  "##ισω": 103,
  "ανενεχ": 103,
  "##ρηθη": 103,
  "ημερω": 103,
  "καλλιστ": 103,
  "καταλ": 103,
  "προσπεσ": 103,
  "##ευει": 103,
  "##ερει": 103,
  "παραθεσει": 103,
  "ζηνα": 103,
  "μενουσης": 103,
  "ελη": 103,
  "πληγας": 103,
  "μνημον": 103,
  "τευ": 103,
  "θεασασθαι": 103,
  "αιρετη": 103,
  "αφιστα": 103,
  "##ωσει": 103,
  "φθαν": 103,
  "##εωργ": 103,
  "αδια": 103,
  "παραφερ": 103,
  "καδ": 103,
  "διπλουν": 103,
  "επικα": 103,
  "##εννυ": 103,
  "ελαφ": 103,
  "αμφ": 103,
  "προειρη": 103,
  "κτησις": 103,
  "γαλακτος": 103,
  "αφωρισ": 103,
  "αποδεδωκεν": 103,
  "εξομεν": 103,
  "σημειων": 103,
  "δογματα": 103,
  "γενωνται": 103,
  "μικραν": 103,
  "μωυσης": 103,
  "παρωχη": 103,
  "απιεναι": 103,
  "τιμιον": 103,
  "πολιταις": 103,
  "σιδηρον": 103,
  "μεταθεσεως": 103,
  "χρησιμοι": 103,
  "ελληνας": 103,
  "ενδειας": 103,
  "πραττουσιν": 103,
  "κυριωτατα": 103,
  "οιονει": 103,
  "λαμβανομενα": 103,
  "λογικου": 103,
  "θαρρα": 103,
  "φυσιολογ": 103,
  "ηδιστον": 103,
  "παιδιας": 103,
  "ηκουσα": 102,
  "κρη": 102,
  "ευτυχης": 102,
  "ηλ": 102,
  "τουτωι": 102,
  "δεκατη": 102,
  "##μησ": 102,
  "ειδεν": 102,
  "δοσιν": 102,
  "εποιησατο": 102,
  "γλυκ": 102,
  "χαλκο": 102,
  "εφεστ": 102,
  "θραι": 102,
  "εχομενα": 102,
  "λεως": 102,
  "γεγραφεν": 102,
  "περισ": 102,
  "ιδιωτικων": 102,
  "##ηγο": 102,
  "συρων": 102,
  "καλλ": 102,
  "κακουργ": 102,
  "αποσταλ": 102,
  "καθεστη": 102,
  "##ηις": 102,
  "ιπποις": 102,
  "##τοπ": 102,
  "σιτα": 102,
  "ελλογ": 102,
  "εσομεθα": 102,
  "χλω": 102,
  "ευθυμ": 102,
  "αγω": 102,
  "χρασθαι": 102,
  "παραδεχ": 102,
  "μωρ": 102,
  "ιουλιαν": 102,
  "δρο": 102,
  "αρμον": 102,
  "επο": 102,
  "νηφ": 102,
  "βοηθειαν": 102,
  "##κυια": 102,
  "πολιτικων": 102,
  "##ητων": 102,
  "κηλ": 102,
  "##εμεν": 102,
  "προσπιπτ": 102,
  "συννο": 102,
  "δικασ": 102,
  "σευηρου": 102,
  "ασθενη": 102,
  "τελευτης": 102,
  "ακολουθα": 102,
  "ανεκ": 102,
  "συνηθη": 102,
  "φυγη": 102,
  "επισυν": 102,
  "διοριζ": 102,
  "καπηλ": 102,
  "κολακ": 102,
  "εμπει": 102,
  "απεργαζεται": 102,
  "μεσοτητα": 102,
  "ισχυος": 102,
  "νοουμενον": 102,
  "συζυγιαι": 102,
  "μεγεθων": 102,
  "πλειονι": 102,
  "ισταται": 102,
  "πεπερασμενα": 102,
  "λογισμος": 102,
  "δειχθηναι": 102,
  "φατεον": 102,
  "αρχομενον": 102,
  "νευρον": 102,
  "φλεβες": 102,
  "εγραψε": 101,
  "μυρι": 101,
  "ασθεν": 101,
  "##υσης": 101,
  "τηγ": 101,
  "αρχισ": 101,
  "ηρακλεω": 101,
  "##ετον": 101,
  "εξοδος": 101,
  "πλατυ": 101,
  "##ληναι": 101,
  "εννα": 101,
  "##ιτης": 101,
  "λογι": 101,
  "βιαιον": 101,
  "##υναι": 101,
  "##δασ": 101,
  "συντομως": 101,
  "χρησει": 101,
  "εμμ": 101,
  "ενδ": 101,
  "αρρενα": 101,
  "διπλ": 101,
  "##ημαι": 101,
  "συναχ": 101,
  "##κατ": 101,
  "##ζομενα": 101,
  "εσθιειν": 101,
  "αδικει": 101,
  "αγρον": 101,
  "επομ": 101,
  "ασι": 101,
  "##επι": 101,
  "αναπ": 101,
  "πολεμος": 101,
  "ακη": 101,
  "ανειλ": 101,
  "νεωτερον": 101,
  "αποδιδωσι": 101,
  "κινδυνον": 101,
  "τελεον": 101,
  "θεραπειαν": 101,
  "ελπιδα": 101,
  "ιπποι": 101,
  "θαρρ": 101,
  "συμφυτον": 101,
  "τεταρτη": 101,
  "παραδεδ": 101,
  "κερδος": 101,
  "φαρμακων": 101,
  "πρεπει": 101,
  "αθροον": 101,
  "φανερω": 101,
  "κριν": 101,
  "νομοθετην": 101,
  "εχουσας": 101,
  "συστημα": 101,
  "φρονιμον": 101,
  "ομοιους": 101,
  "συστασις": 101,
  "γαστερα": 101,
  "διαλεγ": 101,
  "γεωδες": 101,
  "γεννων": 101,
  "ακολασια": 101,
  "χειρους": 101,
  "θνητα": 101,
  "κεκρα": 101,
  "προβληματος": 101,
  "στρεφ": 100,
  "εργαται": 100,
  "ριν": 100,
  "ενην": 100,
  "τριβ": 100,
  "λησ": 100,
  "ατα": 100,
  "μεσωι": 100,
  "καινου": 100,
  "##ρεσ": 100,
  "γραφε": 100,
  "μετεπ": 100,
  "δεκατον": 100,
  "##οραν": 100,
  "##ακον": 100,
  "γαι": 100,
  "εκτο": 100,
  "αποδι": 100,
  "##κυιας": 100,
  "εχωσι": 100,
  "εση": 100,
  "ηλθον": 100,
  "προω": 100,
  "πραχ": 100,
  "αφορ": 100,
  "εκπ": 100,
  "##τηριου": 100,
  "ονους": 100,
  "πειρα": 100,
  "αιγι": 100,
  "επιν": 100,
  "συγχωρει": 100,
  "προεστ": 100,
  "περιτε": 100,
  "##αθε": 100,
  "οικησιν": 100,
  "ηδει": 100,
  "προσεχ": 100,
  "ευσεβειας": 100,
  "διωκ": 100,
  "παρεν": 100,
  "ηθους": 100,
  "προτρεπ": 100,
  "ορνιθων": 100,
  "ατελη": 100,
  "##θησι": 100,
  "επιπεδων": 100,
  "αιρετων": 100,
  "οφθαλμοις": 100,
  "εφαπ": 100,
  "ελαχιστα": 100,
  "οιη": 100,
  "ερωτας": 100,
  "ανδρειον": 100,
  "αρχουσιν": 100,
  "ακολουθησ": 100,
  "ισος": 100,
  "νεικος": 100,
  "μετριον": 100,
  "##οτεροι": 100,
  "σωφρονα": 100,
  "νοησεως": 100,
  "νομιζοντες": 100,
  "ογκος": 100,
  "αδολεσχ": 100,
  "διαθεσεις": 100,
  "αψυχων": 100,
  "συλλογισμω": 100,
  "##ινει": 99,
  "νειν": 99,
  "##ριδι": 99,
  "##σμω": 99,
  "##ζοντι": 99,
  "a": 99,
  "ποιησης": 99,
  "αριστης": 99,
  "##ευσι": 99,
  "κοιλα": 99,
  "πεπτωκεν": 99,
  "τεταν": 99,
  "##ρυμ": 99,
  "καρπω": 99,
  "##υρη": 99,
  "##κερ": 99,
  "##νιαν": 99,
  "πανος": 99,
  "εντι": 99,
  "οσι": 99,
  "##βερ": 99,
  "φυλακης": 99,
  "φυλακας": 99,
  "##μισ": 99,
  "##οω": 99,
  "αλος": 99,
  "τρη": 99,
  "απου": 99,
  "##τερας": 99,
  "ιματιων": 99,
  "μαμ": 99,
  "κυρε": 99,
  "τραχ": 99,
  "υπονο": 99,
  "αποδημ": 99,
  "τεχ": 99,
  "λιθω": 99,
  "ιδωμεν": 99,
  "##ηθ": 99,
  "##ασιας": 99,
  "δαπανην": 99,
  "κατοπτ": 99,
  "##σωσι": 99,
  "μεταδι": 99,
  "προσταγμα": 99,
  "κομψ": 99,
  "##λυθ": 99,
  "σπαρ": 99,
  "αναμετ": 99,
  "αγνοων": 99,
  "##αμενοις": 99,
  "ημιολι": 99,
  "ποιουμεθα": 99,
  "πυλων": 99,
  "προφ": 99,
  "πλειστους": 99,
  "ποδων": 99,
  "##ριαι": 99,
  "ποιησαμενος": 99,
  "βουλευσ": 99,
  "αρεως": 99,
  "απειργ": 99,
  "χωρειν": 99,
  "εκλυ": 99,
  "συμπαν": 99,
  "ικανη": 99,
  "πονον": 99,
  "εικων": 99,
  "ηρμοσ": 99,
  "εχουσων": 99,
  "καθευδειν": 99,
  "ανδρειοι": 99,
  "γνωριμωτερον": 99,
  "φυσικως": 99,
  "φρονιμω": 99,
  "ακρασια": 99,
  "απεικα": 99,
  "απλατες": 99,
  "εθελει": 99,
  "ετερομη": 99,
  "γλωτταν": 99,
  "αντιληπ": 99,
  "γευσις": 99,
  "λαξ": 98,
  "φυσ": 98,
  "αραι": 98,
  "ρωμην": 98,
  "χερ": 98,
  "χρεος": 98,
  "μελλω": 98,
  "##κοσμ": 98,
  "τεσσαρεσκαιδεκα": 98,
  "εχετε": 98,
  "##οσπερ": 98,
  "##ιμων": 98,
  "περιγει": 98,
  "αθυ": 98,
  "πορον": 98,
  "##ρατης": 98,
  "##ιμω": 98,
  "εξαιρε": 98,
  "χρυσω": 98,
  "σωφρονειν": 98,
  "βλεπων": 98,
  "θυραν": 98,
  "σιβ": 98,
  "##μωνα": 98,
  "πλουτω": 98,
  "##ορων": 98,
  "δεκατεσσαρ": 98,
  "θοη": 98,
  "συνεστα": 98,
  "αθετ": 98,
  "διει": 98,
  "##ομων": 98,
  "φυτου": 98,
  "καλλιου": 98,
  "οφειλον": 98,
  "παραδει": 98,
  "διδομεν": 98,
  "##πλη": 98,
  "##υψ": 98,
  "##ηκε": 98,
  "##ωσθαι": 98,
  "##αμενω": 98,
  "εγκρατης": 98,
  "παρουση": 98,
  "##λαστ": 98,
  "δημιουργου": 98,
  "##ατης": 98,
  "ευνοιας": 98,
  "φαυλως": 98,
  "αναπλη": 98,
  "##πται": 98,
  "##λβ": 98,
  "ελεγχ": 98,
  "##τεροις": 98,
  "##εστατα": 98,
  "ωοντο": 98,
  "τοσ": 98,
  "υπνου": 98,
  "ψυχων": 98,
  "ορωμενου": 98,
  "νομιζουσι": 98,
  "ακουσιον": 98,
  "τεχνι": 98,
  "αστρολογ": 98,
  "τροπας": 98,
  "ανακλασιν": 98,
  "οργιζ": 98,
  "διαμαρταν": 98,
  "ψοφου": 98,
  "παθηματων": 98,
  "##οσιν": 97,
  "##σμος": 97,
  "καλι": 97,
  "δεξαι": 97,
  "##αγη": 97,
  "ηδι": 97,
  "γαλατ": 97,
  "ιδιος": 97,
  "ωτων": 97,
  "επισκευ": 97,
  "##ετος": 97,
  "χρυσ": 97,
  "##μισθ": 97,
  "λειαν": 97,
  "φρι": 97,
  "ειθισ": 97,
  "μισθους": 97,
  "δημη": 97,
  "##ωση": 97,
  "##ησατο": 97,
  "##ωμενου": 97,
  "κτι": 97,
  "ερρωμεν": 97,
  "ργ": 97,
  "πωλε": 97,
  "μηχανη": 97,
  "##ανης": 97,
  "##λοις": 97,
  "μετατι": 97,
  "##ζομενων": 97,
  "απορων": 97,
  "ενισ": 97,
  "αχθηναι": 97,
  "προσαγορευομεν": 97,
  "γνωριμα": 97,
  "εβουλετο": 97,
  "συγχωρησ": 97,
  "αναγειν": 97,
  "συνθεσεως": 97,
  "εφα": 97,
  "εκκλησια": 97,
  "μεμιγ": 97,
  "βραδεως": 97,
  "γυναιξι": 97,
  "δυνησομεθα": 97,
  "βαθυ": 97,
  "αγγειων": 97,
  "αγαλμα": 97,
  "ανοσι": 97,
  "##σμενον": 97,
  "κατασκευης": 97,
  "αναγεται": 97,
  "λογιζεσθαι": 97,
  "αδικω": 97,
  "φιλοσοφω": 97,
  "αστερας": 97,
  "ζητησει": 97,
  "εφιεται": 97,
  "αποτελεσμα": 97,
  "οψεις": 97,
  "αδηλων": 97,
  "δοξαις": 97,
  "ποσαχως": 97,
  "ολιγαρχια": 97,
  "πολιτειων": 97,
  "οριζομενος": 97,
  "ακρατον": 97,
  "ποδ": 96,
  "ακι": 96,
  "ιατροι": 96,
  "##λεους": 96,
  "κρει": 96,
  "ηργ": 96,
  "##ομη": 96,
  "στρογγυλ": 96,
  "##ποιο": 96,
  "αρτου": 96,
  "##στε": 96,
  "παντο": 96,
  "βων": 96,
  "σιμο": 96,
  "γυναιξιν": 96,
  "επιδεκ": 96,
  "##μασ": 96,
  "μητροπολει": 96,
  "καταλογ": 96,
  "κωλυειν": 96,
  "τελι": 96,
  "πηχων": 96,
  "##παι": 96,
  "##μεναις": 96,
  "σπορας": 96,
  "σκαφ": 96,
  "πομπ": 96,
  "##ματο": 96,
  "βουλομενοις": 96,
  "ευπ": 96,
  "ομβ": 96,
  "##υμα": 96,
  "εφοδος": 96,
  "δειχθη": 96,
  "φυγην": 96,
  "εισηγ": 96,
  "αλλοτριω": 96,
  "γνωριζ": 96,
  "αιματι": 96,
  "παυεται": 96,
  "πονος": 96,
  "κλυ": 96,
  "προτεραν": 96,
  "ελευθεριας": 96,
  "ατυχ": 96,
  "συντιθε": 96,
  "συγγενεις": 96,
  "ποιητην": 96,
  "καταψυξ": 96,
  "φιλοσοφοι": 96,
  "συμβαινοντων": 96,
  "ταραττ": 96,
  "ακριβεστερον": 96,
  "επικουρον": 96,
  "πασχοντος": 96,
  "λογικης": 96,
  "λεχθησεται": 96,
  "χαλεπωτερον": 96,
  "ελλειπον": 96,
  "γελοι": 96,
  "βελτιονος": 96,
  "ανομοια": 96,
  "υγροτης": 96,
  "πυκνον": 96,
  "χωριζεται": 96,
  "προσκειμενον": 96,
  "εγιγνετο": 96,
  "αμφοτερως": 96,
  "συμπλοκης": 96,
  "κυημα": 96,
  "##αρις": 95,
  "συνεπισ": 95,
  "σκληρο": 95,
  "οδω": 95,
  "##υλου": 95,
  "##οιβ": 95,
  "κεχρησθαι": 95,
  "##γενη": 95,
  "ωμεν": 95,
  "##ιστι": 95,
  "ατρει": 95,
  "σκυτα": 95,
  "κοιλ": 95,
  "προσφυ": 95,
  "διστ": 95,
  "ογδοη": 95,
  "λιθι": 95,
  "διευ": 95,
  "καυ": 95,
  "##τινου": 95,
  "γραμματικον": 95,
  "συγγενει": 95,
  "ηλιοδωρος": 95,
  "μαθησιν": 95,
  "ωμολογησεν": 95,
  "εκχω": 95,
  "αμεσ": 95,
  "##εγον": 95,
  "συναγων": 95,
  "συνηθεις": 95,
  "μνημα": 95,
  "##ρεις": 95,
  "αρχουσι": 95,
  "λημματα": 95,
  "διελθ": 95,
  "πλαστ": 95,
  "προν": 95,
  "##αμων": 95,
  "γινωσκ": 95,
  "χρησαμενος": 95,
  "εξαλλ": 95,
  "ευπατ": 95,
  "βουν": 95,
  "αλεξανδρε": 95,
  "εσομενον": 95,
  "χερσι": 95,
  "σεβαστος": 95,
  "ουσιαις": 95,
  "ιεροις": 95,
  "συνδ": 95,
  "##ωθη": 95,
  "παρεσχεν": 95,
  "ερασ": 95,
  "πειθ": 95,
  "διανομ": 95,
  "##ωσαι": 95,
  "υποκειμενην": 95,
  "γενικ": 95,
  "ορμα": 95,
  "αυξησεως": 95,
  "ισαακ": 95,
  "επιτηδευμα": 95,
  "εκλεγ": 95,
  "αξιουσιν": 95,
  "απαγορ": 95,
  "χωριζεσθαι": 95,
  "νοσηματων": 95,
  "νοητου": 95,
  "ουδετερα": 95,
  "πολλαπλασιον": 95,
  "ορθας": 95,
  "επιτηδευματων": 95,
  "στερησει": 95,
  "περιεχομενον": 95,
  "βαρυτερον": 95,
  "θεοφραστος": 95,
  "εκεινας": 95,
  "σωματικων": 95,
  "μηδετερον": 95,
  "τραχυ": 95,
  "δυαδι": 95,
  "θαλασσα": 95,
  "ψυχροτητος": 95,
  "παχυν": 95,
  "##αριν": 94,
  "##ιλω": 94,
  "περιη": 94,
  "αγη": 94,
  "αμπελωνος": 94,
  "κυβ": 94,
  "##στεως": 94,
  "εσομαι": 94,
  "ωκ": 94,
  "νιγ": 94,
  "αντιλεγ": 94,
  "##χιν": 94,
  "λυκο": 94,
  "ηρακλειτος": 94,
  "δωδεκ": 94,
  "ιερατ": 94,
  "##σμενων": 94,
  "##εννη": 94,
  "δεδηλω": 94,
  "επιβο": 94,
  "πενθ": 94,
  "ιχνη": 94,
  "μαξιμινου": 94,
  "ωριγεν": 94,
  "λεξεις": 94,
  "χρυσων": 94,
  "ποριζ": 94,
  "αλογ": 94,
  "ξηραν": 94,
  "μεταλαμβανειν": 94,
  "αγια": 94,
  "##γειν": 94,
  "κρου": 94,
  "μιχ": 94,
  "ποιησιν": 94,
  "απορω": 94,
  "##θησεσθαι": 94,
  "γεωμ": 94,
  "αποφασει": 94,
  "προσηκειν": 94,
  "εκφερ": 94,
  "##οραι": 94,
  "οπλων": 94,
  "τοιαυτ": 94,
  "μελων": 94,
  "αποτελ": 94,
  "##ωντες": 94,
  "καθιστα": 94,
  "αθανατος": 94,
  "αισχρων": 94,
  "##αζοντα": 94,
  "μετοικ": 94,
  "λακεδαιμονιων": 94,
  "ισασιν": 94,
  "δεοντος": 94,
  "θεραπευειν": 94,
  "ειωθε": 94,
  "##στικον": 94,
  "τεχναις": 94,
  "μεριστον": 94,
  "τριχη": 94,
  "νοεισθαι": 94,
  "ομηρον": 94,
  "μαχεται": 94,
  "φαινομενοις": 94,
  "μιγμα": 94,
  "προελθων": 94,
  "ποιητικων": 94,
  "ομωνυμα": 94,
  "ογκω": 94,
  "συνεχων": 94,
  "προτασεσιν": 94,
  "τοιον": 94,
  "##δωρος": 93,
  "##ανη": 93,
  "##νως": 93,
  "ανοι": 93,
  "πρου": 93,
  "ανθι": 93,
  "ηρωδης": 93,
  "ορμωμενοι": 93,
  "τεσσαρεσκαιδεκατη": 93,
  "##οπολει": 93,
  "##δυν": 93,
  "##λεγ": 93,
  "μετω": 93,
  "##ευσα": 93,
  "##κατο": 93,
  "πεντακοσιων": 93,
  "##ικε": 93,
  "διακειμενων": 93,
  "ωριγενους": 93,
  "ειδο": 93,
  "##γενης": 93,
  "##ραψαι": 93,
  "σταλ": 93,
  "δωσειν": 93,
  "εγγεν": 93,
  "απεν": 93,
  "μεγαλο": 93,
  "ηρακλειος": 93,
  "χαριτας": 93,
  "γαμων": 93,
  "υπαρχων": 93,
  "ποιησειν": 93,
  "διαλυσιν": 93,
  "αναβο": 93,
  "δηλουται": 93,
  "ειπ": 93,
  "ναν": 93,
  "μουσης": 93,
  "##φους": 93,
  "αλκι": 93,
  "ιατ": 93,
  "αποδ": 93,
  "αποδεχ": 93,
  "##ειλη": 93,
  "αγαπη": 93,
  "ανικη": 93,
  "πατερων": 93,
  "επιδειξ": 93,
  "εκουσι": 93,
  "αγνω": 93,
  "##αινων": 93,
  "εξευ": 93,
  "ψιμ": 93,
  "ακριβειαν": 93,
  "αλλοιω": 93,
  "διδασκων": 93,
  "ενδει": 93,
  "κατηγορειν": 93,
  "ειδοτα": 93,
  "##ωτατον": 93,
  "εργαζεται": 93,
  "τιθησιν": 93,
  "χρωμενων": 93,
  "συμφεροντα": 93,
  "##οειδες": 93,
  "συγκρισιν": 93,
  "ταληθη": 93,
  "αντιληψις": 93,
  "αλογος": 93,
  "αναισθη": 93,
  "χειρονος": 93,
  "ποροι": 93,
  "κυριωτατον": 93,
  "δυναμενην": 93,
  "ιδρυ": 93,
  "συγγενες": 93,
  "διαλεκτικος": 93,
  "αδιοριστ": 93,
  "δημοκρατιαν": 93,
  "κρειττονος": 93,
  "κυστιν": 93,
  "συμπλοκην": 93,
  "οσμης": 93,
  "απαθες": 93,
  "διαστηματι": 93,
  "λευκαι": 93,
  "περιττωματος": 93,
  "•": 93,
  "οσου": 92,
  "ελαβ": 92,
  "νεοφ": 92,
  "στρατιω": 92,
  "ποσειδωνι": 92,
  "##ψω": 92,
  "##ηνε": 92,
  "βλαβην": 92,
  "φιλιππω": 92,
  "αγε": 92,
  "υποσ": 92,
  "συμπληρωσιν": 92,
  "καταρ": 92,
  "ιπποκρατους": 92,
  "ελενη": 92,
  "περιστερ": 92,
  "θαν": 92,
  "σπερ": 92,
  "επαλλ": 92,
  "ηκει": 92,
  "εσομενων": 92,
  "θολ": 92,
  "βουλομενους": 92,
  "αρεσκει": 92,
  "ουαλεντινιανου": 92,
  "##σοι": 92,
  "##εισαν": 92,
  "ελλαδι": 92,
  "προδεδηλ": 92,
  "δοθεντος": 92,
  "##ηνον": 92,
  "ανεδ": 92,
  "υπεναντι": 92,
  "εδαφους": 92,
  "επιθ": 92,
  "σκεψεως": 92,
  "τμη": 92,
  "κυκλ": 92,
  "##στικη": 92,
  "ιουδαιων": 92,
  "αναπληρω": 92,
  "εφει": 92,
  "αισ": 92,
  "δεδι": 92,
  "διατριβ": 92,
  "##εστα": 92,
  "διαλλ": 92,
  "μετοπω": 92,
  "##ιπτε": 92,
  "ξηρας": 92,
  "τριας": 92,
  "παιδαγωγ": 92,
  "ολοις": 92,
  "εξωθ": 92,
  "διαδι": 92,
  "βουλησιν": 92,
  "ειρημενας": 92,
  "εμπεριεχ": 92,
  "συμφωνιαν": 92,
  "διαλειπ": 92,
  "αμαρτηματων": 92,
  "σηπ": 92,
  "συνεγγυς": 92,
  "υποβ": 92,
  "πειραται": 92,
  "εμπειριαν": 92,
  "περιεχεσθαι": 92,
  "ορθης": 92,
  "επισης": 92,
  "πειρατεον": 92,
  "υπολαβων": 92,
  "κτησασθαι": 92,
  "εξεων": 92,
  "ορισμων": 92,
  "ομοιοι": 92,
  "οσμην": 92,
  "επιθυμιαις": 92,
  "οτουουν": 92,
  "πτηνον": 92,
  "αντιστροφ": 92,
  "ανακλασις": 92,
  "στρατιωτης": 91,
  "επεμ": 91,
  "ζευ": 91,
  "χια": 91,
  "δευτερ": 91,
  "καθοσι": 91,
  "αξιου": 91,
  "παραμειν": 91,
  "##στει": 91,
  "##αρχη": 91,
  "διατετ": 91,
  "νεοπτολε": 91,
  "εκαστ": 91,
  "αιρων": 91,
  "παραδι": 91,
  "αρχοντι": 91,
  "ποσαι": 91,
  "ζημιαν": 91,
  "ταραχ": 91,
  "οικουμενης": 91,
  "παρεχων": 91,
  "γινομεναι": 91,
  "χαριδ": 91,
  "ορνιθ": 91,
  "τυπ": 91,
  "συμβολ": 91,
  "κατηγορου": 91,
  "αιτιοι": 91,
  "κτασθαι": 91,
  "χρυσος": 91,
  "ποιουντων": 91,
  "γεωμετριαν": 91,
  "υστερας": 91,
  "εδεξατο": 91,
  "καλουμενος": 91,
  "προσερ": 91,
  "χωριω": 91,
  "ατελεις": 91,
  "παραλογ": 91,
  "αποδειξει": 91,
  "πλειοσι": 91,
  "αναλισ": 91,
  "συνθεσει": 91,
  "εποιουν": 91,
  "χρωμενη": 91,
  "βαναυσ": 91,
  "φυλαττεσθαι": 91,
  "τριχως": 91,
  "λογικην": 91,
  "μαθησις": 91,
  "αδυνατων": 91,
  "χολης": 91,
  "υποληπτεον": 91,
  "ποιος": 91,
  "νοητοις": 91,
  "ορεκ": 91,
  "επαινων": 91,
  "βλαπτειν": 91,
  "ορμης": 91,
  "ολιγοις": 91,
  "αντικεισθαι": 91,
  "ηδεων": 91,
  "επιτηδευματα": 91,
  "ανομοιο": 91,
  "φλεβας": 91,
  "παθημα": 91,
  "παραδειγματων": 91,
  "απορησειεν": 91,
  "βαθει": 91,
  "ουδαμη": 91,
  "δοθη": 90,
  "τηρη": 90,
  "πεμψω": 90,
  "ψαμ": 90,
  "απον": 90,
  "πειν": 90,
  "απορον": 90,
  "##ρωμα": 90,
  "θυσιων": 90,
  "##ναν": 90,
  "καλοις": 90,
  "εκατονταρ": 90,
  "οθον": 90,
  "##ουλα": 90,
  "διοικησιν": 90,
  "σπε": 90,
  "λιμ": 90,
  "πεδι": 90,
  "εμβα": 90,
  "εντευξιν": 90,
  "λογωι": 90,
  "συνεσ": 90,
  "##αζουσιν": 90,
  "εφοδον": 90,
  "επιθυμ": 90,
  "καλης": 90,
  "γεωργους": 90,
  "προσθηκη": 90,
  "##αθη": 90,
  "δρομω": 90,
  "##οψ": 90,
  "αιωνι": 90,
  "##απο": 90,
  "νομιμον": 90,
  "δεχομενος": 90,
  "##ψεται": 90,
  "παππου": 90,
  "βυβ": 90,
  "##αζεται": 90,
  "περιεργ": 90,
  "επιθε": 90,
  "##ιεν": 90,
  "προσοδου": 90,
  "δραγ": 90,
  "νεβ": 90,
  "ηκειν": 90,
  "##λειας": 90,
  "##τετ": 90,
  "βελτιστα": 90,
  "καταφερ": 90,
  "ζημιας": 90,
  "χθες": 90,
  "##οτατην": 90,
  "φιλοπον": 90,
  "δοκ": 90,
  "λευκη": 90,
  "εχεται": 90,
  "απορρε": 90,
  "αποκρινομενον": 90,
  "επων": 90,
  "στοχασ": 90,
  "κυνος": 90,
  "εκατερων": 90,
  "εναλλαξ": 90,
  "εδυνατο": 90,
  "συγχωρειν": 90,
  "τυπου": 90,
  "εθνος": 90,
  "σφαλλ": 90,
  "λυει": 90,
  "απολλυ": 90,
  "εγγινεται": 90,
  "εκατεραν": 90,
  "ορατα": 90,
  "βαρυτερα": 90,
  "δυνατου": 90,
  "συλλογισμοις": 90,
  "ηρεμια": 90,
  "φανειται": 90,
  "εγκρατεια": 90,
  "διαφεροι": 90,
  "μιμημα": 90,
  "νοσους": 90,
  "συνθετα": 90,
  "προσληφ": 90,
  "παθητικα": 90,
  "προτασει": 90,
  "δοτεον": 90,
  "στομ": 89,
  "σωκρατ": 89,
  "εδηλωσα": 89,
  "μηχανην": 89,
  "επειτ": 89,
  "##φεν": 89,
  "γεμει": 89,
  "απολη": 89,
  "αυθεν": 89,
  "νεστο": 89,
  "σους": 89,
  "##ηματος": 89,
  "μισο": 89,
  "φρονων": 89,
  "ψιλου": 89,
  "τριαδα": 89,
  "λοιπους": 89,
  "βουλωνται": 89,
  "υστερ": 89,
  "πων": 89,
  "συνταξιν": 89,
  "εμπο": 89,
  "ηρακλειαν": 89,
  "##βεβλη": 89,
  "ηγουμαι": 89,
  "ζημι": 89,
  "συνοδου": 89,
  "δρομ": 89,
  "σκαλ": 89,
  "ακωλυτως": 89,
  "επικλ": 89,
  "υπομνη": 89,
  "ημεν": 89,
  "##εντες": 89,
  "γαμετη": 89,
  "παιδεια": 89,
  "εθνους": 89,
  "##αζων": 89,
  "ελευθερων": 89,
  "εφιε": 89,
  "υπογραφει": 89,
  "χαρα": 89,
  "κυριλλου": 89,
  "οψε": 89,
  "ωδ": 89,
  "διαβ": 89,
  "καλους": 89,
  "εια": 89,
  "αμφοτεραις": 89,
  "ενεστη": 89,
  "υποτιθεσθαι": 89,
  "φαγ": 89,
  "θερμων": 89,
  "προσαπ": 89,
  "γεννησ": 89,
  "πυθαγοραν": 89,
  "ηγουμενοι": 89,
  "πλειστου": 89,
  "συμφωνον": 89,
  "συγγενων": 89,
  "δεκας": 89,
  "ρεον": 89,
  "πταρ": 89,
  "σιδηρος": 89,
  "αποτελε": 89,
  "ενδοθεν": 89,
  "απαντι": 89,
  "μετεχοντα": 89,
  "##κτεον": 89,
  "εδειξαμεν": 89,
  "θεωρηματα": 89,
  "φιλομα": 89,
  "καταληψιν": 89,
  "σκελη": 89,
  "ποιητικου": 89,
  "ωον": 89,
  "διαφοροι": 89,
  "εωρα": 89,
  "μιμεισθαι": 89,
  "ενιαι": 89,
  "απορησειε": 89,
  "αμεινων": 89,
  "μοναχως": 89,
  "διωρισμενων": 89,
  "ορατων": 89,
  "συντη": 89,
  "ποικιλον": 89,
  "αοριστος": 89,
  "συμβουλευ": 89,
  "φιλοσ": 88,
  "συμπο": 88,
  "βοηθη": 88,
  "ξυ": 88,
  "##εινα": 88,
  "χαριτι": 88,
  "δημοσιοις": 88,
  "##ισχ": 88,
  "κηπου": 88,
  "ξεστας": 88,
  "##ανθ": 88,
  "καμι": 88,
  "##ιστη": 88,
  "τριακοσιων": 88,
  "##μως": 88,
  "ονησι": 88,
  "παραμεν": 88,
  "ημεραι": 88,
  "αποτιν": 88,
  "αιγας": 88,
  "ερρωσο": 88,
  "ραγ": 88,
  "μετοχοι": 88,
  "κατασ": 88,
  "ιον": 88,
  "λαμβανουσα": 88,
  "αιωνος": 88,
  "ανθε": 88,
  "καινο": 88,
  "σπειραι": 88,
  "##κησ": 88,
  "##ησομενον": 88,
  "αγαθην": 88,
  "αου": 88,
  "ποικιλ": 88,
  "##εστατης": 88,
  "κατην": 88,
  "συντεθει": 88,
  "στρατιωτου": 88,
  "πειθω": 88,
  "##αμπ": 88,
  "θερμ": 88,
  "λειον": 88,
  "##στερον": 88,
  "υλι": 88,
  "εδοθη": 88,
  "αμαρτημα": 88,
  "λογια": 88,
  "γεγραμμενων": 88,
  "##ωντα": 88,
  "αε": 88,
  "γνωσει": 88,
  "ιστα": 88,
  "πλειονας": 88,
  "τοσουτου": 88,
  "κορη": 88,
  "νομοφυλακ": 88,
  "ειδον": 88,
  "σπουδαζ": 88,
  "##κομεν": 88,
  "ανατο": 88,
  "μοναι": 88,
  "οξος": 88,
  "##αζει": 88,
  "ζημια": 88,
  "υποστασει": 88,
  "μουσι": 88,
  "##τεται": 88,
  "νομιζων": 88,
  "πλουσιω": 88,
  "σκεψις": 88,
  "⟦": 88,
  "##οτερων": 88,
  "ακινη": 88,
  "φυσικω": 88,
  "συμπλο": 88,
  "σκυτοτο": 88,
  "λεχθεντα": 88,
  "ανηρη": 88,
  "εμψυχα": 88,
  "τελειοτης": 88,
  "γενναται": 88,
  "περιπατει": 88,
  "διαλεκτικον": 88,
  "εκκριν": 88,
  "ομοιομερων": 88,
  "σοφους": 88,
  "δεδειγμενον": 88,
  "συνθετων": 88,
  "συναληθ": 88,
  "ορασις": 88,
  "επογδο": 88,
  "##ητην": 87,
  "ειμ": 87,
  "##φος": 87,
  "τολ": 87,
  "παρεξει": 87,
  "επιφερομενον": 87,
  "##οστα": 87,
  "διακονου": 87,
  "##ευοντες": 87,
  "συναγορ": 87,
  "εξελ": 87,
  "##φθαι": 87,
  "κισ": 87,
  "##σμενα": 87,
  "αθηναιω": 87,
  "##ηρος": 87,
  "αραβων": 87,
  "γεγενηται": 87,
  "πεποιησθαι": 87,
  "εκδο": 87,
  "ζα": 87,
  "οντινουν": 87,
  "αιλου": 87,
  "καλουμενων": 87,
  "##ρισιν": 87,
  "παυλε": 87,
  "##τειας": 87,
  "προειρημενον": 87,
  "εμπειρια": 87,
  "##αλω": 87,
  "##ζεν": 87,
  "##θειση": 87,
  "αδεσπο": 87,
  "προση": 87,
  "λεια": 87,
  "ωων": 87,
  "φασεις": 87,
  "οινοπ": 87,
  "κτηματα": 87,
  "ευθηνια": 87,
  "κεφαλαια": 87,
  "ελεν": 87,
  "ελεγες": 87,
  "προσγεν": 87,
  "εξαπ": 87,
  "αποδεδω": 87,
  "αφιλ": 87,
  "μεθιστα": 87,
  "εσχατου": 87,
  "μεταπ": 87,
  "##θους": 87,
  "παρακλη": 87,
  "##γης": 87,
  "σοφ": 87,
  "τριχας": 87,
  "πενιαν": 87,
  "προκατα": 87,
  "οικονομιας": 87,
  "##κτος": 87,
  "θεοφιλε": 87,
  "εχοιεν": 87,
  "κρατος": 87,
  "εγχει": 87,
  "δεχομενη": 87,
  "τεχνιτης": 87,
  "καλουνται": 87,
  "οικοδομος": 87,
  "ανισ": 87,
  "κινηθηναι": 87,
  "πολυπραγμον": 87,
  "επιθυμει": 87,
  "καθησθαι": 87,
  "στιλβ": 87,
  "##ιζονται": 87,
  "φευγει": 87,
  "αφροδισιων": 87,
  "θεωρηματων": 87,
  "##οτεραν": 87,
  "απορειν": 87,
  "διεξι": 87,
  "αριθμητικη": 87,
  "πληγης": 87,
  "συμπλεκ": 87,
  "πραττομεν": 87,
  "κατηγορια": 87,
  "ελλειψις": 87,
  "ορωμενων": 87,
  "κατηγορουμενος": 87,
  "λαμβανομενων": 87,
  "ληφθεντος": 87,
  "συζυγιων": 87,
  "χαλκ": 86,
  "##αζου": 86,
  "θρωπ": 86,
  "##στοι": 86,
  "περσαι": 86,
  "αλυ": 86,
  "ασυ": 86,
  "θειναι": 86,
  "καλας": 86,
  "##κρατης": 86,
  "ελασσον": 86,
  "απλ": 86,
  "γραφεντα": 86,
  "ελαιας": 86,
  "γινωσκε": 86,
  "ακοσ": 86,
  "αποδωσειν": 86,
  "νησον": 86,
  "οροβ": 86,
  "απολαβειν": 86,
  "βεβαιοι": 86,
  "ασημου": 86,
  "εμβολης": 86,
  "ενεκ": 86,
  "μολ": 86,
  "αιτησ": 86,
  "ξενον": 86,
  "πυκ": 86,
  "τασσ": 86,
  "συγγραφης": 86,
  "##σομαι": 86,
  "ημισει": 86,
  "μεταφορα": 86,
  "ακουομεν": 86,
  "γεγονυια": 86,
  "##ρεω": 86,
  "ελασσω": 86,
  "##μεθ": 86,
  "##ρεα": 86,
  "υστερου": 86,
  "ακρω": 86,
  "περιεστ": 86,
  "σκιαν": 86,
  "σεαυτου": 86,
  "##σαμενοι": 86,
  "απαιτει": 86,
  "αναλογιας": 86,
  "προειρημενου": 86,
  "αποφασ": 86,
  "γενικως": 86,
  "ποιεις": 86,
  "καθαρως": 86,
  "μετακ": 86,
  "ελι": 86,
  "καταπο": 86,
  "φοιν": 86,
  "θανατω": 86,
  "βελτιστου": 86,
  "οργανοις": 86,
  "εμπειριας": 86,
  "ασθενης": 86,
  "περιττα": 86,
  "##εστερος": 86,
  "εκαστοι": 86,
  "νεφους": 86,
  "νηνε": 86,
  "ασωματα": 86,
  "σημαινον": 86,
  "εντελεχειαν": 86,
  "εκτιθεται": 86,
  "εγκατα": 86,
  "εμποιει": 86,
  "αναπνειν": 86,
  "κεντρου": 86,
  "ασωματος": 86,
  "υπεκειτο": 86,
  "γιγνομενοις": 86,
  "χειμων": 86,
  "ιθι": 86,
  "διαμετρος": 86,
  "καταφασεως": 86,
  "κατασκευαζοντα": 86,
  "νοητω": 86,
  "αξιωματα": 86,
  "αρτιος": 86,
  "πρωταγορα": 86,
  "δεικτεον": 86,
  "οσφρησις": 86,
  "μεταληψιν": 86,
  "υπαρχετω": 86,
  "※": 86,
  "γιγνοιτ": 86,
  "χαλα": 85,
  "δευ": 85,
  "ρογ": 85,
  "ψη": 85,
  "επιγεν": 85,
  "αντιχ": 85,
  "##οβοσ": 85,
  "αναζητ": 85,
  "φιλιππος": 85,
  "παντοιας": 85,
  "εριων": 85,
  "καταλει": 85,
  "πολιτου": 85,
  "##εσει": 85,
  "ελαιω": 85,
  "υβρεως": 85,
  "αποι": 85,
  "πομ": 85,
  "##αθης": 85,
  "##αγαθ": 85,
  "ειπες": 85,
  "σκω": 85,
  "ρυγ": 85,
  "##ισμου": 85,
  "##αζω": 85,
  "περιεσ": 85,
  "γραφεις": 85,
  "λευσ": 85,
  "ιτα": 85,
  "εψευσ": 85,
  "δωρου": 85,
  "##χεις": 85,
  "προσηκουσαν": 85,
  "##λικων": 85,
  "##σμενοι": 85,
  "##αινον": 85,
  "ξεστ": 85,
  "μελλοντι": 85,
  "##ολλ": 85,
  "ανδρεου": 85,
  "οικιαι": 85,
  "παραθεσιν": 85,
  "βασιλεις": 85,
  "ελευθερω": 85,
  "φυλασσ": 85,
  "##ραπτο": 85,
  "##γελλ": 85,
  "μεθε": 85,
  "καθεστηκεν": 85,
  "καλεισθαι": 85,
  "ημαρτη": 85,
  "συνακολου": 85,
  "καλουμενη": 85,
  "εκλογ": 85,
  "διαιτης": 85,
  "διατυπ": 85,
  "υψος": 85,
  "θυειν": 85,
  "##οδον": 85,
  "ατερ": 85,
  "θερμη": 85,
  "εισφερ": 85,
  "αρτοι": 85,
  "μεταφ": 85,
  "δεω": 85,
  "φθανει": 85,
  "οικειοις": 85,
  "τελευταια": 85,
  "ακολουθια": 85,
  "κακεινος": 85,
  "αρχομενος": 85,
  "ευριπιδης": 85,
  "συλλαβη": 85,
  "διεφθαρ": 85,
  "φρονησει": 85,
  "βαθους": 85,
  "εκειναι": 85,
  "##στεον": 85,
  "βλαβερα": 85,
  "ελκειν": 85,
  "παρατιθεται": 85,
  "γευσιν": 85,
  "διαμενειν": 85,
  "μιγνυ": 85,
  "νομιζει": 85,
  "ρηθεν": 85,
  "συνθετου": 85,
  "αποκρινομενος": 85,
  "απαλλαττ": 85,
  "σιπ": 84,
  "φαβ": 84,
  "κοφ": 84,
  "##ουια": 84,
  "μακρα": 84,
  "φρα": 84,
  "θελης": 84,
  "πεποιη": 84,
  "υπογραφην": 84,
  "δεινι": 84,
  "ιδιωτης": 84,
  "στεφανος": 84,
  "##τακ": 84,
  "θεοτοκου": 84,
  "αυτοκρατ": 84,
  "αποστηναι": 84,
  "ημετερου": 84,
  "##μαχου": 84,
  "λειτουργιας": 84,
  "εξελεγχ": 84,
  "μας": 84,
  "##ογραφιας": 84,
  "μενανδρου": 84,
  "υγ": 84,
  "ωφελη": 84,
  "##ασιαν": 84,
  "διδοντες": 84,
  "επιδημ": 84,
  "παιδιων": 84,
  "ελοι": 84,
  "κορνηλιος": 84,
  "γαλην": 84,
  "##κελ": 84,
  "σηκ": 84,
  "διεσταλ": 84,
  "##ησεσθαι": 84,
  "ιατρω": 84,
  "αυλων": 84,
  "εβ": 84,
  "οση": 84,
  "##ψαιτο": 84,
  "##μνα": 84,
  "##ορευ": 84,
  "μαχης": 84,
  "γαιαν": 84,
  "κυριους": 84,
  "##χεναι": 84,
  "μαρτυρας": 84,
  "επιτηδεια": 84,
  "τολμη": 84,
  "απας": 84,
  "ισθι": 84,
  "ωρισμενου": 84,
  "διελειν": 84,
  "επαινος": 84,
  "αφελ": 84,
  "σαφ": 84,
  "πεφ": 84,
  "φθογγ": 84,
  "γνωρισ": 84,
  "τυγχανη": 84,
  "##οδος": 84,
  "θαρρειν": 84,
  "ηρξατο": 84,
  "αλογω": 84,
  "ευα": 84,
  "πολιτικα": 84,
  "επονομα": 84,
  "εσταναι": 84,
  "επινοιαν": 84,
  "γηρα": 84,
  "φθονος": 84,
  "ωφελιμα": 84,
  "αμερη": 84,
  "ανακαμπ": 84,
  "ποιοτητων": 84,
  "δειλια": 84,
  "δαιμονων": 84,
  "προστιθησιν": 84,
  "πληγην": 84,
  "αψυχα": 84,
  "ψευδο": 84,
  "νοσημα": 84,
  "σχημασιν": 84,
  "αληθευει": 84,
  "πεψις": 84,
  "εγγυθεν": 84,
  "χυμοι": 84,
  "επιβλε": 84,
  "πνει": 84,
  "νεφος": 84,
  "##αιας": 83,
  "διοσ": 83,
  "##βυ": 83,
  "αιγυπτω": 83,
  "μηχανης": 83,
  "##καιδεκα": 83,
  "πρατ": 83,
  "θεσ": 83,
  "##ωσω": 83,
  "αντικα": 83,
  "πληρεις": 83,
  "βαβυλ": 83,
  "λης": 83,
  "##ητο": 83,
  "σιτω": 83,
  "##ρεια": 83,
  "ηρακλειτου": 83,
  "εχης": 83,
  "τετο": 83,
  "σφραγιδος": 83,
  "απειθ": 83,
  "παραλαβων": 83,
  "##υτης": 83,
  "ερια": 83,
  "##υει": 83,
  "φρουρ": 83,
  "ανταν": 83,
  "μοναστηριου": 83,
  "μετι": 83,
  "##ησαντας": 83,
  "αρκε": 83,
  "ομολογουσι": 83,
  "εξην": 83,
  "##υτα": 83,
  "##ρινου": 83,
  "##ληφεν": 83,
  "καλλιπ": 83,
  "##θεσ": 83,
  "γραψω": 83,
  "##ζουσης": 83,
  "τριβουν": 83,
  "πιστευ": 83,
  "απεκ": 83,
  "ορμον": 83,
  "εχεσθαι": 83,
  "περσων": 83,
  "##σαις": 83,
  "##ισει": 83,
  "απλους": 83,
  "ισους": 83,
  "ευνοια": 83,
  "φερων": 83,
  "αγρο": 83,
  "##ηθεντων": 83,
  "δοκων": 83,
  "ισοι": 83,
  "τιθεμενον": 83,
  "εξιστα": 83,
  "βασιλειαν": 83,
  "ενθυμ": 83,
  "επιδειξαι": 83,
  "ζωγραφ": 83,
  "τεμνειν": 83,
  "διασπα": 83,
  "δυναμενης": 83,
  "επιμο": 83,
  "ακριβειας": 83,
  "πλευραν": 83,
  "αρμοττον": 83,
  "##ρεπ": 83,
  "πρωταγορας": 83,
  "φευγων": 83,
  "ειποντες": 83,
  "αιωνα": 83,
  "ομολογειται": 83,
  "αρρενων": 83,
  "μεθη": 83,
  "ατελης": 83,
  "πιεζ": 83,
  "ατοπος": 83,
  "δυσκολ": 83,
  "χροαν": 83,
  "διακρινειν": 83,
  "σχολη": 83,
  "μουσικου": 83,
  "αναμιμνησ": 83,
  "αναισθητον": 83,
  "υγιης": 83,
  "επαινουμεν": 83,
  "μιξ": 83,
  "φθαρηναι": 83,
  "μουσικω": 83,
  "υπομιμνησκει": 83,
  "εκπνε": 83,
  "τιμιωτερον": 83,
  "αρμοττει": 83,
  "αποτρεπ": 83,
  "λαμβανοντας": 83,
  "ειποις": 83,
  "απτων": 83,
  "μελλοι": 83,
  "λευκοτης": 83,
  "ταυτοματου": 83,
  "σαρκων": 83,
  "##φανους": 82,
  "περιτ": 82,
  "πρεσβυτεροις": 82,
  "παρεχω": 82,
  "περιω": 82,
  "##οφορ": 82,
  "##ρικα": 82,
  "ησθη": 82,
  "θεοσεβ": 82,
  "αμπελων": 82,
  "μαχαιρ": 82,
  "ασφαλως": 82,
  "ενοχοι": 82,
  "##ησης": 82,
  "##ρησαι": 82,
  "χωρι": 82,
  "##αντ": 82,
  "χεω": 82,
  "ωμοσα": 82,
  "αρχιερευς": 82,
  "θρακ": 82,
  "περισσ": 82,
  "##ανει": 82,
  "μαθη": 82,
  "##οδε": 82,
  "καικι": 82,
  "τυγχανω": 82,
  "##γμα": 82,
  "##ανων": 82,
  "αυλα": 82,
  "υπομεν": 82,
  "θερι": 82,
  "προειλ": 82,
  "εργαστηριον": 82,
  "μεταφοραν": 82,
  "καταβολη": 82,
  "παραμυθ": 82,
  "αζ": 82,
  "πορισ": 82,
  "αρδ": 82,
  "##κουσι": 82,
  "ιδη": 82,
  "διαφερουσα": 82,
  "γερμανος": 82,
  "##ασεως": 82,
  "αγανακτ": 82,
  "##σθησεται": 82,
  "στηναι": 82,
  "μυθ": 82,
  "διδαξαι": 82,
  "ιδιαι": 82,
  "διαμενει": 82,
  "διεφ": 82,
  "ισχυρον": 82,
  "##0": 82,
  "υποθεσει": 82,
  "προμα": 82,
  "μαιν": 82,
  "κατεχειν": 82,
  "σιωπη": 82,
  "αγωνισ": 82,
  "ζʹ": 82,
  "καλοι": 82,
  "βουλομενω": 82,
  "ομιλιας": 82,
  "εφαινετο": 82,
  "γνωριζομεν": 82,
  "εθνη": 82,
  "υπερβαλλον": 82,
  "ποιουντας": 82,
  "μαθηματικης": 82,
  "κινηθησεται": 82,
  "μεθοδου": 82,
  "δημιουργον": 82,
  "αιρεται": 82,
  "αμαρτανει": 82,
  "υπερβολης": 82,
  "κινουνται": 82,
  "νεφη": 82,
  "αισθητω": 82,
  "κεχρωσ": 82,
  "φερομενου": 82,
  "ληφθειη": 82,
  "δυναμεσιν": 82,
  "ενατη": 81,
  "##υτον": 81,
  "##ρησ": 81,
  "ποδα": 81,
  "δεδωκεναι": 81,
  "πεποιημεθα": 81,
  "ρους": 81,
  "υς": 81,
  "##ητως": 81,
  "##δαρ": 81,
  "διδωμι": 81,
  "πετρω": 81,
  "ευεργεσιας": 81,
  "ευβ": 81,
  "##δρα": 81,
  "υπαρχουσι": 81,
  "εισοδος": 81,
  "##οπλ": 81,
  "σαμουηλ": 81,
  "θηβαιων": 81,
  "ξενο": 81,
  "απογραψ": 81,
  "σωτηρα": 81,
  "συντασσ": 81,
  "συνδια": 81,
  "##κομι": 81,
  "σιμον": 81,
  "δριμυ": 81,
  "οναρ": 81,
  "##ειχ": 81,
  "πορθμ": 81,
  "ενακ": 81,
  "τετευχ": 81,
  "οποτερω": 81,
  "##οθε": 81,
  "##μιον": 81,
  "εσφραγ": 81,
  "επιρ": 81,
  "##ελι": 81,
  "ηγεμονικω": 81,
  "μηκ": 81,
  "##οειδη": 81,
  "χωρει": 81,
  "καταλιπ": 81,
  "πολυφ": 81,
  "αναξ": 81,
  "κακο": 81,
  "απαιδευ": 81,
  "##ροσω": 81,
  "κατασχ": 81,
  "υποστη": 81,
  "##λυσ": 81,
  "##ρησεως": 81,
  "πλασ": 81,
  "##ησωμεν": 81,
  "ιστασθαι": 81,
  "εμελλε": 81,
  "πους": 81,
  "χρυσουν": 81,
  "υπερβολ": 81,
  "αντιτι": 81,
  "ξενος": 81,
  "εφησεν": 81,
  "δευτερων": 81,
  "##ασιων": 81,
  "πεποιηκεναι": 81,
  "τυχων": 81,
  "διασω": 81,
  "εγκυκ": 81,
  "ουτι": 81,
  "προδηλ": 81,
  "γενησ": 81,
  "φιλιαι": 81,
  "σολων": 81,
  "αντιλεγειν": 81,
  "##ωμενα": 81,
  "πολιτικω": 81,
  "ακολαστ": 81,
  "αποχρη": 81,
  "ιστορ": 81,
  "συμφωνιας": 81,
  "υπηρχε": 81,
  "δειξομεν": 81,
  "εννοια": 81,
  "λεγοιτ": 81,
  "εξαπατ": 81,
  "υποκεισθω": 81,
  "απονεμ": 81,
  "ομοειδη": 81,
  "ακουοντες": 81,
  "επιστημαις": 81,
  "φαυλοι": 81,
  "θυμοειδες": 81,
  "εγκεφαλος": 81,
  "αλλοθι": 81,
  "εγρηγορσις": 81,
  "εθελοι": 81,
  "##αα": 80,
  "προφασιν": 80,
  "λιθ": 80,
  "αριστοκ": 80,
  "δον": 80,
  "##μερι": 80,
  "πασχ": 80,
  "αρτους": 80,
  "ιερι": 80,
  "κυιν": 80,
  "στρατον": 80,
  "##ρυπ": 80,
  "γυναικ": 80,
  "##ειλον": 80,
  "##υθη": 80,
  "##ασθω": 80,
  "##αστου": 80,
  "ναυς": 80,
  "υπηρεσιας": 80,
  "αρχαιας": 80,
  "##ινης": 80,
  "παρεγ": 80,
  "##οτας": 80,
  "ικανην": 80,
  "επανι": 80,
  "παραγενεσθαι": 80,
  "μεμερισ": 80,
  "πεπονθεναι": 80,
  "νωθ": 80,
  "εκγονοις": 80,
  "ωσει": 80,
  "οικιων": 80,
  "καταντ": 80,
  "παντοια": 80,
  "αξιολογ": 80,
  "εανπερ": 80,
  "πλοιω": 80,
  "ευγενεια": 80,
  "καλαμι": 80,
  "##ξαμεν": 80,
  "##ρησεν": 80,
  "στοχ": 80,
  "##πεπ": 80,
  "στ": 80,
  "σαβινος": 80,
  "##ορε": 80,
  "προσθε": 80,
  "στρατηλ": 80,
  "##ησαντων": 80,
  "##ψον": 80,
  "εξηκο": 80,
  "##εσαν": 80,
  "διαλη": 80,
  "προσεκ": 80,
  "κεκτηται": 80,
  "εθει": 80,
  "##ειδη": 80,
  "δεομενων": 80,
  "γινομενας": 80,
  "ληγον": 80,
  "παισιν": 80,
  "γεωμετρης": 80,
  "στερεων": 80,
  "απελθειν": 80,
  "απαθη": 80,
  "##ικαι": 80,
  "ελπις": 80,
  "εγραφ": 80,
  "##ωπις": 80,
  "γηρως": 80,
  "μογις": 80,
  "προσεπι": 80,
  "οπλοις": 80,
  "##ουντο": 80,
  "οργαν": 80,
  "κυνας": 80,
  "ασθενεστερα": 80,
  "ελεσθαι": 80,
  "διανεμ": 80,
  "ρημα": 80,
  "οδοντας": 80,
  "τυραννον": 80,
  "πατερας": 80,
  "αλγη": 80,
  "περιπατη": 80,
  "αμουσ": 80,
  "ληψεται": 80,
  "στοιχειοις": 80,
  "ελεγχειν": 80,
  "μεταβαλλοντος": 80,
  "αισθητηρια": 80,
  "ονομαζεται": 80,
  "ονομαζει": 80,
  "δευτερως": 80,
  "ολιγαρχιαν": 80,
  "ερασιστρατος": 80,
  "αναθυμι": 80,
  "πεπερασμενω": 80,
  "ατμι": 80,
  "προβληματι": 80,
  "συσσι": 80,
  "σωτη": 79,
  "απαρτι": 79,
  "ευφραν": 79,
  "γεμι": 79,
  "παλι": 79,
  "υπογραφων": 79,
  "##θως": 79,
  "τευξ": 79,
  "##ευμενον": 79,
  "ειπω": 79,
  "υπατη": 79,
  "προεδ": 79,
  "ηγεμονικου": 79,
  "αρειος": 79,
  "εσομενου": 79,
  "τιλ": 79,
  "μοναστη": 79,
  "##ισμα": 79,
  "ασφαλεια": 79,
  "δεδε": 79,
  "συνευ": 79,
  "κηρυκ": 79,
  "γαιον": 79,
  "συνελθ": 79,
  "εξετασιν": 79,
  "##γενει": 79,
  "γυμν": 79,
  "πλανη": 79,
  "επεισ": 79,
  "αξιουντες": 79,
  "ζητουμενων": 79,
  "ραχηλ": 79,
  "ροι": 79,
  "λαμβανω": 79,
  "εξοδου": 79,
  "επανορθω": 79,
  "δειξ": 79,
  "κολλα": 79,
  "##ιως": 79,
  "ταυτηι": 79,
  "ληστ": 79,
  "φλαβ": 79,
  "αυτουργ": 79,
  "τιμω": 79,
  "τιθεμενων": 79,
  "##ιστου": 79,
  "πεπο": 79,
  "καμπτ": 79,
  "εκν": 79,
  "θρασυμα": 79,
  "απωθ": 79,
  "##κομενων": 79,
  "##σθεντες": 79,
  "ευηθ": 79,
  "ανεμος": 79,
  "κατασκευασαι": 79,
  "##ευω": 79,
  "##ειαις": 79,
  "τελευτησαντος": 79,
  "##ιζομενοι": 79,
  "θλιβ": 79,
  "ορε": 79,
  "μανι": 79,
  "μακρω": 79,
  "εασ": 79,
  "##ωδης": 79,
  "τιμωριας": 79,
  "υπαρξεως": 79,
  "πονηρον": 79,
  "κεκρατ": 79,
  "πολιτικος": 79,
  "ζητουσι": 79,
  "αφανι": 79,
  "κατασκευη": 79,
  "ωφελειας": 79,
  "αστρον": 79,
  "εμφασιν": 79,
  "απολαυσιν": 79,
  "πιειν": 79,
  "λειπο": 79,
  "απειροι": 79,
  "ανομοιου": 79,
  "ιστοριας": 79,
  "περατων": 79,
  "αμβλυ": 79,
  "σβεννυ": 79,
  "διηρηται": 79,
  "ραδια": 79,
  "μισειν": 79,
  "μεμιχθαι": 79,
  "αυτοματον": 79,
  "ενυπαρχειν": 79,
  "ανατομ": 79,
  "κος": 78,
  "##ρησα": 78,
  "υδ": 78,
  "##κλι": 78,
  "μελλ": 78,
  "##τερ": 78,
  "ηρη": 78,
  "προσεν": 78,
  "οικος": 78,
  "##δρος": 78,
  "##νοις": 78,
  "μανδ": 78,
  "περιει": 78,
  "##υσασθαι": 78,
  "ποιμην": 78,
  "πηχει": 78,
  "μενους": 78,
  "τετταρας": 78,
  "##χθηναι": 78,
  "##μαχω": 78,
  "χειρισ": 78,
  "σωζει": 78,
  "κατε": 78,
  "##μιων": 78,
  "περα": 78,
  "##εντας": 78,
  "##ηματων": 78,
  "εκκρου": 78,
  "αυθ": 78,
  "εικονας": 78,
  "##φια": 78,
  "φαινη": 78,
  "##σθεντα": 78,
  "προσταξ": 78,
  "ευδια": 78,
  "προσφ": 78,
  "υπομνηματων": 78,
  "δαιμονα": 78,
  "αλεξι": 78,
  "##εσπ": 78,
  "ρθ": 78,
  "διαδ": 78,
  "ευσεβη": 78,
  "οικονομιαν": 78,
  "##σμενος": 78,
  "ηλθε": 78,
  "μνησ": 78,
  "δουλοι": 78,
  "ρωμης": 78,
  "προδ": 78,
  "καταστασιν": 78,
  "πληρε": 78,
  "απολειφ": 78,
  "ηγουμενω": 78,
  "πεισαι": 78,
  "διδαξ": 78,
  "συλλαβων": 78,
  "μεθυσ": 78,
  "##υμων": 78,
  "προσθεσιν": 78,
  "διακρισιν": 78,
  "ληφθηναι": 78,
  "δωρεαν": 78,
  "παισι": 78,
  "φαντα": 78,
  "νοτος": 78,
  "περιε": 78,
  "εταιρων": 78,
  "αναγκαιαι": 78,
  "αποχωρ": 78,
  "##ησειεν": 78,
  "πτωσεις": 78,
  "αιρουμεθα": 78,
  "διδασκεται": 78,
  "γραμματικης": 78,
  "αστει": 78,
  "διαστηματα": 78,
  "θηριον": 78,
  "ωρμη": 78,
  "φαυλοις": 78,
  "αυξεσθαι": 78,
  "ακουσια": 78,
  "ενθουσι": 78,
  "##οειδους": 78,
  "αισθησεσιν": 78,
  "αισθητας": 78,
  "καταφασει": 78,
  "πολλαχη": 78,
  "ασυλλογιστον": 78,
  "χυμου": 78,
  "για": 77,
  "ζευγος": 77,
  "πρεσβυτερω": 77,
  "##ρωνος": 77,
  "εξε": 77,
  "φιλαγ": 77,
  "ανενεγ": 77,
  "θωμα": 77,
  "δοσ": 77,
  "ερυθρι": 77,
  "δεινων": 77,
  "ευλ": 77,
  "φασκειν": 77,
  "κομισασθαι": 77,
  "σχε": 77,
  "δεδωκε": 77,
  "##φανη": 77,
  "αντιγραφα": 77,
  "δειγμα": 77,
  "ρμδ": 77,
  "παπα": 77,
  "καινης": 77,
  "προεπ": 77,
  "δεδο": 77,
  "κατακολου": 77,
  "χρυσα": 77,
  "παρακαλων": 77,
  "στεφανον": 77,
  "επιτετα": 77,
  "πειραν": 77,
  "ντ": 77,
  "##σθεντων": 77,
  "δαιμονι": 77,
  "ξενης": 77,
  "##θεα": 77,
  "ιουλιον": 77,
  "##ημενος": 77,
  "##ευσαντος": 77,
  "μισθων": 77,
  "προσηκ": 77,
  "ψευσ": 77,
  "ειποντα": 77,
  "εται": 77,
  "##τησιν": 77,
  "εισοδου": 77,
  "ζει": 77,
  "##ραιπ": 77,
  "επιπλο": 77,
  "##χμ": 77,
  "επηρ": 77,
  "δεξιου": 77,
  "ζωντος": 77,
  "σουλ": 77,
  "ταξι": 77,
  "αγωνι": 77,
  "βιαι": 77,
  "##ηνη": 77,
  "γελωτα": 77,
  "υποτιθεται": 77,
  "χωλ": 77,
  "απαντος": 77,
  "οικοδομειν": 77,
  "χρησιμω": 77,
  "ανδριαντα": 77,
  "δεκαδα": 77,
  "προσεχων": 77,
  "ωφελεισθαι": 77,
  "συνεστηκε": 77,
  "ναπ": 77,
  "ημισεος": 77,
  "σπουδαιων": 77,
  "διαπλ": 77,
  "αντιλαμβανεται": 77,
  "συνετα": 77,
  "##ευουσι": 77,
  "επαινον": 77,
  "προτασεσι": 77,
  "λεξεων": 77,
  "##αττειν": 77,
  "αχθ": 77,
  "ρηθεντων": 77,
  "τεθεντος": 77,
  "δακν": 77,
  "κυκλων": 77,
  "ακινητος": 77,
  "αρχομενων": 77,
  "ουρη": 77,
  "απαγωγη": 77,
  "εφυ": 77,
  "ισχν": 77,
  "κακοι": 77,
  "ανυπαρ": 77,
  "ασωματων": 77,
  "ποιοτητι": 77,
  "##σειε": 77,
  "πραως": 77,
  "ορωσιν": 77,
  "##τομενοι": 77,
  "γιγνομενη": 77,
  "αρτιου": 77,
  "περιττω": 77,
  "διπλασιου": 77,
  "εγγιγνεται": 77,
  "αρτια": 77,
  "ανασκευαζειν": 77,
  "κινησεται": 77,
  "εγωγ": 77,
  "στρατιωτη": 76,
  "τιβ": 76,
  "υπαν": 76,
  "ευχρη": 76,
  "##ροσωπος": 76,
  "νεαν": 76,
  "##ηλι": 76,
  "φωσ": 76,
  "##αμι": 76,
  "αναδ": 76,
  "καταφρονειν": 76,
  "γραμμασι": 76,
  "θηβ": 76,
  "γενε": 76,
  "βοτ": 76,
  "γαστ": 76,
  "δρω": 76,
  "##ιναι": 76,
  "πλειν": 76,
  "πρεμ": 76,
  "φοινικος": 76,
  "απαθης": 76,
  "##ιζομενος": 76,
  "επηρε": 76,
  "κονι": 76,
  "##ισται": 76,
  "μεταβλη": 76,
  "κελευσιν": 76,
  "αφορμην": 76,
  "συντε": 76,
  "καταβαλλ": 76,
  "διαταξ": 76,
  "θεσμο": 76,
  "εζητ": 76,
  "##κομ": 76,
  "ενστα": 76,
  "##λιδος": 76,
  "ηρωδη": 76,
  "μαθε": 76,
  "βαθ": 76,
  "κορα": 76,
  "ιωαννην": 76,
  "επιστολη": 76,
  "##ροτερον": 76,
  "##λιμ": 76,
  "##θετο": 76,
  "προσκει": 76,
  "ωγ": 76,
  "συνηθων": 76,
  "εισβ": 76,
  "εμπυ": 76,
  "αργυρου": 76,
  "κεκοσμη": 76,
  "##τηριον": 76,
  "##δημου": 76,
  "σκιας": 76,
  "εγκ": 76,
  "καλλει": 76,
  "ευρισκομεν": 76,
  "ομοιο": 76,
  "##ινειν": 76,
  "σχεσις": 76,
  "αιτιους": 76,
  "##ριβ": 76,
  "προσεχε": 76,
  "ποσων": 76,
  "τεθ": 76,
  "##πλο": 76,
  "αργει": 76,
  "##τησθαι": 76,
  "δενδρα": 76,
  "##αρκ": 76,
  "σιτων": 76,
  "επιτυχ": 76,
  "τζ": 76,
  "θωρακα": 76,
  "αρτιως": 76,
  "##σουρ": 76,
  "πνιγ": 76,
  "αποκρινεται": 76,
  "ολυμπια": 76,
  "διδασκαλια": 76,
  "συμφερ": 76,
  "##ιστασθαι": 76,
  "παντοδαπ": 76,
  "τυχοντος": 76,
  "τεταχθαι": 76,
  "βαρυν": 76,
  "αρχιτεκτον": 76,
  "##ογισ": 76,
  "φερομενα": 76,
  "ωφελει": 76,
  "πλουσιος": 76,
  "πολεμειν": 76,
  "οσφραιν": 76,
  "αποτελειν": 76,
  "ποιητικην": 76,
  ">": 76,
  "συμφεροντος": 76,
  "επιτρι": 76,
  "γευσεως": 76,
  "φιλεισθαι": 76,
  "##στερα": 76,
  "επαινετον": 76,
  "τριγωνων": 76,
  "συνωνυμως": 76,
  "ιδοι": 76,
  "θαυμαζ": 76,
  "πασχουσιν": 76,
  "αορατον": 76,
  "ομοιομερη": 76,
  "τιθεις": 76,
  "ευπαθ": 76,
  "γενητον": 76,
  "διαφανη": 76,
  "εναντιωσεις": 76,
  "εσχατων": 76,
  "ασυλλογιστοι": 76,
  "ασυλλογιστος": 76,
  "παχυνεται": 76,
  "##αυτ": 75,
  "βοηθω": 75,
  "##εινον": 75,
  "ηδιστα": 75,
  "κατακ": 75,
  "ασω": 75,
  "κυαμου": 75,
  "οικοθεν": 75,
  "##τουν": 75,
  "συρα": 75,
  "παρηγ": 75,
  "ζητησαι": 75,
  "αιγυπτια": 75,
  "παραδεδω": 75,
  "παραβηναι": 75,
  "κατατα": 75,
  "δοθεντων": 75,
  "καμηλων": 75,
  "##πικ": 75,
  "αλκ": 75,
  "παραγενομενος": 75,
  "ταλη": 75,
  "ευορ": 75,
  "στρατιωταις": 75,
  "ποιησομαι": 75,
  "εμαθον": 75,
  "μεδ": 75,
  "##μησαι": 75,
  "##δεχ": 75,
  "καταγιν": 75,
  "περικ": 75,
  "κεραμει": 75,
  "##εση": 75,
  "ωμην": 75,
  "##κυιαν": 75,
  "επιδοσιν": 75,
  "##νουν": 75,
  "εντετ": 75,
  "##τησεν": 75,
  "##ειτων": 75,
  "##κρατους": 75,
  "θεοδωρα": 75,
  "##λευ": 75,
  "δεξι": 75,
  "##μικ": 75,
  "χολ": 75,
  "διδυμων": 75,
  "ληγ": 75,
  "αναλαμβαν": 75,
  "ανηγ": 75,
  "συναρμο": 75,
  "συγ": 75,
  "σκαπ": 75,
  "##ωμενη": 75,
  "χιλια": 75,
  "επιτρεψ": 75,
  "τετραποδων": 75,
  "ευτυχιαν": 75,
  "πικρα": 75,
  "##ευουσιν": 75,
  "##θησομεν": 75,
  "κεκτη": 75,
  "τεταγμενον": 75,
  "##αυσ": 75,
  "##ασθη": 75,
  "ενιαυτω": 75,
  "##χειου": 75,
  "υποκατω": 75,
  "ελευθεριαν": 75,
  "οικετων": 75,
  "εισαγωγ": 75,
  "αυγου": 75,
  "προσπεφ": 75,
  "ειρημενης": 75,
  "πολιτικου": 75,
  "χωρια": 75,
  "προβαλλ": 75,
  "προειρημενω": 75,
  "##δρω": 75,
  "ασωματου": 75,
  "πορευεσθαι": 75,
  "κεκτημενος": 75,
  "υγρ": 75,
  "ειμαρμενη": 75,
  "εγκεκ": 75,
  "οργανω": 75,
  "αφορισ": 75,
  "φανηναι": 75,
  "ωρισθαι": 75,
  "επαινει": 75,
  "αλγ": 75,
  "αναρ": 75,
  "χαιρων": 75,
  "##αινομενον": 75,
  "μηκει": 75,
  "συνιεναι": 75,
  "μαθημασιν": 75,
  "εοικεναι": 75,
  "κατηγορει": 75,
  "υποστασις": 75,
  "μορφ": 75,
  "χροας": 75,
  "φαυλους": 75,
  "εμψυχου": 75,
  "λακεδαιμονιοι": 75,
  "φθειρει": 75,
  "αποκτειν": 75,
  "αιδιων": 75,
  "υγρας": 75,
  "πλουσιων": 75,
  "ψευδεται": 75,
  "παμπολυ": 75,
  "αρτιοι": 75,
  "θερμοτητι": 75,
  "τοσονδε": 75,
  "γελαστικον": 75,
  "εξαυτ": 74,
  "##κολ": 74,
  "βδ": 74,
  "κειν": 74,
  "κολασ": 74,
  "ποδω": 74,
  "δοθεν": 74,
  "φιλοξενος": 74,
  "συνηλ": 74,
  "##ωντος": 74,
  "γεγραφ": 74,
  "κονια": 74,
  "διαθεσει": 74,
  "αγαθ": 74,
  "παραφυλακ": 74,
  "πν": 74,
  "τιμοθεου": 74,
  "στεφανω": 74,
  "συνεσιν": 74,
  "γελασ": 74,
  "##ηθεντος": 74,
  "νυσ": 74,
  "βοταν": 74,
  "πλεονα": 74,
  "ριον": 74,
  "παντοκρατορα": 74,
  "θεοφ": 74,
  "απουσια": 74,
  "##δοχ": 74,
  "ενεβ": 74,
  "στεγη": 74,
  "ηθει": 74,
  "συναιν": 74,
  "σιδηρω": 74,
  "αννα": 74,
  "τιβεριος": 74,
  "εσχα": 74,
  "##ψαντες": 74,
  "αδιαιρετων": 74,
  "##ληθ": 74,
  "##ανε": 74,
  "καθηκοντων": 74,
  "επελθ": 74,
  "καμαρ": 74,
  "παμπολλα": 74,
  "υπαρχουσιν": 74,
  "ηδικη": 74,
  "διαπεφ": 74,
  "διακειμενον": 74,
  "νομιμων": 74,
  "##αγον": 74,
  "διομ": 74,
  "πληγαις": 74,
  "ειδειη": 74,
  "##αζοντες": 74,
  "ιδικως": 74,
  "φθονον": 74,
  "καλουμενα": 74,
  "απεδωκεν": 74,
  "δυναμενη": 74,
  "##αξι": 74,
  "μετρια": 74,
  "παρεσκευ": 74,
  "κατεχει": 74,
  "ανεθ": 74,
  "ηρακλεα": 74,
  "##εστεροι": 74,
  "δρομον": 74,
  "λαμβανοντα": 74,
  "υπερο": 74,
  "##τωσιν": 74,
  "##αγκα": 74,
  "ξενους": 74,
  "απασαι": 74,
  "εμελλεν": 74,
  "τελευτων": 74,
  "απασαις": 74,
  "οφθαλμου": 74,
  "ορθου": 74,
  "μεγαλοψυχ": 74,
  "εαρ": 74,
  "αφορμας": 74,
  "δεομενα": 74,
  "συναυξ": 74,
  "περιφερειας": 74,
  "προιεναι": 74,
  "πολιται": 74,
  "θεασ": 74,
  "##ζετο": 74,
  "τιμαιω": 74,
  "προστιθεται": 74,
  "ευεξιαν": 74,
  "λεγοιμεν": 74,
  "##ξεται": 74,
  "εφιεσθαι": 74,
  "νοσοις": 74,
  "αντιληψιν": 74,
  "σοφοις": 74,
  "πεφυκοτα": 74,
  "αντικειμενου": 74,
  "διαστασιν": 74,
  "διαμετρου": 74,
  "ακολασιαν": 74,
  "ανθρωπινης": 74,
  "δοκουσα": 74,
  "συγγενειαν": 74,
  "οιους": 74,
  "κακιαι": 74,
  "υπολαμβανουσιν": 74,
  "πραξεσι": 74,
  "κατορθουν": 74,
  "ελλειπει": 74,
  "εκαλουν": 74,
  "συλλογιζεται": 74,
  "εμφαινεται": 74,
  "ψυχρω": 74,
  "συνουσια": 74,
  "παθηματα": 74,
  "εμψυχος": 74,
  "ειληφθω": 74,
  "εξατμι": 74,
  "επιεικως": 74,
  "αρτεμιδωρος": 73,
  "μεταλλ": 73,
  "##βον": 73,
  "##οδωρον": 73,
  "αρει": 73,
  "αντιβ": 73,
  "ομολογουντες": 73,
  "κυαμ": 73,
  "προστεταγ": 73,
  "πορω": 73,
  "θηρα": 73,
  "εμος": 73,
  "χλο": 73,
  "ομοουσιου": 73,
  "καλουμενω": 73,
  "επικει": 73,
  "προβατ": 73,
  "κωνστ": 73,
  "##υιας": 73,
  "##ρωτο": 73,
  "##κατε": 73,
  "καρν": 73,
  "δρε": 73,
  "παρεστη": 73,
  "σαυτω": 73,
  "επιτρεπειν": 73,
  "ακολου": 73,
  "λεοντα": 73,
  "πατρικης": 73,
  "απω": 73,
  "θειν": 73,
  "πιστευσ": 73,
  "##ιστων": 73,
  "κειμενην": 73,
  "βομ": 73,
  "κασσι": 73,
  "συμποσιον": 73,
  "γονης": 73,
  "κυτ": 73,
  "αποφην": 73,
  "μετασχειν": 73,
  "λαχανων": 73,
  "##ωσε": 73,
  "##αζεσθαι": 73,
  "ασχημον": 73,
  "εξουσιν": 73,
  "κινδυνος": 73,
  "ημερησι": 73,
  "εαυτας": 73,
  "απεδοθη": 73,
  "##ευσαν": 73,
  "ληρ": 73,
  "χαρας": 73,
  "εζη": 73,
  "υποθεμενος": 73,
  "λεοντιου": 73,
  "##σβ": 73,
  "φατε": 73,
  "παρακαλ": 73,
  "ιπποκο": 73,
  "επισκεψιν": 73,
  "##ευομεν": 73,
  "ημερου": 73,
  "επινο": 73,
  "πλατει": 73,
  "##κτικον": 73,
  "εμμενειν": 73,
  "ροπην": 73,
  "κριου": 73,
  "τομη": 73,
  "επιτειν": 73,
  "ποιησαντες": 73,
  "πεπον": 73,
  "κυνι": 73,
  "κεκινη": 73,
  "ζητουσιν": 73,
  "λαχης": 73,
  "συμμει": 73,
  "ανθος": 73,
  "ανεπιστ": 73,
  "λεληθεν": 73,
  "ηξει": 73,
  "λυεται": 73,
  "ανισα": 73,
  "τρεφει": 73,
  "τεκτονικη": 73,
  "περιφορα": 73,
  "αφροσυνης": 73,
  "οριζομενοι": 73,
  "διαλεκτικης": 73,
  "φωνων": 73,
  "αφαιρεσεως": 73,
  "συνουσιαν": 73,
  "φλοξ": 73,
  "μορφας": 73,
  "δεος": 73,
  "πεπερασ": 73,
  "θεραπεια": 73,
  "βλαπτει": 73,
  "τιθεμενος": 73,
  "αισθητικης": 73,
  "παρρησια": 73,
  "φθον": 73,
  "επιθυμιαι": 73,
  "ευεξιας": 73,
  "περιφορας": 73,
  "ερρηθη": 73,
  "πολυπο": 73,
  "καταφασεις": 73,
  "κειμενοις": 73,
  "ασυλλογ": 73,
  "καταφασ": 73,
  "αξιωματων": 73,
  "αλλοιουται": 73,
  "αρκτον": 73,
  "##τατ": 72,
  "σχισ": 72,
  "σερα": 72,
  "δεκαν": 72,
  "##υμου": 72,
  "##νιω": 72,
  "χρηστ": 72,
  "δωσομεν": 72,
  "##ηνεγ": 72,
  "παρμενι": 72,
  "##στρα": 72,
  "σωκρα": 72,
  "συρια": 72,
  "φροντιδα": 72,
  "κομα": 72,
  "θρασ": 72,
  "##ευτη": 72,
  "##θυμ": 72,
  "χιτωνα": 72,
  "##θρωπ": 72,
  "επελθη": 72,
  "σχολασ": 72,
  "αντεχ": 72,
  "ωραι": 72,
  "ηγεμονιαν": 72,
  "ηραν": 72,
  "εξουσι": 72,
  "επελθων": 72,
  "μυρ": 72,
  "εκβαλλ": 72,
  "##εωσ": 72,
  "ευρισκ": 72,
  "πειρασομαι": 72,
  "##ξω": 72,
  "παραδεξ": 72,
  "καταλε": 72,
  "παραδεισου": 72,
  "##στας": 72,
  "αφιε": 72,
  "εμποδιον": 72,
  "##ευσας": 72,
  "παραδειγματι": 72,
  "υπεγραψα": 72,
  "συντελειν": 72,
  "προσελθ": 72,
  "εκελευσε": 72,
  "γενομενοις": 72,
  "χρησιμ": 72,
  "ευθε": 72,
  "ανελειν": 72,
  "##χειν": 72,
  "μεθυ": 72,
  "διελθον": 72,
  "διδοσθαι": 72,
  "##ηλα": 72,
  "##χαν": 72,
  "στρατηγοις": 72,
  "εμποδων": 72,
  "##σθεντος": 72,
  "ανεωγ": 72,
  "αθη": 72,
  "επρα": 72,
  "χαρμι": 72,
  "εκθ": 72,
  "γαστρι": 72,
  "δυσμων": 72,
  "περιειλ": 72,
  "##ρησει": 72,
  "απαρα": 72,
  "ανεμ": 72,
  "ποταμους": 72,
  "ημετερος": 72,
  "προστεθεν": 72,
  "πορε": 72,
  "δεσποζειν": 72,
  "##ρωσ": 72,
  "προσθη": 72,
  "φερομενος": 72,
  "τυραννιδα": 72,
  "μεγιστας": 72,
  "επεχειν": 72,
  "ευρησεις": 72,
  "##χεσθαι": 72,
  "##θεναι": 72,
  "αργον": 72,
  "οποιαν": 72,
  "εμελλον": 72,
  "γιγνομενην": 72,
  "παγχ": 72,
  "μενουσα": 72,
  "ρηματα": 72,
  "αθηναιοις": 72,
  "παρεισ": 72,
  "##ροτητος": 72,
  "διαμεν": 72,
  "##ωτερα": 72,
  "εναργη": 72,
  "αιρουνται": 72,
  "ερμηνειας": 72,
  "πειρωνται": 72,
  "εμπιπτ": 72,
  "οσμων": 72,
  "καλεις": 72,
  "κακιων": 72,
  "ηττω": 72,
  "κριναι": 72,
  "γλισχ": 72,
  "εχθρον": 72,
  "πλειστη": 72,
  "σκοπος": 72,
  "παρεκβ": 72,
  "μαλακια": 72,
  "φανερος": 72,
  "μεταβαλλοντα": 72,
  "δημοκρατιας": 72,
  "δυναιτ": 72,
  "αισθητικην": 72,
  "ατομω": 72,
  "προσδιαλεγ": 72,
  "εκλειπει": 72,
  "κινουντα": 72,
  "ελλησιν": 72,
  "πορφυρ": 71,
  "##τηρι": 71,
  "γδ": 71,
  "ετου": 71,
  "επεν": 71,
  "αλεξανδρον": 71,
  "ημελη": 71,
  "απολαβη": 71,
  "προσφερ": 71,
  "τοιου": 71,
  "γελ": 71,
  "μενεκ": 71,
  "ανασ": 71,
  "μαιου": 71,
  "δεσποτειαν": 71,
  "σοις": 71,
  "αρισ": 71,
  "αθηναι": 71,
  "ρωμαι": 71,
  "##αλη": 71,
  "##ορει": 71,
  "αποκαθ": 71,
  "λελ": 71,
  "ευτακ": 71,
  "##πως": 71,
  "ειση": 71,
  "##ωρη": 71,
  "συσ": 71,
  "##ασε": 71,
  "ερεβιν": 71,
  "επιβολης": 71,
  "παλαιας": 71,
  "εγκαλε": 71,
  "εξαιρετον": 71,
  "##ξεις": 71,
  "χουν": 71,
  "λισ": 71,
  "ιερεια": 71,
  "επεγ": 71,
  "αχθε": 71,
  "διαλ": 71,
  "ανδρεας": 71,
  "θεοδωρον": 71,
  "ανακομι": 71,
  "υπερφ": 71,
  "οχ": 71,
  "ειδοτας": 71,
  "προμ": 71,
  "τοσαυτας": 71,
  "αρρενι": 71,
  "δεξαμενος": 71,
  "αγωνος": 71,
  "περιουσιας": 71,
  "εδηλ": 71,
  "αβελ": 71,
  "παραπ": 71,
  "##υων": 71,
  "μιμησιν": 71,
  "επιπε": 71,
  "καθεστα": 71,
  "παραθε": 71,
  "τροχ": 71,
  "ενθε": 71,
  "οιο": 71,
  "διαστελλ": 71,
  "παφ": 71,
  "απειληφ": 71,
  "καυμα": 71,
  "αιρεσει": 71,
  "πιλ": 71,
  "διακοπ": 71,
  "σκορ": 71,
  "πλουτειν": 71,
  "αψασθαι": 71,
  "αγωνας": 71,
  "ειωθεν": 71,
  "υπεμν": 71,
  "##ευσιν": 71,
  "ποτων": 71,
  "##τομενος": 71,
  "ποιουντι": 71,
  "δερματος": 71,
  "στεν": 71,
  "ιατροις": 71,
  "χερσιν": 71,
  "τομην": 71,
  "χωριστ": 71,
  "ειδησιν": 71,
  "ποδες": 71,
  "πραττοντες": 71,
  "αμαθια": 71,
  "ελλιπ": 71,
  "φερουσιν": 71,
  "φοβερα": 71,
  "ακουοντας": 71,
  "##ρωμενος": 71,
  "μεταβολαι": 71,
  "ανθρωπινην": 71,
  "ψευδει": 71,
  "εκκαλυπ": 71,
  "αδιαιρετος": 71,
  "λογικω": 71,
  "ιατρευ": 71,
  "σχεσει": 71,
  "υπερεχειν": 71,
  "γιγνωσκει": 71,
  "ηθικα": 71,
  "υπερβαλλει": 71,
  "αιτιαται": 71,
  "γλωττης": 71,
  "επιστητα": 71,
  "δεικτικον": 71,
  "ψυχροτης": 71,
  "ομοιοτης": 71,
  "αντιστραφ": 71,
  "δεικτικως": 71,
  "διηθ": 71,
  "ιριδος": 71,
  "##οπα": 70,
  "##ιζ": 70,
  "##ρατος": 70,
  "καταγραφη": 70,
  "φιλιππ": 70,
  "θυραις": 70,
  "κωφ": 70,
  "ανεξ": 70,
  "ζαχαρια": 70,
  "ηθελησεν": 70,
  "εισοδω": 70,
  "ραστα": 70,
  "##ιτην": 70,
  "προιε": 70,
  "αθηναιος": 70,
  "αντιοχου": 70,
  "αιν": 70,
  "στρατι": 70,
  "αποδε": 70,
  "μετρησαι": 70,
  "ψιλον": 70,
  "ωξ": 70,
  "ανεγ": 70,
  "προκοπ": 70,
  "αθυμ": 70,
  "αδιαιρετα": 70,
  "λυπων": 70,
  "υπερω": 70,
  "##πιν": 70,
  "##ασης": 70,
  "##φαγ": 70,
  "βουλομενων": 70,
  "##αχω": 70,
  "σπαθ": 70,
  "##ακα": 70,
  "αρμοττ": 70,
  "σιω": 70,
  "ευγενειας": 70,
  "παρεχοντος": 70,
  "δοσεως": 70,
  "πρεσβυτεροι": 70,
  "εμφυ": 70,
  "αμπελον": 70,
  "τροφων": 70,
  "##οτατοι": 70,
  "πυθω": 70,
  "##εη": 70,
  "##ημενου": 70,
  "παραστησαι": 70,
  "εσομενης": 70,
  "##εγεν": 70,
  "κελευω": 70,
  "κεφαλαιων": 70,
  "εμοις": 70,
  "ποιησεται": 70,
  "χρονωι": 70,
  "υβριζ": 70,
  "ανατολων": 70,
  "ορθος": 70,
  "##ησουσιν": 70,
  "γερων": 70,
  "ολας": 70,
  "λυγ": 70,
  "ευχαριστ": 70,
  "ορια": 70,
  "αφικ": 70,
  "##δως": 70,
  "##καπ": 70,
  "ιουστιν": 70,
  "επηγαγεν": 70,
  "##οος": 70,
  "διαπον": 70,
  "γεωργιαν": 70,
  "φοβερον": 70,
  "δικασται": 70,
  "νοση": 70,
  "υγιαινει": 70,
  "τριχ": 70,
  "πηγη": 70,
  "##ροτα": 70,
  "χρησεται": 70,
  "##οιμι": 70,
  "παραφ": 70,
  "##αττ": 70,
  "λεχθεντων": 70,
  "κερατα": 70,
  "περατι": 70,
  "αφαιρεισθαι": 70,
  "λεγομεναι": 70,
  "##οφαγ": 70,
  "ιϛʹ": 70,
  "αισθ": 70,
  "περιξ": 70,
  "καθαιρ": 70,
  "μηκη": 70,
  "αφαιρεσιν": 70,
  "μηκωνος": 70,
  "αφικνειται": 70,
  "απιστον": 70,
  "εξαιρ": 70,
  "αδηλος": 70,
  "αγνοουντες": 70,
  "ελλησι": 70,
  "οποτερα": 70,
  "στιγμην": 70,
  "μεθης": 70,
  "ζωντων": 70,
  "ορεξεως": 70,
  "φαντασιων": 70,
  "πηρω": 70,
  "αποκριναι": 70,
  "##οτητες": 70,
  "προιων": 70,
  "υπολαμβανει": 70,
  "οικειοτερον": 70,
  "τελειοτητα": 70,
  "εοικασιν": 70,
  "πραττουσι": 70,
  "φθοραι": 70,
  "αρεταις": 70,
  "αποφαινεσθαι": 70,
  "ενθενδε": 70,
  "συνεχειαν": 70,
  "φαιον": 70,
  "εκειναις": 70,
  "κατηγορηθησεται": 70,
  "εναντιοτης": 70,
  "αντιφατικως": 70,
  "κοιλον": 70,
  "συμβουλευειν": 70,
  "αθηναιους": 70,
  "πηγνυσθαι": 70,
  "θερμος": 70,
  "ειληφ": 69,
  "λεπτα": 69,
  "##οτη": 69,
  "κατεπ": 69,
  "ασθενειας": 69,
  "αναλαβ": 69,
  "ελατ": 69,
  "μαρτυρες": 69,
  "επιπορευ": 69,
  "εξοδω": 69,
  "ομοσ": 69,
  "ραδι": 69,
  "μητρω": 69,
  "εξοι": 69,
  "απολιναριου": 69,
  "διηγ": 69,
  "απεστειλα": 69,
  "λελογ": 69,
  "ψιλα": 69,
  "πριαμενος": 69,
  "##ιζοντες": 69,
  "πραιποσιτω": 69,
  "αυτοκρατορ": 69,
  "##αζ": 69,
  "πυνθαν": 69,
  "μεγιστω": 69,
  "εργασασθαι": 69,
  "συνηθες": 69,
  "λαβης": 69,
  "ετελ": 69,
  "δηλουμενον": 69,
  "##υξ": 69,
  "προθεσμιας": 69,
  "παραμον": 69,
  "επιστασαι": 69,
  "δυναμενω": 69,
  "επεκ": 69,
  "τετελευτηκοτος": 69,
  "υποτετακται": 69,
  "ξηρ": 69,
  "κεφαλας": 69,
  "εδαφος": 69,
  "απλου": 69,
  "τεκνον": 69,
  "ιστε": 69,
  "κυνες": 69,
  "ερεις": 69,
  "απενεγ": 69,
  "αμει": 69,
  "λυκων": 69,
  "επιπλη": 69,
  "##στους": 69,
  "τεταγμενα": 69,
  "πεπεισ": 69,
  "χειμωνι": 69,
  "ουγ": 69,
  "δειπν": 69,
  "γεωργον": 69,
  "μανθανω": 69,
  "υποθεμενοι": 69,
  "προελ": 69,
  "κινδυνευειν": 69,
  "υπεδ": 69,
  "##οτατης": 69,
  "ανατε": 69,
  "επεδωκα": 69,
  "καταμαθειν": 69,
  "πανσ": 69,
  "επεχει": 69,
  "ομοιοις": 69,
  "συνεχον": 69,
  "προσθεσεως": 69,
  "κοιναι": 69,
  "τοιγαρουν": 69,
  "παρμενιδης": 69,
  "αυλον": 69,
  "ταραχης": 69,
  "αιδω": 69,
  "ησυχια": 69,
  "αδικηματων": 69,
  "δικαιοι": 69,
  "κτειν": 69,
  "δογματος": 69,
  "κεχωρισται": 69,
  "πολυχ": 69,
  "δικαστηριοις": 69,
  "φερονται": 69,
  "αριστους": 69,
  "καχεξ": 69,
  "δοκουντες": 69,
  "επικουρου": 69,
  "χαιρουσιν": 69,
  "##εροι": 69,
  "εξεργ": 69,
  "βλεπει": 69,
  "ευρησομεν": 69,
  "εγγιν": 69,
  "ψυχος": 69,
  "πυρετ": 69,
  "σκοπωμεν": 69,
  "εοικασι": 69,
  "τελειοι": 69,
  "δειξαντες": 69,
  "συστελλ": 69,
  "συνθετος": 69,
  "ενδεικνυται": 69,
  "προεισιν": 69,
  "ακαταληπ": 69,
  "ενθυμημα": 69,
  "διαφεροντες": 69,
  "φθεγγ": 69,
  "διεζευγ": 69,
  "δοκουμεν": 69,
  "ατομους": 69,
  "κοσμο": 69,
  "φοβους": 69,
  "σημαντικον": 69,
  "ονομαζουσιν": 69,
  "ορισασθαι": 69,
  "λυπηρα": 69,
  "προσδειται": 69,
  "κρειττους": 69,
  "συγκεχυ": 69,
  "θεωρητεον": 69,
  "εναντιωσις": 69,
  "νοσηματα": 69,
  "ομωνυμων": 69,
  "προειρηκαμεν": 69,
  "ισοτης": 69,
  "αρτηρια": 69,
  "κινουμενος": 69,
  "ογκου": 69,
  "ιρις": 69,
  "νεφων": 69,
  "κατηγοριαι": 69,
  "ωρισατο": 69,
  "##οιμην": 69,
  "##σιπ": 68,
  "ηα": 68,
  "διδυμον": 68,
  "δωρον": 68,
  "##ουσε": 68,
  "απαιτειν": 68,
  "##ασις": 68,
  "αναπεμψ": 68,
  "υπογραφη": 68,
  "ανθρω": 68,
  "κυρηναι": 68,
  "##πιαι": 68,
  "διατεταγ": 68,
  "##στιν": 68,
  "καταγειν": 68,
  "μαλακα": 68,
  "ακρου": 68,
  "αμμα": 68,
  "παρακομι": 68,
  "ποιουμαι": 68,
  "ανεψ": 68,
  "βαρβαρ": 68,
  "βουλην": 68,
  "αποχης": 68,
  "κατεν": 68,
  "γεωργια": 68,
  "ποταμος": 68,
  "καλουμενης": 68,
  "υπομνηματα": 68,
  "##ακων": 68,
  "οφθαλμω": 68,
  "ψηφισμα": 68,
  "παναρ": 68,
  "τροπ": 68,
  "φροντιζειν": 68,
  "θερει": 68,
  "συνθ": 68,
  "πτη": 68,
  "##ηθεν": 68,
  "##ξυ": 68,
  "##ιξ": 68,
  "διτ": 68,
  "##ηλυ": 68,
  "ταγην": 68,
  "μωρος": 68,
  "λυμ": 68,
  "κηπ": 68,
  "θηλειας": 68,
  "ιππε": 68,
  "υσ": 68,
  "υπομ": 68,
  "τετελει": 68,
  "δρυ": 68,
  "επιβολην": 68,
  "παραλαμβαν": 68,
  "καινα": 68,
  "συγχωρησει": 68,
  "προσην": 68,
  "πρασσειν": 68,
  "χιλιων": 68,
  "ευχας": 68,
  "θησομεν": 68,
  "ροη": 68,
  "σιμωνι": 68,
  "αντιρ": 68,
  "νομιζομεν": 68,
  "τοσαυτης": 68,
  "αποστερ": 68,
  "ωμοι": 68,
  "αιρεσεις": 68,
  "μελισσ": 68,
  "εξεπ": 68,
  "νομης": 68,
  "απωσ": 68,
  "εποιειτο": 68,
  "θρεπ": 68,
  "αναθε": 68,
  "υπαγ": 68,
  "διονυσον": 68,
  "εσπουδακ": 68,
  "##στατον": 68,
  "δυσωπ": 68,
  "βλα": 68,
  "σοφιστων": 68,
  "πολυμ": 68,
  "ικανοι": 68,
  "ξυλου": 68,
  "θειος": 68,
  "χρυσιππον": 68,
  "πασχοντα": 68,
  "γερας": 68,
  "φαρμακα": 68,
  "μουσων": 68,
  "βασιλεια": 68,
  "ακαδημ": 68,
  "αδηλ": 68,
  "φιλοσοφους": 68,
  "ποιηταις": 68,
  "δεχομενον": 68,
  "##ιγνωσ": 68,
  "θνητων": 68,
  "σοφισται": 68,
  "αποδεικνυναι": 68,
  "φαντασιαις": 68,
  "ωφελειαν": 68,
  "αλλοτριου": 68,
  "ενεργουντα": 68,
  "πραττεται": 68,
  "αντιδιηρη": 68,
  "μειρακιον": 68,
  "θερμοτερον": 68,
  "αιτιοις": 68,
  "κεκοινων": 68,
  "πυκνω": 68,
  "κουφοτητα": 68,
  "αισθητικου": 68,
  "μεταληψις": 68,
  "επιτροπον": 67,
  "ιασων": 67,
  "κενε": 67,
  "βλη": 67,
  "##υκε": 67,
  "μαρκον": 67,
  "##ογραφον": 67,
  "δεοντι": 67,
  "αναστασιου": 67,
  "οικε": 67,
  "σος": 67,
  "##ρατους": 67,
  "θεοφυλακ": 67,
  "δολου": 67,
  "συναρπ": 67,
  "δαμιαν": 67,
  "παρακελευ": 67,
  "τυγχανων": 67,
  "προχειρον": 67,
  "σχη": 67,
  "##φιν": 67,
  "παυσει": 67,
  "θηλεα": 67,
  "εμβαλ": 67,
  "επιλαβ": 67,
  "πυρρι": 67,
  "νιτ": 67,
  "προτερ": 67,
  "δικαιολογ": 67,
  "##ληψ": 67,
  "βουληθειη": 67,
  "##κυλι": 67,
  "γνους": 67,
  "##τησαν": 67,
  "εναντιος": 67,
  "##δωκεν": 67,
  "##ουμενας": 67,
  "##τουσα": 67,
  "##ρηματι": 67,
  "νυ": 67,
  "##ζομενης": 67,
  "παρουσιαν": 67,
  "ερωτησ": 67,
  "##ελου": 67,
  "μελλομεν": 67,
  "οικονομος": 67,
  "αναδεχεσθαι": 67,
  "αφροδιτη": 67,
  "##θες": 67,
  "ισχυραν": 67,
  "τιμαι": 67,
  "##ιδες": 67,
  "απογεν": 67,
  "απων": 67,
  "καμπ": 67,
  "δρυμου": 67,
  "σκαφη": 67,
  "φαγειν": 67,
  "συγγραφη": 67,
  "πιστεις": 67,
  "##δεν": 67,
  "##αινοντα": 67,
  "δουλους": 67,
  "##τεν": 67,
  "##ωμενης": 67,
  "παρεμπ": 67,
  "αγεν": 67,
  "εθεντο": 67,
  "ωρων": 67,
  "νουμην": 67,
  "##ρουμεν": 67,
  "δεσποτειας": 67,
  "επειγ": 67,
  "ατεκν": 67,
  "απροσ": 67,
  "εσθητος": 67,
  "ειρημενω": 67,
  "εμβαλλ": 67,
  "κλεπτ": 67,
  "καταβεβλη": 67,
  "##ροφ": 67,
  "ηδυν": 67,
  "συστασει": 67,
  "##τομενου": 67,
  "δοξ": 67,
  "τελευταν": 67,
  "βασαν": 67,
  "##ασεν": 67,
  "##αστα": 67,
  "σφαιρ": 67,
  "κυνηγ": 67,
  "##ευε": 67,
  "ιφ": 67,
  "υφιστα": 67,
  "ζωντες": 67,
  "δοιη": 67,
  "ιʹ": 67,
  "εθνων": 67,
  "συναι": 67,
  "θιγγ": 67,
  "εισεται": 67,
  "πεφυκοτος": 67,
  "αμαθ": 67,
  "ελπιδος": 67,
  "δυνατοι": 67,
  "ιδοντες": 67,
  "σκληρα": 67,
  "υποκειμενοις": 67,
  "μεταδιω": 67,
  "εγκρατειαν": 67,
  "μανθανει": 67,
  "θεωρεισθαι": 67,
  "διαιτα": 67,
  "στοιχειου": 67,
  "αιδους": 67,
  "δεικνυουσιν": 67,
  "νομοθετ": 67,
  "χαλεπω": 67,
  "διορισμου": 67,
  "υπολαβοι": 67,
  "δαιμονιον": 67,
  "δεικνυντα": 67,
  "ασυμμετ": 67,
  "επιεικεις": 67,
  "φθαρτων": 67,
  "αποδιδοται": 67,
  "μηδαμη": 67,
  "απτον": 67,
  "απλανων": 67,
  "αισθησεσι": 67,
  "ακινητοι": 67,
  "βαδιζει": 67,
  "χιονος": 67,
  "ελλαμ": 67,
  "σφων": 67,
  "φοινικι": 66,
  "ιλη": 66,
  "##αζε": 66,
  "##τηρες": 66,
  "σχοινια": 66,
  "ανετ": 66,
  "νικιας": 66,
  "ευημεριας": 66,
  "##ακου": 66,
  "εχετω": 66,
  "γραμματος": 66,
  "αριστωνος": 66,
  "μαρτυρη": 66,
  "παρεσχον": 66,
  "##βης": 66,
  "εβουληθη": 66,
  "θευ": 66,
  "μεταγ": 66,
  "μηνυσ": 66,
  "ελευθερος": 66,
  "επιμελως": 66,
  "οσους": 66,
  "πληθη": 66,
  "##ιλον": 66,
  "αποδεδειγ": 66,
  "ιματιου": 66,
  "εκστ": 66,
  "ποσειδωνιος": 66,
  "σαγ": 66,
  "προχωρ": 66,
  "##ρικης": 66,
  "συναλλ": 66,
  "##ωμενην": 66,
  "γενησονται": 66,
  "εκχυ": 66,
  "καρτερ": 66,
  "##εχθη": 66,
  "προσαγορευειν": 66,
  "##οτε": 66,
  "προεκ": 66,
  "προαπο": 66,
  "##o": 66,
  "θεμενος": 66,
  "βλαστ": 66,
  "διην": 66,
  "##τεια": 66,
  "ερειν": 66,
  "##αζον": 66,
  "##κακ": 66,
  "πατρικιου": 66,
  "προσοδον": 66,
  "διφ": 66,
  "πελω": 66,
  "##εραν": 66,
  "απολαμβαν": 66,
  "κιρ": 66,
  "δικαστηριου": 66,
  "φιλανθρωπον": 66,
  "βεβαιουν": 66,
  "##αγειν": 66,
  "##ευγ": 66,
  "χρειαις": 66,
  "ομμα": 66,
  "αιρησ": 66,
  "καθεστ": 66,
  "πληρωσαι": 66,
  "αραβιας": 66,
  "##ττον": 66,
  "πιον": 66,
  "διαγων": 66,
  "ευφημ": 66,
  "##δεστα": 66,
  "διωκει": 66,
  "αγνοουμεν": 66,
  "υποπο": 66,
  "αυλου": 66,
  "κρινομεν": 66,
  "ρητορες": 66,
  "φιλολογ": 66,
  "συνοδον": 66,
  "προσδεχ": 66,
  "ζημιω": 66,
  "ορνιθες": 66,
  "νηι": 66,
  "##νημον": 66,
  "##τοσι": 66,
  "##ουσαις": 66,
  "##οτερους": 66,
  "απεφ": 66,
  "ευτυχια": 66,
  "πνευματ": 66,
  "περιγραφ": 66,
  "βουλομενου": 66,
  "κρινεται": 66,
  "σοφιστης": 66,
  "ταραχην": 66,
  "ισασι": 66,
  "σκεψασθαι": 66,
  "ζωντας": 66,
  "ουρον": 66,
  "ευηθες": 66,
  "απαρχ": 66,
  "συγκεκ": 66,
  "ατελε": 66,
  "τυραννιδος": 66,
  "ληφθεν": 66,
  "λευκων": 66,
  "σπουδαιου": 66,
  "αλογοις": 66,
  "μυθολογ": 66,
  "στοιχειω": 66,
  "##τοτερα": 66,
  "τριγωνα": 66,
  "λυραν": 66,
  "ονειδι": 66,
  "κακους": 66,
  "εμφρον": 66,
  "βλαβερον": 66,
  "εφθαρ": 66,
  "μεθο": 66,
  "ενδεες": 66,
  "συμμετρος": 66,
  "ακρασιαν": 66,
  "αισθανονται": 66,
  "δυναμεσι": 66,
  "στασεις": 66,
  "τελευτα": 66,
  "ορθοτατα": 66,
  "νεανι": 66,
  "κεβης": 66,
  "πινακι": 65,
  "φαμι": 65,
  "##νεν": 65,
  "##υλον": 65,
  "φοινιξ": 65,
  "χρησι": 65,
  "τρικ": 65,
  "χρηστα": 65,
  "γυρ": 65,
  "εκτεθ": 65,
  "βοηθος": 65,
  "διαθηκης": 65,
  "καταλαβ": 65,
  "##ετης": 65,
  "αποθε": 65,
  "εμφερ": 65,
  "εσημ": 65,
  "πτυ": 65,
  "σχιζ": 65,
  "μηλω": 65,
  "δεξιαν": 65,
  "θεοκ": 65,
  "χωματος": 65,
  "εκμ": 65,
  "υποδ": 65,
  "##υσας": 65,
  "συνε": 65,
  "βαυ": 65,
  "αντιπατρου": 65,
  "δωρ": 65,
  "συνταξας": 65,
  "τετρακισχιλι": 65,
  "##σθωσαν": 65,
  "συντετα": 65,
  "λωτ": 65,
  "ερημον": 65,
  "γοητ": 65,
  "συνην": 65,
  "διχο": 65,
  "επιστειλαι": 65,
  "κατεσ": 65,
  "λυσαι": 65,
  "προτι": 65,
  "τελειων": 65,
  "αρχον": 65,
  "προειρημενη": 65,
  "##λλιου": 65,
  "φυν": 65,
  "##ψομαι": 65,
  "κιμ": 65,
  "απολαβ": 65,
  "καταβαλ": 65,
  "##αινη": 65,
  "##ρισεως": 65,
  "##λειπ": 65,
  "καρπι": 65,
  "υπαρχοντι": 65,
  "αρκου": 65,
  "υπομειναι": 65,
  "τετελε": 65,
  "προθε": 65,
  "##πισ": 65,
  "##τυχ": 65,
  "αξιωματος": 65,
  "προφασεως": 65,
  "ωρισμενη": 65,
  "κατεβ": 65,
  "ενδομ": 65,
  "αποκο": 65,
  "##ευν": 65,
  "##ζηται": 65,
  "##οστον": 65,
  "κρεα": 65,
  "κεφαλαι": 65,
  "λεγομενας": 65,
  "##ευται": 65,
  "συνδε": 65,
  "περισπα": 65,
  "δαπανας": 65,
  "δενδρων": 65,
  "ονοματ": 65,
  "κολλυ": 65,
  "πηγην": 65,
  "##ισμους": 65,
  "τρεφομενον": 65,
  "##ευον": 65,
  "##δοντες": 65,
  "τυφλ": 65,
  "βραδ": 65,
  "##συν": 65,
  "χαυν": 65,
  "γεγονοτας": 65,
  "πατριδι": 65,
  "##ωθεν": 65,
  "αναλαβειν": 65,
  "ουρ": 65,
  "αποτειν": 65,
  "καλε": 65,
  "διαδοχους": 65,
  "αθαν": 65,
  "ωχ": 65,
  "προστεθει": 65,
  "προσα": 65,
[...]
