{
  "και": 244390,
  "το": 123075,
  "δε": 104168,
  "η": 87292,
  "των": 66273,
  "γαρ": 65938,
  "μεν": 56367,
  "του": 55653,
  "εν": 54859,
  "την": 47668,
  "τα": 46152,
  "ο": 40908,
  "της": 37752,
  "τω": 36388,
  "ειναι": 32216,
  "ου": 31404,
  "μη": 30472,
  "τε": 29646,
  "ει": 29569,
  "ως": 28435,
  "αν": 27701,
  "τον": 26748,
  "τι": 26503,
  "δ": 26295,
  "προς": 25878,
  "εστιν": 25832,
  "οτι": 24834,
  "εστι": 23979,
  "τοις": 23542,
  "περι": 22715,
  "κατα": 22326,
  "δια": 22196,
  "ουκ": 20791,
  "αλλα": 19709,
  "εις": 18819,
  "επι": 18740,
  "τουτο": 17531,
  "ουν": 17004,
  "οι": 16844,
  "αλλ": 16437,
  "τη": 15531,
  "τας": 14397,
  "τους": 14275,
  "εκ": 14206,
  "τις": 12291,
  "οιον": 11794,
  "ταυτα": 11276,
  "##ς": 10913,
  "εξ": 10430,
  "δη": 10346,
  "ην": 9704,
  "αυτων": 9500,
  "αυτο": 9473,
  "αι": 9445,
  "τουτων": 9239,
  "ωσπερ": 9150,
  "ουτως": 8851,
  "ων": 8820,
  "ουδε": 8805,
  "γε": 8725,
  "αυτου": 8677,
  "ουτε": 8674,
  "##ν": 8516,
  "υπο": 8492,
  "καθ": 8260,
  "απο": 8233,
  "α": 7976,
  "μαλλον": 7794,
  "ω": 7456,
  "\"": 7411,
  "αυτω": 7327,
  "δει": 7055,
  "ουδεν": 7017,
  "ον": 6910,
  "δι": 6743,
  "εχει": 6733,
  "πως": 6509,
  "παντα": 6500,
  "τινα": 6463,
  "εσται": 6453,
  "οταν": 6366,
  "ειη": 6337,
  "ουχ": 6305,
  "ετι": 6275,
  "ωστε": 6023,
  "ταις": 6015,
  "παρα": 5954,
  "αυτον": 5731,
  "επει": 5694,
  "ουτω": 5578,
  "μονον": 5537,
  "αυτη": 5461,
  "τινος": 5199,
  "αρα": 5022,
  "νυν": 4997,
  "γινεται": 4981,
  "πρωτον": 4947,
  "παλιν": 4895,
  "κατ": 4881,
  "##ων": 4848,
  "αυτοις": 4846,
  "##ι": 4788,
  "αει": 4657,
  "ημιν": 4600,
  "##η": 4597,
  "μετα": 4596,
  "ομοιως": 4590,
  "αλλο": 4546,
  "##ον": 4528,
  "εχειν": 4470,
  "ουδ": 4435,
  "αυτην": 4306,
  "φυσιν": 4301,
  "λογον": 4269,
  "καθολου": 4265,
  "αυτα": 4253,
  "αλλων": 4200,
  "—": 4103,
  "τουτου": 4042,
  "τινι": 3993,
  "εαν": 3987,
  "αγαθον": 3960,
  "αυτης": 3954,
  "σωμα": 3945,
  "λεγειν": 3877,
  "μην": 3847,
  "αμα": 3843,
  "λεγεται": 3803,
  "μαλιστα": 3796,
  "λογος": 3674,
  "δυο": 3671,
  "αυτος": 3640,
  "##ται": 3614,
  "παντων": 3606,
  "μητε": 3604,
  "##οι": 3585,
  "γ": 3549,
  "ειδος": 3539,
  "δηλον": 3523,
  "αναγκη": 3491,
  "##α": 3481,
  "διο": 3480,
  "τουτοις": 3474,
  "ψυχης": 3473,
  "εκαστον": 3449,
  "##ει": 3410,
  "β": 3404,
  "υπαρχειν": 3394,
  "οσα": 3381,
  "ποτε": 3355,
  "εισιν": 3328,
  "παν": 3323,
  "γενος": 3208,
  "ετερον": 3206,
  "ηδη": 3205,
  "δοκει": 3191,
  "εφη": 3171,
  "##τα": 3159,
  "παντι": 3101,
  "αδυνατον": 3083,
  "οις": 3052,
  "σωματος": 3051,
  "εφ": 3047,
  "οντα": 3022,
  "επ": 3008,
  "εγω": 2994,
  "προτερον": 2985,
  "##ος": 2962,
  "ανθρωπος": 2957,
  "οντος": 2946,
  "λεγει": 2938,
  "τοιουτον": 2909,
  "ζωον": 2905,
  "τροπον": 2878,
  "##ω": 2867,
  "πολλα": 2849,
  "ψυχη": 2789,
  "μηδεν": 2781,
  "φυσει": 2774,
  "καθαπερ": 2755,
  "οντων": 2711,
  "##ου": 2653,
  "μερος": 2638,
  "φησιν": 2605,
  "ταυτον": 2597,
  "##ειν": 2593,
  "γινεσθαι": 2570,
  "τοινυν": 2567,
  "αναγκαιον": 2556,
  "αναγκης": 2534,
  "εισι": 2524,
  "τουτω": 2517,
  "αυτους": 2508,
  "##τος": 2474,
  "παρ": 2460,
  "ποιειν": 2459,
  "##των": 2453,
  "ολως": 2443,
  "απλως": 2433,
  "τοιαυτα": 2427,
  "ειπειν": 2399,
  "μηδε": 2391,
  "##σιν": 2386,
  "ποιει": 2384,
  "οπερ": 2372,
  "υπαρχει": 2370,
  "φησι": 2350,
  "αληθες": 2343,
  "καν": 2316,
  "ουτος": 2294,
  "ενδεχεται": 2274,
  "μοι": 2265,
  "##ουσιν": 2244,
  "τινες": 2241,
  "ουσια": 2211,
  "ταυτην": 2203,
  "αυ": 2202,
  "αιτιον": 2201,
  "παντος": 2199,
  "σοι": 2174,
  "πολυ": 2166,
  "υπ": 2148,
  "ημας": 2144,
  "λογω": 2136,
  "ινα": 2132,
  "##ις": 2113,
  "##ουσι": 2107,
  "τοτε": 2098,
  "αρχην": 2080,
  "ιδιον": 2070,
  "αρχη": 2056,
  "οτε": 2049,
  "επειδη": 2049,
  "μεντοι": 2039,
  "γενεσθαι": 2020,
  "προ": 2016,
  "##ας": 2015,
  "ηττον": 2000,
  "##ους": 1994,
  "ποτερον": 1978,
  "ενεργεια": 1970,
  "ειτε": 1962,
  "λεγων": 1938,
  "φαινεται": 1935,
  "ευ": 1934,
  "ειρηται": 1924,
  "λογου": 1921,
  "ψυχην": 1919,
  "ειπερ": 1902,
  "δυναμει": 1901,
  "λευκον": 1893,
  "##ομενον": 1892,
  "δυναμιν": 1876,
  "ενος": 1868,
  "δυναται": 1851,
  "τουτον": 1846,
  "υδωρ": 1833,
  "##μενον": 1812,
  "ειδη": 1810,
  "γιγνεται": 1808,
  "καλως": 1807,
  "συμβεβηκος": 1803,
  "υλη": 1796,
  "##σθαι": 1785,
  "ανευ": 1775,
  "##εσθαι": 1770,
  "γης": 1763,
  "πολλακις": 1753,
  "##οις": 1751,
  "τελος": 1748,
  "##σι": 1740,
  "ταυτης": 1712,
  "##μεν": 1708,
  "ενεκα": 1708,
  "υπερ": 1703,
  "φυσις": 1701,
  "ουσιας": 1696,
  "αλλως": 1686,
  "ητοι": 1677,
  "χρη": 1677,
  "##αι": 1676,
  "που": 1662,
  "απ": 1660,
  "ημων": 1655,
  "συ": 1653,
  "##τον": 1651,
  "ολον": 1651,
  "φυσεως": 1650,
  "αιτιαν": 1649,
  "επιστημη": 1644,
  "ουκουν": 1637,
  "μερους": 1634,
  "οπως": 1631,
  "τουτ": 1628,
  "ουσιαν": 1628,
  "τοιουτων": 1616,
  "κινησις": 1609,
  "ζωων": 1605,
  "αλλοις": 1602,
  "ισως": 1593,
  "τινων": 1591,
  "λεγω": 1588,
  "ανθρωπων": 1585,
  "αλλου": 1585,
  "καλον": 1579,
  "εκεινο": 1577,
  "##εται": 1571,
  "μεταξυ": 1560,
  "ειπων": 1554,
  "γιγνεσθαι": 1552,
  "αιτια": 1525,
  "χρονον": 1514,
  "ανω": 1513,
  "##εν": 1508,
  "μερη": 1491,
  "πυρ": 1489,
  "##τι": 1484,
  "δυνατον": 1481,
  "αλληλων": 1478,
  "φανερον": 1474,
  "τοπον": 1472,
  "##ια": 1468,
  "ανθρωπον": 1463,
  "ουσα": 1461,
  "συμβαινει": 1458,
  "απειρον": 1455,
  "##το": 1449,
  "συμπερασμα": 1435,
  "ετερα": 1415,
  "μια": 1412,
  "παντες": 1405,
  "χωρις": 1405,
  "ος": 1402,
  "κακον": 1400,
  "ορθως": 1397,
  "αρχης": 1393,
  "##τες": 1390,
  "εκεινου": 1387,
  "ανθρωπου": 1384,
  "##ουσα": 1380,
  "παθος": 1380,
  "ενταυθα": 1377,
  "εκεινων": 1375,
  "υστερον": 1372,
  "##ε": 1370,
  "ειπεν": 1369,
  "καιτοι": 1368,
  "ουκετι": 1365,
  "εναντια": 1363,
  "πολλων": 1361,
  "ης": 1354,
  "##οντα": 1352,
  "ισον": 1352,
  "ουτ": 1344,
  "αρ": 1341,
  "οσον": 1335,
  "αλληλοις": 1334,
  "μηδενι": 1333,
  "##τεον": 1333,
  "δειν": 1331,
  "εαυτου": 1329,
  "πανυ": 1325,
  "κινησεως": 1325,
  "τοδε": 1315,
  "ταυτη": 1309,
  "σωματων": 1300,
  "αρετην": 1297,
  "χρονω": 1295,
  "ευθυς": 1291,
  "εχον": 1289,
  "αφ": 1287,
  "μεσον": 1277,
  "τινας": 1275,
  "σωματα": 1272,
  "ουσης": 1269,
  "κοινον": 1259,
  "υλης": 1257,
  "εκαστου": 1255,
  "εχοντα": 1254,
  "κατω": 1253,
  "ουτοι": 1249,
  "παντως": 1248,
  "ειτα": 1247,
  "αρετη": 1245,
  "αντι": 1244,
  "οθεν": 1235,
  "##μενων": 1233,
  "γουν": 1230,
  "διοτι": 1230,
  "##ης": 1229,
  "κινησιν": 1228,
  "αρχας": 1215,
  "κινεισθαι": 1215,
  "##οντες": 1208,
  "νους": 1206,
  "ζην": 1202,
  "θεων": 1202,
  "εναντιον": 1197,
  "ωστ": 1196,
  "πασα": 1193,
  "σε": 1192,
  "ημεις": 1192,
  "εργον": 1191,
  "μεγεθος": 1188,
  "εξω": 1188,
  "φασιν": 1188,
  "γην": 1186,
  "τ": 1182,
  "λεγομεν": 1178,
  "##ονται": 1177,
  "ψευδος": 1164,
  "εχων": 1162,
  "αυτοι": 1162,
  "υδατος": 1159,
  "παθη": 1158,
  "μιαν": 1157,
  "σχηματι": 1156,
  "τοιαυτη": 1154,
  "δυνασθαι": 1151,
  "σωματι": 1150,
  "χαριν": 1145,
  "##αν": 1144,
  "##τας": 1139,
  "πλεον": 1138,
  "σημειον": 1138,
  "εκει": 1137,
  "σωκρατες": 1135,
  "αγαθων": 1134,
  "νουν": 1133,
  "πληθος": 1133,
  "πασι": 1129,
  "διαφερει": 1126,
  "ονομα": 1117,
  "οιμαι": 1115,
  "##ομεν": 1113,
  "υλην": 1109,
  "##ομενων": 1108,
  "μηδ": 1105,
  "##μενα": 1105,
  "υφ": 1104,
  "##ηται": 1103,
  "##τικον": 1103,
  "##οντος": 1102,
  "αυται": 1102,
  "επιστημην": 1098,
  "##ουν": 1097,
  "θερμον": 1096,
  "πλειω": 1090,
  "δυναμις": 1088,
  "αλλω": 1086,
  "##ες": 1081,
  "αριθμον": 1067,
  "πυρος": 1067,
  "μεχρι": 1066,
  "ουδενι": 1061,
  "αυτας": 1059,
  "λογους": 1053,
  "φαμεν": 1052,
  "γη": 1050,
  "πασιν": 1046,
  "συλλογισμος": 1046,
  "βιον": 1045,
  "αισθησιν": 1035,
  "εκαστω": 1034,
  "ουδεις": 1034,
  "αληθη": 1032,
  "##μενου": 1029,
  "ειπε": 1028,
  "λαβειν": 1023,
  "##οιτο": 1021,
  "αρετης": 1021,
  "ωσαυτως": 1018,
  "λογων": 1014,
  "μετ": 1013,
  "ανθρωπω": 1013,
  "γενη": 1008,
  "κινειται": 1008,
  "εαυτον": 1006,
  "ορων": 1006,
  "##ως": 1005,
  "ατοπον": 1002,
  "λεγομενον": 1000,
  "υπαρχον": 1000,
  "εναντιων": 999,
  "##ιας": 998,
  "ενι": 998,
  "θεος": 997,
  "λεγουσιν": 996,
  "δικαιον": 980,
  "##σις": 977,
  "##θη": 976,
  "ους": 976,
  "##ιαν": 976,
  "##ομενος": 975,
  "διαφορας": 971,
  "##εις": 968,
  "αερος": 967,
  "χρησθαι": 962,
  "γενει": 960,
  "υποκειμενον": 957,
  "πρωτω": 957,
  "##τω": 955,
  "διαφορα": 955,
  "ομως": 952,
  "αλληλα": 949,
  "πολλοι": 945,
  "φως": 945,
  "ειδει": 945,
  "γενεσιν": 944,
  "ποιον": 942,
  "ηδονη": 940,
  "κυριως": 940,
  "ουσαν": 938,
  "δυναμεως": 938,
  "ενεργειαν": 938,
  "πασαν": 937,
  "##ην": 935,
  "απαντων": 935,
  "αριθμος": 935,
  "θεου": 931,
  "ομοιον": 926,
  "##ομενου": 922,
  "σχημα": 920,
  "εχουσι": 915,
  "εκαστα": 915,
  "σχεδον": 914,
  "##ιν": 913,
  "πας": 913,
  "χρονος": 913,
  "εξωθεν": 911,
  "επεται": 907,
  "λεγεσθαι": 906,
  "μεγα": 905,
  "##τικη": 905,
  "πλην": 904,
  "γινονται": 901,
  "αηρ": 899,
  "θεον": 898,
  "δοξαν": 898,
  "αλλην": 898,
  "μικρον": 893,
  "##του": 893,
  "##μενος": 890,
  "αλλον": 890,
  "εαυτω": 889,
  "γενους": 886,
  "ελαττον": 884,
  "ετερου": 883,
  "##οντων": 882,
  "αμφω": 880,
  "ουθεν": 880,
  "εχουσιν": 879,
  "ζωου": 878,
  "##θεν": 872,
  "ενα": 869,
  "οντι": 869,
  "αλλοι": 868,
  "εκατερον": 867,
  "αιτιας": 866,
  "φασι": 866,
  "σωκρατης": 866,
  "επειτα": 865,
  "υγρον": 861,
  "λεγεις": 856,
  "ζωα": 850,
  "αγαθου": 850,
  "##ομενοι": 847,
  "##μα": 843,
  "ανθρωποις": 840,
  "ηδονην": 839,
  "προτασεων": 838,
  "αισθησις": 837,
  "πασχειν": 836,
  "##ομενα": 835,
  "τοιουτος": 833,
  "εκτος": 832,
  "ειδους": 832,
  "##σαι": 831,
  "δευτερον": 830,
  "εξης": 830,
  "##σει": 828,
  "εστω": 825,
  "τοπος": 823,
  "ποσον": 819,
  "##σαν": 818,
  "ουδενος": 812,
  "μειζον": 812,
  "απαντα": 810,
  "τουναντιον": 810,
  "##ομεθα": 809,
  "ιδια": 807,
  "αρχαι": 807,
  "πραττειν": 806,
  "λεγοντες": 805,
  "μοριον": 801,
  "τροφης": 800,
  "τοιαυτην": 800,
  "χρονου": 799,
  "οραν": 795,
  "γενηται": 793,
  "αγαθα": 793,
  "ουχι": 793,
  "##ωσιν": 792,
  "##μενη": 788,
  "θατερον": 784,
  "αλλη": 783,
  "##οντας": 782,
  "εμοι": 781,
  "πολιν": 780,
  "##ουσης": 780,
  "σφοδρα": 779,
  "γενεσεως": 777,
  "τουτους": 776,
  "παντας": 775,
  "αισθητων": 775,
  "αλλους": 774,
  "αερα": 771,
  "λεγουσι": 771,
  "##μεθα": 770,
  "κινουμενον": 769,
  "προτασεις": 769,
  "##θηναι": 768,
  "πλειους": 768,
  "γενεσις": 768,
  "„": 767,
  "##μενοι": 765,
  "καθο": 765,
  "τρια": 762,
  "πλειονων": 761,
  "τριτον": 761,
  "λεγοι": 758,
  "ταυτας": 758,
  "##τη": 757,
  "ειδεναι": 756,
  "εχοντων": 752,
  "βελτιον": 750,
  "εφεξης": 750,
  "πνευμα": 747,
  "μερει": 747,
  "τοσουτον": 743,
  "κατηγορειται": 743,
  "πολλοις": 742,
  "ας": 742,
  "πραγματων": 741,
  "αισθησεως": 741,
  "εκεινα": 740,
  "ειρημενων": 737,
  "ολου": 737,
  "επιστημης": 736,
  "σημαινει": 734,
  "ταυτ": 733,
  "ηλιου": 733,
  "διαφοραν": 731,
  "τοπω": 730,
  "τροφην": 729,
  "πριν": 728,
  "δυναμεις": 725,
  "με": 724,
  "αμφοτερων": 724,
  "τεχνη": 723,
  "στοιχεια": 720,
  "πλατων": 719,
  "πρωτη": 718,
  "οπου": 712,
  "ολιγον": 710,
  "##ωμεν": 710,
  "χρωμα": 710,
  "εκεινω": 705,
  "γινομενον": 703,
  "περας": 703,
  "εοικε": 700,
  "αλλος": 699,
  "λεγομενων": 697,
  "ηδονης": 694,
  "ανθρωποι": 694,
  "εσονται": 693,
  "δειξαι": 693,
  "εοικεν": 692,
  "<": 691,
  "γενοιτο": 689,
  "ταλλα": 689,
  "σου": 687,
  "οια": 686,
  "ζητειν": 685,
  "ειεν": 685,
  "θεους": 680,
  "πολεως": 679,
  "κακως": 678,
  "οικειον": 678,
  "λογοις": 675,
  "μορια": 675,
  "πρωτου": 673,
  "ενδεχεσθαι": 671,
  "##ομενη": 670,
  "μερων": 669,
  "πολλους": 668,
  "##ουσαν": 668,
  "κακων": 668,
  "πασης": 668,
  "αρχων": 665,
  "λαμβανειν": 664,
  "##τικος": 664,
  "τουτεστι": 662,
  "αλληλους": 657,
  "πραγματα": 657,
  "εδει": 656,
  "πολει": 656,
  "συν": 653,
  "##της": 652,
  "ητις": 651,
  "βουλεται": 650,
  "##μενω": 649,
  "ταυτο": 647,
  "##θεις": 645,
  "υποκειμενου": 644,
  "αλλας": 643,
  "οντες": 642,
  "αισθητον": 642,
  "αληθως": 641,
  "αμφοτερα": 639,
  "αληθης": 638,
  "αριθμω": 638,
  "χρησιμον": 636,
  "##κον": 636,
  "εντος": 636,
  "##τικου": 635,
  "ε": 633,
  "τουτεστιν": 631,
  "εκεινοις": 629,
  "πεντε": 627,
  "οσοι": 625,
  "εξει": 623,
  "ανθρωπους": 622,
  "πραγμα": 621,
  "##τικων": 619,
  "εικος": 618,
  "##ρ": 616,
  "πραγματος": 616,
  "νου": 614,
  "πασας": 612,
  "κωλυει": 611,
  "ησαν": 607,
  "αξιον": 606,
  "ψυχρον": 605,
  "παντη": 605,
  "μηδενος": 603,
  "τεχνην": 603,
  "βιου": 602,
  "μιας": 600,
  "ηδυ": 600,
  "##μενην": 599,
  "κυκλω": 598,
  "γεγονεν": 598,
  "τρεις": 597,
  "##μενους": 596,
  "##μενοις": 595,
  "πλειστον": 594,
  "##τικην": 592,
  "##σα": 592,
  "στοιχειων": 591,
  "##τικα": 589,
  "μοριων": 588,
  "ανηρ": 587,
  "πρωτα": 587,
  "εως": 586,
  "##ουμενον": 585,
  "εκεινος": 582,
  "εχοντες": 582,
  "απερ": 582,
  "ποια": 582,
  "γεγονεναι": 581,
  "αμφοιν": 581,
  "##τοι": 581,
  "δεκα": 580,
  "κοσμου": 580,
  "τοιαυτης": 580,
  "λεγομενα": 577,
  "εγενετο": 575,
  "ομοια": 575,
  "θερμου": 575,
  "ικανως": 575,
  "αποδειξις": 575,
  "ορισμος": 575,
  "κενον": 574,
  "##ομενης": 573,
  "##κα": 573,
  "εαυτων": 570,
  "καλα": 570,
  "ενεργειας": 570,
  "αυταις": 569,
  "ειδων": 569,
  "##ομενους": 568,
  "επειδαν": 568,
  "##θεντα": 567,
  "αισθητα": 567,
  "ζωοις": 566,
  "μειζων": 565,
  "γινομενων": 565,
  "φωνη": 565,
  "##κη": 564,
  "##ικον": 564,
  "εμπροσθεν": 564,
  "μηκος": 561,
  "ποιεισθαι": 560,
  "##σεως": 559,
  "εχουσα": 559,
  "ετεραν": 558,
  "τριων": 558,
  "εικοτως": 557,
  "##ιων": 555,
  "μεθ": 553,
  "εφην": 552,
  "##τερον": 550,
  "ενια": 550,
  "λαμβανει": 546,
  "##εισθαι": 545,
  "χωραν": 542,
  "ημερα": 542,
  "##σεις": 542,
  "ειπον": 542,
  "##κος": 540,
  "ειτ": 540,
  "λεκτεον": 540,
  "κινησεις": 540,
  "εκαστος": 539,
  "κακα": 537,
  "αριθμων": 537,
  "##μενης": 536,
  "οψεως": 536,
  "πασαι": 534,
  "##ασθαι": 533,
  "##ουντα": 532,
  "εχοντος": 532,
  "##ωσι": 531,
  "αισθανεσθαι": 531,
  "μεσου": 530,
  "αριθμου": 530,
  "ετερων": 530,
  "##μον": 528,
  "διαστημα": 527,
  "δεδεικται": 527,
  "ετερω": 526,
  "##τ": 525,
  "εργα": 524,
  "##θαι": 524,
  "τεχνης": 523,
  "ταξιν": 521,
  "παθων": 521,
  "πραξεις": 519,
  "##κων": 519,
  "##οντι": 518,
  "μειζονος": 518,
  "προκειμενον": 518,
  "##ουντες": 517,
  "μητ": 517,
  "##θεντος": 516,
  "λοιπον": 516,
  "μεγιστον": 516,
  "##κε": 515,
  "##νο": 515,
  "ουθ": 515,
  "λογοι": 513,
  "εκαστη": 512,
  "οψιν": 510,
  "##ομενω": 509,
  "ορος": 509,
  "εχοι": 509,
  "μελαν": 508,
  "ορα": 508,
  "αναλογον": 508,
  "##σας": 506,
  "μεταβολη": 506,
  "εσεσθαι": 505,
  "αιρετον": 505,
  "οντως": 505,
  "πασων": 505,
  "ανδρων": 504,
  "ουδεμια": 504,
  "εξις": 503,
  "πεφυκεν": 503,
  "ορωμεν": 502,
  "##τικω": 502,
  "κοινη": 502,
  "υποκειμενω": 502,
  "##τατον": 501,
  "ραδιον": 501,
  "ιδεας": 500,
  "αναγκαια": 499,
  "ενδεχομενον": 499,
  "βια": 498,
  "νη": 497,
  "##ειται": 497,
  "αυθις": 496,
  "υπαρξει": 495,
  "ευθυ": 495,
  "ποιησαι": 494,
  "αλλης": 494,
  "τουδε": 494,
  "ιδειν": 494,
  "πολιτειας": 493,
  "εκαστην": 493,
  "θεω": 493,
  "##κεν": 492,
  "##ουμεν": 492,
  "εγωγε": 492,
  "προσθεν": 492,
  "τισιν": 492,
  "πρωτην": 491,
  "ενιοτε": 491,
  "ετερας": 490,
  "αποφασις": 490,
  "ουδαμως": 488,
  "ουσιαι": 488,
  "πρωτος": 487,
  "##ικη": 487,
  "πη": 487,
  "οψις": 486,
  "##αις": 485,
  "ισα": 485,
  "ατε": 485,
  "μενει": 483,
  "τυχη": 482,
  "ηλιος": 482,
  "ηλιον": 481,
  "δειται": 481,
  "εκεινον": 480,
  "χαλεπον": 480,
  "λαβων": 478,
  "αιμα": 478,
  "αντικειμενον": 476,
  "τισι": 475,
  "ανδρος": 475,
  "ομου": 474,
  "ονοματα": 474,
  "δευτερω": 474,
  "προτερα": 474,
  "εσχατον": 474,
  "ορον": 473,
  "εχη": 473,
  "διανοια": 473,
  "##τερα": 472,
  "μονω": 471,
  "ηδονας": 471,
  "εξιν": 471,
  "##την": 470,
  "φερεται": 470,
  "θειον": 470,
  "##γ": 469,
  "γιγνομενον": 469,
  "ελαττονος": 467,
  "δοκειν": 466,
  "##ση": 466,
  "ποτ": 465,
  "ενιοι": 465,
  "απαν": 465,
  "##εσι": 464,
  "πρωτων": 464,
  "##ησαι": 464,
  "δηπου": 463,
  "μονη": 463,
  "κινει": 461,
  "ημεραν": 460,
  "##δες": 460,
  "δοξης": 459,
  "αληθειαν": 459,
  "μονας": 458,
  "ολω": 458,
  "αποφατικον": 457,
  "διοπερ": 456,
  "κοινα": 456,
  "πνευματος": 455,
  "οιος": 454,
  "φαινεσθαι": 454,
  "κινη": 454,
  "ποιουσιν": 454,
  "υμιν": 452,
  "γενομενον": 452,
  "εγγυς": 452,
  "ωδε": 452,
  "χρηται": 452,
  "ψευδη": 452,
  "καλων": 451,
  "τοιουτοις": 451,
  "τοι": 451,
  "κοσμον": 451,
  "διαφοραι": 451,
  "νοειν": 451,
  "ακουειν": 450,
  "αισχρον": 449,
  "φιλων": 447,
  "##εως": 447,
  "οτιουν": 447,
  "δηλοι": 447,
  "ζωω": 447,
  "ναι": 446,
  "δικαιοσυνη": 446,
  "αποδειξεως": 445,
  "πανταχου": 445,
  "##τε": 444,
  "λευκου": 444,
  "ελαττων": 444,
  "χρηματα": 443,
  "γινομενα": 443,
  "τοιουτου": 442,
  "δοξα": 442,
  "εμου": 440,
  "καλειται": 440,
  "ανδρα": 439,
  "αισθησεις": 439,
  "αλλαι": 439,
  "κινησει": 439,
  "ραδιως": 438,
  "αληθειας": 437,
  "φαναι": 437,
  "##τικαι": 437,
  "τροφη": 437,
  "##ζειν": 436,
  "εχομεν": 436,
  "λεγονται": 436,
  "ταναντια": 435,
  "ταχυ": 434,
  "δεικνυται": 434,
  "αγαθος": 433,
  "βιω": 433,
  "φερεσθαι": 433,
  "αλογον": 433,
  "δειξας": 432,
  "υδατι": 432,
  "ανασκευ": 432,
  "##δη": 431,
  "θεοις": 431,
  "ιν": 431,
  "##σομεν": 430,
  "##τικης": 430,
  "σπερμα": 430,
  "##μων": 429,
  "ποθεν": 429,
  "##ρα": 429,
  "##δι": 429,
  "##κως": 429,
  "εκεινης": 428,
  "λογικον": 428,
  "##σεται": 428,
  "»": 428,
  "ποιητικον": 428,
  "νομους": 424,
  "τροπος": 424,
  "προτασις": 424,
  "##κοι": 423,
  "οντας": 423,
  "φιλια": 422,
  "τουνομα": 422,
  "φαντασια": 422,
  "εμε": 421,
  "τυγχανει": 421,
  "αριστοτελης": 421,
  "πολλας": 420,
  "νομος": 420,
  "χρηματων": 419,
  "φιλους": 419,
  "βαρυ": 419,
  "αιτιων": 418,
  "διαφερειν": 417,
  "δυοιν": 417,
  "ονοματων": 417,
  "τοπου": 417,
  "δικαιως": 417,
  "μετρον": 417,
  "τυχης": 416,
  "διανοιας": 416,
  "συνεχες": 416,
  "νομον": 415,
  "δεικνυσιν": 415,
  "αις": 414,
  "γιγνονται": 414,
  "εντευθεν": 414,
  "##ρον": 413,
  "ηκιστα": 413,
  "πλειον": 413,
  "υγρου": 413,
  "αληθ": 413,
  "αρχειν": 412,
  "##ωνται": 412,
  "παλαι": 409,
  "##εων": 408,
  "οικεια": 408,
  "πολις": 406,
  "ποιησει": 406,
  "διανοιαν": 405,
  "πλησιον": 405,
  "παθους": 405,
  "πολλαχως": 404,
  "εαυτην": 404,
  "αδηλον": 403,
  "κοινων": 403,
  "ουσιων": 403,
  "«": 403,
  "##ομενοις": 402,
  "πολλην": 402,
  "##ιον": 401,
  "##ουντων": 401,
  "κινουν": 401,
  "##θειη": 400,
  "##τικοι": 400,
  "##εσιν": 400,
  "οιονται": 399,
  "μεταβαλλει": 399,
  "προσηκει": 398,
  "πεφυκε": 398,
  "λυπη": 398,
  "ημερας": 397,
  "στερησις": 397,
  "ελεγον": 396,
  "##αντες": 395,
  "ευλογως": 395,
  "πορρω": 395,
  "ποιειται": 394,
  "απειρα": 394,
  "φαντασιαν": 394,
  "##θεντες": 392,
  "##κω": 392,
  "αποδειξιν": 392,
  "ετερος": 392,
  "ουρανον": 391,
  "φωνης": 391,
  "μονος": 390,
  "##ρων": 390,
  "πανταπασιν": 390,
  "##ουσαι": 390,
  "οιει": 389,
  "μειζονα": 388,
  "παιδων": 388,
  "φημι": 388,
  "ευλογον": 387,
  "##θε": 386,
  "πατηρ": 385,
  "στοιχειον": 385,
  "δεικνυσι": 385,
  "ιππος": 385,
  "ορους": 385,
  "##ουνται": 384,
  "αριστον": 384,
  "##ρω": 384,
  "##τοις": 384,
  "κειται": 384,
  "αριθμους": 384,
  "φιλον": 383,
  "βουλομενος": 383,
  "##θεντων": 383,
  "δικην": 383,
  "μενειν": 382,
  "εργων": 382,
  "φαινομενον": 381,
  "σχηματος": 381,
  "μαλα": 381,
  "σοφια": 381,
  "φθορα": 381,
  "λεγωμεν": 380,
  "γενων": 380,
  "##ομενην": 379,
  "αερι": 379,
  "προβλημα": 379,
  "θαττον": 379,
  "συλλογισμον": 379,
  "χειρον": 378,
  "νομων": 378,
  "οσαι": 378,
  "##κεναι": 377,
  "γραμμη": 377,
  "φορα": 377,
  "ποιων": 376,
  "##ουντος": 376,
  "##δων": 376,
  "οστις": 375,
  "θ": 375,
  "ψευδης": 375,
  "μεταβαλλειν": 375,
  "κοσμος": 374,
  "μεσω": 374,
  "δηλονοτι": 374,
  "##ουντας": 373,
  "δις": 372,
  "μηκετι": 372,
  "δυναμενον": 372,
  "ελαττω": 372,
  "κακου": 372,
  "ποιουσι": 371,
  "ολων": 371,
  "##υ": 370,
  "ακριβως": 370,
  "εαυτης": 370,
  "ορισμον": 370,
  "ακολουθει": 369,
  "συλλογισμου": 369,
  "φιλοσοφιας": 368,
  "αιδιον": 368,
  "##θησεται": 367,
  "##σης": 366,
  "εαυτους": 366,
  "εκεινοι": 366,
  "αληθους": 366,
  "δυνανται": 365,
  "##εια": 365,
  "ερει": 365,
  "αποφατικη": 365,
  "εκατερου": 364,
  "ειποι": 364,
  "ειπομεν": 364,
  "αισθησει": 364,
  "δεικνυναι": 364,
  "τοπους": 363,
  "ουπω": 362,
  "κινειν": 362,
  "ζ": 362,
  "κατηγορ": 361,
  "αιματος": 361,
  "καλλος": 360,
  "συμβεβηκεν": 360,
  "εκεινη": 359,
  "ουρανου": 359,
  "φερε": 359,
  "οσω": 359,
  "θερμοτητος": 359,
  "##θεισης": 358,
  "οιεται": 358,
  "κακια": 358,
  "πυρι": 357,
  "λιαν": 356,
  "ταχα": 356,
  "τριτω": 356,
  "διπουν": 356,
  "αιρετωτερον": 355,
  "##κου": 354,
  "συλλογισμων": 354,
  "##δος": 353,
  "αποριαν": 353,
  "αδυνατου": 353,
  "##οτης": 353,
  "πολεις": 352,
  "οικιας": 352,
  "ευδαιμονιαν": 352,
  "ψυχ": 352,
  "παντελως": 352,
  "συλλογισ": 352,
  "καταφατικον": 352,
  "τελους": 351,
  "αρτι": 351,
  "##τικως": 350,
  "##σ": 350,
  "##ματα": 350,
  "μεγεθους": 349,
  "ομοιοτητα": 349,
  "##κει": 349,
  "προτασιν": 349,
  "##μαι": 348,
  "ουσιν": 348,
  "ανδρες": 348,
  "απλουν": 348,
  "##ο": 348,
  "δυναμεων": 347,
  "κειμενον": 347,
  "σαφως": 347,
  "εαυτοις": 347,
  "##τους": 346,
  "ουδεποτε": 346,
  "υγιειαν": 346,
  "πασχει": 346,
  "καρδια": 345,
  "αναπαλιν": 345,
  "σκοπειν": 344,
  "συμβεβηκοτα": 344,
  "επομενον": 344,
  "πρωτως": 344,
  "ερωτα": 342,
  "παραδειγμα": 342,
  "γλυκυ": 342,
  "ανωθεν": 341,
  "επιστημων": 341,
  "γεγονε": 340,
  "εαυτο": 340,
  "επεσθαι": 340,
  "ουσων": 340,
  "γενομενος": 339,
  "##μου": 339,
  "##τατα": 339,
  "αισθησεων": 339,
  "επιστασθαι": 339,
  "ειρημενα": 337,
  "ηδονων": 337,
  "διαιρεσιν": 337,
  "λοιπα": 337,
  "κατηγορουμενον": 337,
  "μεγαλα": 336,
  "θεοι": 336,
  "δικαιοσυνης": 336,
  "αμεινον": 336,
  "ειδως": 335,
  "ονοματος": 335,
  "εξεις": 334,
  "ελαττονα": 334,
  "πολλου": 334,
  "αρετας": 334,
  "εναντιου": 334,
  "πολυν": 333,
  "μονα": 333,
  "χαιρειν": 333,
  "θηλυ": 333,
  "##οτητα": 333,
  "επιθυμιας": 332,
  "οικειαν": 332,
  "καταφατικης": 332,
  "δικαια": 331,
  "φωνην": 331,
  "##ουμενοι": 331,
  "##θεισα": 331,
  "αδικειν": 330,
  "χωρας": 330,
  "αναγκαιων": 330,
  "φρονησις": 330,
  "ενεκεν": 330,
  "φιλοι": 329,
  "λεγοντος": 329,
  "συμφερον": 329,
  "αχρι": 328,
  "##δης": 327,
  "ειθ": 327,
  "υποθεσεως": 327,
  "πλατος": 327,
  "θεσιν": 327,
  "μικρα": 326,
  "μεταβολην": 326,
  "πατρος": 326,
  "ζωην": 326,
  "τηδε": 326,
  "##ουμενων": 324,
  "τοπων": 324,
  "αποδιδ": 324,
  "πλατωνος": 323,
  "συναγεται": 323,
  "γνωριμον": 323,
  "αγαθω": 322,
  "μετεχειν": 322,
  "διανοη": 322,
  "φαντασιας": 321,
  "τοιουτοι": 321,
  "##ρος": 320,
  "οικια": 320,
  "κυκλου": 320,
  "ωσιν": 320,
  "οικειων": 320,
  "θαυμαστον": 319,
  "μα": 319,
  "βραχυ": 319,
  "διαλεκ": 318,
  "##τειν": 318,
  "οξυ": 318,
  "διος": 317,
  "κακιας": 317,
  "τωδε": 317,
  "αναγκαιας": 317,
  "βουλη": 316,
  "πλειστα": 316,
  "αντιστρεφει": 316,
  "μανθανειν": 316,
  "εθ": 315,
  "σκεπτεον": 315,
  "καλου": 314,
  "πληθους": 313,
  "συμβαινειν": 313,
  "πρωτης": 313,
  "ταδε": 312,
  "τοιαυτας": 312,
  "πολλη": 312,
  "δοξειεν": 312,
  "φιλιαν": 311,
  "##σαντες": 311,
  "##ροι": 311,
  "αποφατικης": 311,
  "δεικνυ": 310,
  "πολλω": 310,
  "αποκριν": 310,
  "μονου": 310,
  "νοει": 310,
  "ζωη": 310,
  "νομιζειν": 309,
  "##μος": 309,
  "νοητον": 309,
  "ελεγεν": 308,
  "##ρου": 308,
  "εκεινην": 308,
  "οιδεν": 308,
  "στερη": 308,
  "δοκουσιν": 307,
  "##ζεσθαι": 307,
  "τεσσαρων": 307,
  "υπαρχοντων": 307,
  "γενησεται": 306,
  "καταφατικη": 306,
  "##σε": 305,
  "αποφα": 305,
  "τελειον": 305,
  "μηθεν": 305,
  "ημισυ": 305,
  "χρωνται": 304,
  "σωμασιν": 304,
  "γενεσει": 304,
  "φθειρεται": 304,
  "μουσικον": 304,
  "γυναικων": 303,
  "αφη": 303,
  "εντελεχεια": 303,
  "φωτος": 302,
  "ποιουν": 302,
  "τοιουτω": 302,
  "τροπω": 301,
  "ιδιαν": 301,
  "νω": 301,
  "μειζω": 301,
  "ειρημενον": 301,
  "συμβεβηκε": 301,
  "ϛʹ": 301,
  "##κοις": 300,
  "αριστα": 300,
  "##ωμεθα": 300,
  "θατερου": 300,
  "συνεχως": 300,
  "φιλιας": 299,
  "εμψυχον": 299,
  "γιγνομενα": 299,
  "προτασεως": 299,
  "αναιρ": 298,
  "βουλει": 298,
  "δογματι": 298,
  "##οιτ": 298,
  "ενθα": 298,
  "υγιεια": 298,
  "ανδρεια": 298,
  "ανδρας": 297,
  "σοφος": 297,
  "##ησιν": 297,
  "υγιειας": 297,
  "τοιαυται": 297,
  "διπλασιον": 296,
  "##κην": 296,
  "##στον": 296,
  "ευδαιμον": 296,
  "##τικας": 296,
  "πληθει": 296,
  "##ησει": 296,
  "φαινομενα": 296,
  "συλλογισμοι": 296,
  "επτα": 295,
  "##ικην": 295,
  "ειμαρμενην": 295,
  "φρονησιν": 295,
  "οποτε": 294,
  "θανατον": 294,
  "ονοματι": 294,
  "κοινως": 294,
  "##ειαν": 294,
  "τοιονδε": 294,
  "πολλαι": 293,
  "καρδιαν": 293,
  "τοιουτους": 293,
  "τιν": 293,
  "ζητει": 293,
  "ταυταις": 293,
  "χρωματων": 293,
  "φορας": 293,
  "οσων": 293,
  "ουσαι": 293,
  "ολης": 293,
  "εχουσαν": 292,
  "μεταβολης": 292,
  "αλληλαις": 292,
  "##τερος": 291,
  "λεγοντας": 291,
  "φιλοσοφιαν": 291,
  "φθορας": 291,
  "νυνδη": 291,
  "πολεμον": 290,
  "ασωματον": 290,
  "προσ": 289,
  "ετεροι": 289,
  "εκατερα": 289,
  "ετεροις": 288,
  "επιθυμια": 288,
  "##ιου": 288,
  "παραπαν": 288,
  "νεων": 287,
  "##δα": 287,
  "οργανον": 287,
  "ξηρον": 287,
  "δυας": 287,
  "παιδας": 286,
  "##κης": 286,
  "πολιτειαν": 286,
  "γνωσιν": 286,
  "τριγωνον": 286,
  "σωκρατους": 285,
  "αρετων": 285,
  "χρειαν": 284,
  "φερειν": 284,
  "φιλοσοφια": 284,
  "##ουμενου": 284,
  "ευρειν": 284,
  "φρονησεως": 284,
  "αριθμοι": 284,
  "αντικειμενα": 284,
  "αιτιος": 283,
  "φαινονται": 283,
  "επιθυμιαν": 283,
  "εκεινους": 282,
  "προαιρεσιν": 282,
  "αρρεν": 282,
  "αδιαιρετον": 282,
  "##αμενος": 281,
  "απορ": 281,
  "αισθανεται": 281,
  "χρωμενος": 280,
  "βαδιζειν": 280,
  "ολιγου": 280,
  "ψυχρου": 280,
  "θερμοτητα": 280,
  "κρινειν": 280,
  "οικειας": 280,
  "αντικειμενων": 280,
  "μεγεθει": 279,
  "εδοκει": 279,
  "ορω": 279,
  "##μ": 279,
  "αμφοτεροις": 279,
  "υγρα": 279,
  "εκαστης": 279,
  "διαφορων": 279,
  "ληφθη": 279,
  "λεγοντα": 278,
  "ενεργειν": 278,
  "φης": 278,
  "μετεχει": 278,
  "αξιοι": 278,
  "βουλονται": 277,
  "ζωης": 277,
  "ομοιου": 277,
  "σχηματα": 277,
  "οροι": 277,
  "βαρος": 277,
  "γινομενη": 277,
  "αξιαν": 275,
  "φρονειν": 275,
  "λειπεται": 275,
  "τελει": 275,
  "νοησις": 275,
  "προσχ": 275,
  "μεσος": 275,
  "ενδεχομενου": 275,
  "περιττωμα": 274,
  "##περ": 274,
  "ξυλον": 274,
  "υπαρχοντα": 274,
  "μονην": 273,
  "##οτερον": 273,
  "ειρηκεν": 273,
  "##οτητος": 273,
  "σχηματων": 273,
  "λευκω": 273,
  "γυναικος": 272,
  "ειχεν": 272,
  "εναντιας": 272,
  "φοραν": 272,
  "επιφανεια": 272,
  "ελεγε": 271,
  "ουδενα": 271,
  "ανδρι": 271,
  "μηδεμιαν": 271,
  "μου": 271,
  "αληθεια": 271,
  "σοφιας": 271,
  "αγαθοι": 271,
  "φησομεν": 271,
  "κατηγορεισθαι": 271,
  "χρεια": 270,
  "τοποις": 270,
  "##ουμενος": 270,
  "συναγ": 270,
  "κρειττον": 270,
  "παση": 270,
  "##μεναι": 270,
  "ευδαιμονια": 270,
  "διδοναι": 269,
  "κεφαλην": 269,
  "ικανον": 269,
  "σωζ": 269,
  "τοσαυτα": 269,
  "υποκειται": 269,
  "βιος": 268,
  "ενιων": 268,
  "εχοντι": 268,
  "οποιον": 268,
  "λοιπων": 268,
  "δευτερα": 268,
  "αμφοτεραι": 268,
  "ενεστι": 267,
  "##νε": 267,
  "συνεχη": 267,
  "υγεια": 267,
  "ολη": 267,
  "πιστιν": 266,
  "απασι": 266,
  "κριτηριον": 266,
  "τεσσαρα": 266,
  "τεχνας": 266,
  "εθος": 265,
  "##τικοις": 265,
  "ολην": 265,
  "γνωσις": 265,
  "σωφροσυνη": 265,
  "θεωρειν": 265,
  "απαξ": 264,
  "υμας": 264,
  "##νον": 264,
  "ορμη": 264,
  "μοναδος": 264,
  "##σεν": 263,
  "δεησει": 263,
  "σεληνης": 263,
  "##τει": 263,
  "θνητον": 263,
  "μουσικος": 263,
  "λεγοιτο": 263,
  "διαιρε": 263,
  "λευκος": 263,
  "καταφατικην": 263,
  "οδον": 262,
  "μηδενα": 262,
  "##ματων": 262,
  "δοξη": 262,
  "ψυχας": 262,
  "οπη": 262,
  "ουδεμιαν": 262,
  "ποιητικα": 262,
  "ηδεως": 261,
  "φιλος": 261,
  "εχοντας": 261,
  "##ικης": 261,
  "δικαιοσυνην": 261,
  "ουσι": 261,
  "εναντιω": 261,
  "ρητεον": 261,
  "οποια": 261,
  "δεη": 260,
  "##ικων": 260,
  "##μενως": 260,
  "##ζει": 260,
  "εμοιγε": 260,
  "παρεχει": 260,
  "αττα": 260,
  "ιδιων": 260,
  "προκειμενου": 260,
  "εχω": 259,
  "νοσον": 259,
  "##ασιν": 259,
  "##κας": 259,
  "ιατρικη": 259,
  "ζητουμεν": 259,
  "κακιαν": 259,
  "##ομαι": 258,
  "##τως": 258,
  "##μην": 258,
  "σοφιαν": 258,
  "συνθετον": 258,
  "γεωμετ": 258,
  "αιει": 258,
  "δοξει": 258,
  "συζυγια": 258,
  "πατερα": 257,
  "βαδι": 257,
  "περιττον": 257,
  "σκοπου": 257,
  "ευθειας": 257,
  "ποσου": 257,
  "καταφασις": 257,
  "ταξει": 256,
  "ραον": 256,
  "εμπεδοκλης": 256,
  "εξεως": 256,
  "μαθηματικα": 256,
  "τριτου": 256,
  "δʹ": 256,
  "##αντος": 255,
  "γενομενης": 255,
  "διαφεροντα": 255,
  "οιδα": 255,
  "##ειας": 255,
  "ελεγομεν": 255,
  "##ουσων": 255,
  "##ετω": 255,
  "ποιοτης": 255,
  "εποιησεν": 254,
  "αφαιρ": 254,
  "αληθεις": 254,
  "μαθειν": 254,
  "καλειν": 254,
  "ανα": 254,
  "δικαιος": 253,
  "υπερβολην": 253,
  "επομενα": 253,
  "γυναικα": 252,
  "προβληματα": 252,
  "αντιστρεφ": 252,
  "εχεις": 251,
  "αοριστον": 251,
  "οραται": 251,
  "##μοις": 251,
  "γινομενης": 251,
  "φυτα": 250,
  "στερησιν": 250,
  "υ": 250,
  "δεον": 250,
  "εφαμεν": 250,
  "αισθητοις": 250,
  "κειμενων": 250,
  "##ησας": 249,
  "σημαινειν": 249,
  "τεχνων": 249,
  "αστρων": 249,
  "ορισ": 249,
  "δυαδος": 249,
  "θεωρια": 249,
  "βασιλευς": 248,
  "καιρον": 248,
  "μηδεποτε": 248,
  "υμων": 248,
  "οικιαν": 248,
  "δοκω": 248,
  "σωμασι": 248,
  "φυσεις": 248,
  "ορμην": 248,
  "καταφα": 248,
  "διαιρειται": 248,
  "##αντα": 247,
  "διχα": 247,
  "υπαρχουσα": 247,
  "φυσικων": 247,
  "πραξεων": 246,
  "δεινον": 246,
  "##εστερον": 246,
  "καρδιας": 246,
  "νοσω": 245,
  "ζη": 245,
  "ειρησθαι": 245,
  "ωρισμενον": 245,
  "υποκειμενων": 245,
  "ποιοτητα": 245,
  "μελλοντα": 244,
  "##ναι": 244,
  "θαλαττης": 244,
  "χρωματα": 244,
  "κυκλον": 244,
  "υποθεσιν": 244,
  "##τεροι": 244,
  "μεγεθη": 244,
  "##ικος": 243,
  "πολιτεια": 243,
  "ακινητον": 243,
  "τεταρτον": 243,
  "φιλε": 243,
  "συμπερασματος": 243,
  "αισθητου": 242,
  "παντ": 242,
  "ωδι": 242,
  "σημαινομενον": 242,
  "αντικειται": 242,
  "ματην": 242,
  "##κους": 241,
  "δεισθαι": 241,
  "μελλει": 241,
  "##μοι": 241,
  "ποσα": 241,
  "φυτων": 240,
  "σαρκος": 240,
  "οργανων": 240,
  "εδειχθη": 240,
  "φιλη": 239,
  "αισθαν": 239,
  "δεκτικον": 239,
  "εσμεν": 239,
  "μ": 238,
  "ενδον": 238,
  "υπερβολη": 238,
  "αλλαις": 238,
  "χρυσιππος": 238,
  "##αμενοι": 238,
  "ιδεαι": 238,
  "μονης": 238,
  "συμβεβηκοτος": 238,
  "βασιλεως": 237,
  "##ενο": 237,
  "ταχ": 237,
  "ιατρος": 237,
  "πολλης": 237,
  "γιγνωσ": 237,
  "πασαις": 237,
  "##τερων": 237,
  "συγκατα": 237,
  "αισθητικον": 237,
  "επιστα": 237,
  "πλουτον": 237,
  "γραμμης": 237,
  "χωριζ": 237,
  "τυχην": 236,
  "ομηρος": 236,
  "##μενας": 236,
  "ελθειν": 236,
  "##τατος": 236,
  "ερως": 236,
  "αναγκην": 236,
  "κυκλος": 236,
  "##σεων": 235,
  "πολιτων": 235,
  "ομοιων": 235,
  "εκατερω": 235,
  "ληπτεον": 235,
  "παροντος": 234,
  "ερουμεν": 234,
  "κινουμενα": 234,
  "αισθη": 234,
  "##ικου": 234,
  "μονων": 234,
  "ωσι": 234,
  "αποδοθεν": 234,
  "##στα": 233,
  "αγαθους": 233,
  "##οτερα": 233,
  "ορατον": 233,
  "##μι": 233,
  "σμικρον": 233,
  "σκοπει": 233,
  "ιεναι": 233,
  "δευτερου": 233,
  "ολιγα": 232,
  "πλειονος": 232,
  "κοσμω": 232,
  "εκων": 232,
  "αξια": 232,
  "κεισθαι": 232,
  "ενεργειαι": 232,
  "λεγομενου": 232,
  "προβληματων": 232,
  "θερμοτης": 232,
  "αναλογιαν": 232,
  "οινον": 231,
  "απαντες": 231,
  "τροπους": 231,
  "οινου": 231,
  "προειρημενων": 231,
  "αντιφασιν": 231,
  "τυγχανειν": 230,
  "καλλιον": 230,
  "χυμων": 230,
  "##οιεν": 230,
  "δοκουσι": 230,
  "λεξιν": 230,
  "κατασκευασ": 230,
  "αυτοθεν": 230,
  "θετεον": 230,
  "συμβησεται": 230,
  "αντιφασεως": 230,
  "ενδεχομενης": 230,
  "##ιω": 229,
  "ακρων": 229,
  "παραπλησιως": 229,
  "διεξ": 229,
  "μαθηματων": 229,
  "απορια": 229,
  "αποριας": 229,
  "μεγαλων": 229,
  "οινος": 229,
  "διχως": 229,
  "ειχε": 228,
  "##τικους": 228,
  "πεζον": 228,
  "λεγουσα": 228,
  "παροντων": 227,
  "παθειν": 227,
  "πατρι": 227,
  "τιμη": 227,
  "φιλοσοφου": 227,
  "αγνοιαν": 227,
  "δεικνυς": 227,
  "συλλογιστικη": 227,
  "σκεπ": 226,
  "γιγνομενων": 226,
  "ιδεα": 226,
  "ποιη": 226,
  "##ητεον": 226,
  "δοξας": 226,
  "λυπης": 226,
  "απασιν": 226,
  "αμφισβητ": 225,
  "ιππου": 225,
  "ιδων": 225,
  "τιμης": 225,
  "οδε": 225,
  "φθειρεσθαι": 225,
  "γʹ": 225,
  "οψει": 224,
  "##δεις": 224,
  "ουσας": 224,
  "ανακλ": 224,
  "θεια": 224,
  "##κειν": 223,
  "θανατου": 223,
  "υγιαινειν": 223,
  "ευπο": 223,
  "##ρια": 223,
  "##μη": 223,
  "υγρω": 223,
  "φερομενον": 223,
  "ανισον": 223,
  "ειμι": 222,
  "πλουτος": 222,
  "εργω": 222,
  "ηθος": 222,
  "οργανα": 222,
  "κεφαλη": 222,
  "λανθαν": 222,
  "ακοη": 222,
  "θεωριαν": 222,
  "αδικον": 222,
  "ενδεχομενη": 222,
  "απαντας": 221,
  "ουδετερον": 221,
  "σοφον": 221,
  "τουθ": 221,
  "υγιειν": 221,
  "αριθμοις": 221,
  "δειξιν": 221,
  "διαλεγεσθαι": 220,
  "ιππον": 220,
  "σημεια": 220,
  "##μω": 220,
  "δυναμενος": 220,
  "##λον": 220,
  "αναγ": 220,
  "δυαδα": 220,
  "συστασιν": 220,
  "εννεα": 220,
  "ορας": 220,
  "μνημη": 220,
  "νομοις": 220,
  "δεχεται": 220,
  "αποφατικην": 220,
  "μηπω": 219,
  "##θω": 219,
  "εχουσης": 219,
  "##ουμενα": 219,
  "πλουτου": 219,
  "λεγη": 219,
  "εδειξεν": 219,
  "ορθον": 219,
  "αποδεικ": 219,
  "πλειονα": 218,
  "λεγοντων": 218,
  "παιδες": 218,
  "καλλιστα": 218,
  "ακουσαι": 218,
  "αθανατον": 218,
  "κοινωνιαν": 218,
  "φιλου": 218,
  "ωφελιμον": 218,
  "εμπαλιν": 218,
  "συνισταται": 218,
  "ηγεισθαι": 217,
  "βαθος": 217,
  "σεληνην": 217,
  "συμφυ": 217,
  "φαιη": 217,
  "θυμον": 217,
  "ειρηκε": 217,
  "κινησεων": 217,
  "ευθειαν": 217,
  "αριθμη": 216,
  "γυναικας": 216,
  "εκειθεν": 216,
  "δεχεσθαι": 216,
  "σχεσιν": 216,
  "ψυχαις": 216,
  "γιγνηται": 216,
  "απειρος": 215,
  "ανδρειαν": 215,
  "κρισιν": 215,
  "ομολογ": 215,
  "χειμωνος": 215,
  "παρειναι": 215,
  "λυπην": 215,
  "τωνδε": 215,
  "αλληλας": 215,
  "συνεχης": 215,
  "##ροις": 214,
  "αυξησιν": 214,
  "ιδιως": 214,
  "εννοιαν": 214,
  "##ομεναι": 214,
  "ηπερ": 214,
  "μαθημα": 214,
  "υπαρχοντος": 214,
  "π": 214,
  "φευγειν": 213,
  "φαυλον": 213,
  "εκαστοις": 213,
  "πορρωθεν": 213,
  "ιδεαν": 213,
  "σεληνη": 213,
  "εκαστοτε": 213,
  "ες": 213,
  "εμποδι": 213,
  "ποιοτητος": 213,
  "αιρετωτερα": 213,
  "##δους": 212,
  "πεπερασμενον": 212,
  "μορφην": 212,
  "κακεινο": 212,
  "αρμονια": 212,
  "εισω": 212,
  "υπαρχουσης": 212,
  "γενομενου": 211,
  "##ρη": 211,
  "##ιζειν": 211,
  "αγαθοις": 211,
  "φαυλα": 211,
  "ηδε": 211,
  "μεγιστα": 211,
  "φιλειν": 210,
  "χειρων": 210,
  "μει": 210,
  "θεωριας": 210,
  "πολεσιν": 209,
  "ετερους": 209,
  "ετη": 209,
  "ωσθ": 209,
  "επιπεδον": 209,
  "δυσ": 208,
  "##ησεται": 208,
  "ηδοναι": 208,
  "επιστητον": 208,
  "μετριως": 207,
  "χρωμενοι": 207,
  "κινουμενου": 207,
  "αποδεδ": 207,
  "εχρην": 206,
  "προστιθε": 206,
  "##υμ": 205,
  "##πον": 205,
  "πανταπασι": 205,
  "κεφαλης": 205,
  "##οιντο": 205,
  "φυσικη": 205,
  "υποκειμενα": 205,
  "μαλιστ": 205,
  "οπωσουν": 205,
  "μονοις": 204,
  "φιλοις": 204,
  "##ιτ": 204,
  "ανεπι": 204,
  "επιθυμη": 204,
  "##ουμεθα": 204,
  "θαλατταν": 204,
  "γραμμην": 204,
  "σαρξ": 204,
  "##ευειν": 203,
  "υμεις": 203,
  "προηγουμενως": 203,
  "##στος": 203,
  "θυμου": 203,
  "ακολουθειν": 203,
  "οσοις": 203,
  "ζητουμενον": 203,
  "υποθε": 203,
  "##ιοις": 202,
  "##ρους": 202,
  "##ζεται": 202,
  "λεγομενοις": 202,
  "τοιουτο": 202,
  "ειρημενοις": 202,
  "νοητα": 202,
  "υγιεινον": 202,
  "ευδαιμονιας": 202,
  "χρωματος": 202,
  "##οιη": 202,
  "επειπερ": 202,
  "απλων": 202,
  "ταχεως": 201,
  "κενου": 201,
  "παιδια": 201,
  "##εστατον": 201,
  "ταγαθον": 201,
  "γεγονος": 201,
  "χαλκος": 201,
  "αντιστροφης": 201,
  "θʹ": 201,
  "βελτιων": 200,
  "##πε": 200,
  "##υς": 200,
  "προσεθηκε": 200,
  "αισχρα": 200,
  "πραγματειας": 200,
  "φθοραν": 200,
  "θεωρη": 200,
  "σπερματος": 200,
  "καλουσιν": 200,
  "λιθος": 200,
  "ισχυν": 200,
  "αποφασιν": 200,
  "υποτε": 200,
  "καθοσον": 200,
  "οιεσθαι": 199,
  "υιον": 199,
  "μεγαλου": 199,
  "αγειν": 199,
  "νυκτος": 199,
  "##σθω": 199,
  "ειλημ": 199,
  "##τατη": 199,
  "μαθηματα": 199,
  "χρειας": 199,
  "##δας": 198,
  "##ιος": 198,
  "περαι": 198,
  "τιμην": 198,
  "καιπερ": 198,
  "ενιοις": 198,
  "δοκεις": 198,
  "##οτατον": 198,
  "αποδειξεις": 198,
  "πρακ": 198,
  "εγινετο": 198,
  "διαιρεσις": 198,
  "δειξει": 198,
  "εμφ": 197,
  "φιλοσοφων": 197,
  "γνωναι": 197,
  "ισχ": 197,
  "ποτερα": 197,
  "ακουσ": 197,
  "πω": 197,
  "διαφερ": 197,
  "χρησιμα": 197,
  "υγια": 197,
  "μενον": 197,
  "ποιουντες": 197,
  "κοιλιας": 197,
  "μοναδα": 196,
  "##λου": 196,
  "##ησεν": 196,
  "γυνη": 196,
  "##ικα": 196,
  "υπαρχουσαν": 196,
  "κουφον": 196,
  "##τια": 196,
  "αρεται": 196,
  "ορεξις": 196,
  "υστερα": 196,
  "κοινην": 196,
  "συμβεβηκοτων": 196,
  "ενδεχ": 196,
  "φλεβων": 196,
  "δικαιου": 195,
  "δημοκριτος": 195,
  "##ουσας": 195,
  "##ησις": 195,
  "ισμεν": 195,
  "##σεσι": 195,
  "επαιν": 195,
  "υπεροχην": 195,
  "καθαρον": 195,
  "απλη": 195,
  "καλω": 194,
  "##μους": 194,
  "συναπ": 194,
  "##χε": 194,
  "ηγη": 194,
  "νυνι": 194,
  "τοιαδε": 194,
  "συνει": 194,
  "δυναιτο": 194,
  "##ζον": 193,
  "τοσουτω": 193,
  "λανθανειν": 193,
  "##οτητι": 193,
  "ενθαδε": 193,
  "διαφεροντως": 193,
  "γιγνοιτο": 193,
  "υγειας": 193,
  "##ησαν": 192,
  "φυσικον": 192,
  "αληθων": 192,
  "οιδε": 192,
  "επιστημον": 192,
  "κακω": 192,
  "ακρο": 192,
  "μουσικη": 192,
  "##σαμεν": 191,
  "δεοι": 191,
  "##υν": 191,
  "εναργως": 191,
  "στομα": 191,
  "απτεσθαι": 191,
  "μοναδες": 191,
  "δηλωτικον": 191,
  "γενομενων": 190,
  "##ουσθαι": 190,
  "παιδειας": 190,
  "##στι": 190,
  "στοματος": 189,
  "##ουντι": 189,
  "υπει": 189,
  "βελτιστον": 189,
  "πραξις": 189,
  "προαιρεσις": 189,
  "νομω": 189,
  "υπαρχη": 189,
  "οφελος": 188,
  "##δην": 188,
  "απολειπ": 188,
  "##σαντα": 188,
  "σοφιστ": 188,
  "##εναι": 188,
  "φυτοις": 188,
  "ποιητης": 188,
  "αρχαις": 188,
  "ηδεα": 188,
  "φερει": 188,
  "κατηγοριας": 188,
  "ενυπαρχον": 188,
  "χωρα": 187,
  "αντιφ": 187,
  "##ζοντες": 187,
  "λαβοντες": 187,
  "ψευδεις": 187,
  "λεξεως": 187,
  "σωφροσυνης": 187,
  "ελεγετο": 187,
  "επιφερει": 187,
  "ωτα": 186,
  "αφε": 186,
  "##δον": 186,
  "##ρε": 186,
  "ηλικιαν": 186,
  "καθαρ": 186,
  "γελοιον": 186,
  "##χθαι": 186,
  "ουκετ": 186,
  "ελευθερι": 186,
  "τροπων": 186,
  "ξ": 186,
  "πολεων": 185,
  "ψευδους": 185,
  "συνεβη": 185,
  "περ": 185,
  "παρεχειν": 185,
  "χωριστον": 185,
  "οκτω": 185,
  "ακοης": 185,
  "ανδρειος": 185,
  "##τατην": 185,
  "τιθεσθαι": 185,
  "κεντρον": 185,
  "##ζων": 184,
  "ανδρειας": 184,
  "μεταλαμβαν": 184,
  "τελεως": 184,
  "πρωτοις": 184,
  "τεκμηριον": 184,
  "ποιω": 184,
  "απλα": 184,
  "μερι": 184,
  "ακολουθον": 184,
  "εξετα": 184,
  "επιστημας": 184,
  "μεταβαλλον": 184,
  "δεικνυμεν": 184,
  "ενδεχομενων": 184,
  "υπερεχ": 184,
  "κρατειν": 183,
  "φανερως": 183,
  "απειρου": 183,
  "πλειστοι": 183,
  "λογισ": 183,
  "δυσιν": 183,
  "χωρισ": 183,
  "ηρεμειν": 183,
  "βʹ": 183,
  "παις": 182,
  "ελληνων": 182,
  "λαβη": 182,
  "αιρε": 182,
  "βουλεσθαι": 182,
  "##τητι": 182,
  "γινομενου": 182,
  "οτω": 182,
  "τονδε": 182,
  "ογκον": 182,
  "σ": 182,
  "ωρισται": 182,
  "ταυτου": 182,
  "διαιρ": 182,
  "πλειων": 182,
  "μνημονευ": 182,
  "διαιρετον": 182,
  "αφης": 182,
  "κυριον": 181,
  "αγαν": 181,
  "βλεπειν": 181,
  "##ρειν": 181,
  "φοβον": 181,
  "αρχεσθαι": 181,
  "εκουσιον": 181,
  "εναντιως": 181,
  "ταυτω": 181,
  "κοινωνια": 181,
  "##ουση": 181,
  "αλλοτριον": 181,
  "αυξησις": 181,
  "ορισμου": 181,
  "επιμελειαν": 180,
  "##ηναι": 180,
  "πραγματι": 180,
  "##οσ": 180,
  "##οτα": 180,
  "δοξαζ": 180,
  "πραξιν": 180,
  "##ιζεσθαι": 180,
  "δυναμενων": 180,
  "αναγκαιως": 180,
  "εδειξε": 180,
  "ιδεων": 180,
  "δειξις": 180,
  "παι": 179,
  "ασθενειαν": 179,
  "##ρει": 179,
  "σφαιρα": 179,
  "βελτιω": 179,
  "##ωμενον": 179,
  "αλλοτε": 179,
  "ορισμω": 179,
  "ιερων": 178,
  "δυειν": 178,
  "θανατος": 178,
  "##ασι": 178,
  "ετυχεν": 178,
  "##αμενον": 178,
  "προνοιαν": 178,
  "τελειου": 178,
  "διδασκειν": 178,
  "##λα": 178,
  "φθειρ": 178,
  "κατασκευην": 178,
  "ταξις": 178,
  "επιστημαι": 178,
  "δειχθησεται": 178,
  "αντιστρεφειν": 178,
  "γενεσεις": 177,
  "ταξεως": 177,
  "μοριου": 177,
  "πραττει": 177,
  "αρμονιαν": 177,
  "διαστηματος": 177,
  "σαρκα": 177,
  "δικαιων": 176,
  "ακουσας": 176,
  "νοσος": 176,
  "αιτιου": 176,
  "νυξ": 176,
  "ουρανω": 176,
  "νευρων": 176,
  "αμηχανον": 176,
  "ομωνυμως": 176,
  "##ουμενη": 176,
  "ειρηκαμεν": 176,
  "ποσω": 176,
  "επαγωγης": 176,
  "διαφανες": 176,
  "διαθεσιν": 175,
  "αξιωμα": 175,
  "γυμναστικη": 175,
  "προδι": 175,
  "δοξαι": 175,
  "διαιρεσεως": 175,
  "ισω": 175,
  "σημειου": 175,
  "γνωριζειν": 175,
  "ειποντος": 174,
  "φευ": 174,
  "γραμματα": 174,
  "αιρεσιν": 174,
  "συλλογισμους": 174,
  "υπνος": 174,
  "ταληθες": 174,
  "συνεπ": 174,
  "ηλικιας": 174,
  "χρησιμος": 174,
  "μεγαλην": 173,
  "οργης": 173,
  "ορασθαι": 173,
  "εποιησε": 173,
  "ψεγ": 173,
  "επιστη": 173,
  "τετταρα": 173,
  "πλατωνι": 173,
  "δραν": 173,
  "ισου": 173,
  "##μια": 173,
  "φωτι": 173,
  "ενεργειαις": 173,
  "ταυθ": 173,
  "νοητων": 173,
  "λυπας": 173,
  "παρον": 173,
  "ελαττονι": 173,
  "αμφοτερας": 173,
  "κοιλιαν": 173,
  "σμικ": 172,
  "ειχον": 172,
  "αποβ": 172,
  "παιδειαν": 172,
  "παιδευ": 172,
  "αυτικα": 172,
  "καλουμεν": 172,
  "ισας": 172,
  "ενδοξον": 172,
  "διαφεροντων": 172,
  "απαγωγης": 172,
  "πραγμασιν": 171,
  "πειθεσθαι": 171,
  "##σια": 171,
  "περατα": 171,
  "##δυ": 171,
  "υποστασιν": 171,
  "νοσου": 171,
  "αφην": 171,
  "##χη": 171,
  "συνο": 171,
  "αμερες": 171,
  "ενδεχομενα": 171,
  "αναιρειται": 171,
  "συλλογιστικως": 171,
  "εργοις": 170,
  "καγαθ": 170,
  "αργυριον": 170,
  "κ": 170,
  "αδυνατα": 170,
  "ακρον": 170,
  "πασχον": 170,
  "πραξεως": 170,
  "συγκειται": 170,
  "δεικ": 170,
  "##ζουσιν": 169,
  "ξηρα": 169,
  "##δε": 169,
  "οικει": 169,
  "ζευς": 169,
  "σπουδης": 169,
  "αναποδεικ": 169,
  "διαφαν": 169,
  "υγροτητα": 169,
  "κατωθεν": 169,
  "κυριω": 169,
  "σωφρονι": 169,
  "οιοι": 169,
  "διαθεσις": 169,
  "δεονται": 169,
  "διι": 169,
  "υγρων": 169,
  "ενεργειων": 169,
  "##τερου": 169,
  "λεγομενη": 169,
  "τιθεμενοι": 169,
  "ορου": 169,
  "αισθητηριον": 169,
  "προστιθησι": 169,
  "αξιος": 168,
  "δοκουντα": 168,
  "γυναικες": 168,
  "##κτον": 168,
  "##σαντος": 168,
  "ποδας": 168,
  "αγνοειν": 168,
  "υπολαμβανειν": 168,
  "επιμελεισθαι": 168,
  "σμικρα": 168,
  "##οιμεν": 168,
  "θεσει": 168,
  "ομωνυμον": 168,
  "γεννα": 168,
  "οφειλει": 168,
  "λαμβανεται": 168,
  "εγκεφαλον": 168,
  "##ησεις": 167,
  "πολιτας": 167,
  "μεθοδον": 167,
  "αρχοντας": 167,
  "δοκουν": 167,
  "##ασα": 167,
  "ταχιστα": 167,
  "οισθα": 167,
  "##ημα": 167,
  "πικρον": 167,
  "ανελευθ": 167,
  "ειδοποι": 167,
  "μελανος": 167,
  "διελ": 166,
  "ιππων": 166,
  "τιθεναι": 166,
  "##ζουσι": 166,
  "συγκριν": 166,
  "φυσικα": 166,
  "ωμολογ": 166,
  "απτεται": 166,
  "λεξει": 166,
  "οριζ": 166,
  "μοναδων": 166,
  "ελαττους": 166,
  "επιζητ": 166,
  "συνι": 166,
  "μετρου": 166,
  "εγκεφαλου": 166,
  "αποδο": 165,
  "αθηναιων": 165,
  "μικρου": 165,
  "μυρια": 165,
  "αποδουναι": 165,
  "αναγκαιου": 165,
  "πεισ": 165,
  "γιγνωσκειν": 165,
  "ανωτατω": 165,
  "κατασκευαζειν": 165,
  "μανθαν": 165,
  "ιδιου": 165,
  "κοινοτερον": 165,
  "αναπνε": 165,
  "##νου": 164,
  "διδωσιν": 164,
  "προσει": 164,
  "προνοιας": 164,
  "οφθαλμων": 164,
  "##ετο": 164,
  "τιμων": 164,
  "βεβαι": 164,
  "νοησει": 164,
  "κρι": 164,
  "σπουδαιος": 164,
  "συμβαινον": 164,
  "πεφυκος": 164,
  "αναγκαιαν": 164,
  "διωρισ": 164,
  "συζυγιας": 164,
  "μολις": 163,
  "##ματος": 163,
  "γνωμην": 163,
  "##ιαις": 163,
  "καλουσι": 163,
  "διαφορον": 163,
  "##εντος": 163,
  "##τατων": 163,
  "ηθη": 163,
  "αυξη": 163,
  "σφαιρας": 163,
  "φθαρ": 163,
  "αναλυ": 163,
  "μουσικην": 163,
  "δημοσια": 163,
  "ποιηται": 163,
  "τιθεμεν": 163,
  "διπ": 163,
  "ν": 163,
  "επισκεπτεον": 162,
  "κλειν": 162,
  "##ιαι": 162,
  "αναξαγορας": 162,
  "μηποτε": 162,
  "##ζομενον": 162,
  "σωφροσυνην": 162,
  "ελαχιστον": 162,
  "ελεχθη": 162,
  "μοναδι": 162,
  "ακολουθησει": 162,
  "βουλομεθα": 161,
  "αιρεισθαι": 161,
  "##κοτα": 161,
  "ηγεμονικον": 161,
  "πλατωνα": 161,
  "τελειος": 161,
  "##λε": 161,
  "λογισμου": 161,
  "γενναν": 161,
  "λογισμον": 161,
  "ουρανος": 161,
  "σωκρατει": 161,
  "##ησε": 160,
  "εξα": 160,
  "χειρας": 160,
  "οριζεται": 160,
  "ειδοτες": 160,
  "τυπω": 160,
  "##σονται": 160,
  "εαυτη": 160,
  "γιγν": 160,
  "μεσων": 160,
  "αναιρειν": 160,
  "οσφραν": 160,
  "ηπαρ": 160,
  "μηδεις": 159,
  "μαν": 159,
  "ησυχιαν": 159,
  "##οκ": 159,
  "διελθειν": 159,
  "αποδεικνυ": 159,
  "ποιητεον": 159,
  "νοησιν": 159,
  "αρρενος": 159,
  "##σω": 159,
  "οιδ": 159,
  "δυνατω": 159,
  "τυχειν": 159,
  "μελλον": 159,
  "τυχον": 159,
  "μνημην": 159,
  "ζητησιν": 159,
  "ολιγων": 159,
  "πλεοναχως": 159,
  "διων": 158,
  "μελλων": 158,
  "##πω": 158,
  "φαινομενων": 158,
  "αδικια": 158,
  "σαφες": 158,
  "σπουδαια": 158,
  "υπηρετ": 158,
  "ποιοι": 158,
  "παροντι": 158,
  "ιατρικης": 158,
  "πανθ": 158,
  "ενεργει": 158,
  "ισαι": 158,
  "ιππω": 158,
  "μειζονι": 158,
  "##ηθη": 157,
  "δευτερος": 157,
  "σωζεσθαι": 157,
  "βασιλεα": 157,
  "πολεμου": 157,
  "ορωντες": 157,
  "γενομενοι": 157,
  "δοκουντων": 157,
  "γηρας": 157,
  "σαφεστερον": 157,
  "μερεσιν": 157,
  "επιφανειαν": 157,
  "ερω": 157,
  "γενοιτ": 157,
  "καλλιστον": 157,
  "αναγκαζ": 157,
  "##μο": 157,
  "θυμος": 157,
  "ιερον": 157,
  "επικ": 157,
  "##αινει": 157,
  "πραγματεια": 157,
  "διαφερουσιν": 157,
  "εκειτο": 157,
  "επιφανειας": 157,
  "σπουδαιον": 157,
  "αφθαρτον": 157,
  "προαιρε": 156,
  "##θεντας": 156,
  "##σθη": 156,
  "αμφοτεροι": 156,
  "##ειων": 156,
  "κοιν": 156,
  "##ουμενους": 156,
  "βουλευ": 156,
  "απορη": 156,
  "##ικως": 156,
  "συνημ": 156,
  "γαλα": 156,
  "καταληπ": 156,
  "σκοτος": 156,
  "##στω": 156,
  "χρηματισ": 156,
  "ιχθυων": 156,
  "##ιθ": 156,
  "προτερων": 156,
  "ιατρικην": 156,
  "γευσ": 156,
  "θεωρητικη": 156,
  "⸏": 156,
  "εχουσαι": 155,
  "ταγαθα": 155,
  "συνεκ": 155,
  "φιλοσοφειν": 155,
  "οικειου": 155,
  "ουδαμου": 155,
  "αιρ": 155,
  "εα": 155,
  "δεομενον": 155,
  "καταγελ": 155,
  "προσεθηκεν": 155,
  "διωρισται": 155,
  "συμφ": 155,
  "##τητος": 155,
  "μηθ": 155,
  "θηριων": 155,
  "οπισθεν": 155,
  "διδωσι": 155,
  "##ξει": 155,
  "ηρεμ": 155,
  "υγιες": 155,
  "εγχωρει": 155,
  "ζητησις": 155,
  "επιμελη": 154,
  "ρ": 154,
  "μεταβα": 154,
  "γινομενην": 154,
  "##αινειν": 154,
  "ιπποκρατης": 154,
  "χρησιν": 154,
  "ηνικα": 154,
  "αρχι": 154,
  "πολιτικον": 154,
  "φυτ": 154,
  "μεσοτης": 154,
  "μεσα": 154,
  "οργην": 153,
  "δοκη": 153,
  "νομου": 153,
  "σω": 153,
  "βελτιους": 153,
  "αγει": 153,
  "##ικοις": 153,
  "ποιας": 153,
  "περιεχον": 153,
  "##ψιν": 153,
  "συμπαντα": 153,
  "οσιον": 153,
  "λογισμω": 153,
  "μνημονευειν": 153,
  "ομοιοτ": 153,
  "##ποι": 153,
  "μελη": 153,
  "χωριστα": 153,
  "γραφειν": 153,
  "ορισμοι": 153,
  "ψυχρα": 153,
  "μιξεως": 153,
  "φλεγμα": 153,
  "συλλογ": 153,
  "αξιων": 152,
  "δεινα": 152,
  "##ικω": 152,
  "διαλυ": 152,
  "τρις": 152,
  "##ουμενης": 152,
  "δεξια": 152,
  "##ευ": 152,
  "αξιουν": 152,
  "##χον": 152,
  "##κ": 152,
  "επιχειρη": 152,
  "ποιοτητας": 152,
  "φαντασμα": 152,
  "ελκ": 152,
  "πωποτε": 152,
  "εαντε": 152,
  "ξενε": 152,
  "ψευδεσθαι": 152,
  "νοησαι": 152,
  "νομοι": 152,
  "ηγουμενον": 152,
  "αρτιον": 152,
  "θερμαι": 152,
  "δεδει": 152,
  "ειγε": 151,
  "##δου": 151,
  "##θεντι": 151,
  "απεργ": 151,
  "νοειται": 151,
  "συμβ": 151,
  "κινουμενων": 151,
  "##ουται": 151,
  "αισθανομεθα": 151,
  "συνεπι": 151,
  "##φ": 151,
  "πρεπον": 151,
  "κοινου": 151,
  "ακρα": 151,
  "αλλοιωσις": 151,
  "πορους": 151,
  "πραγμασι": 150,
  "##αμεν": 150,
  "κωλυ": 150,
  "τρεφ": 150,
  "##κοτες": 150,
  "δωδεκα": 150,
  "διττον": 150,
  "τρεφεσθαι": 150,
  "##δω": 150,
  "φησει": 150,
  "σωφρων": 150,
  "εγγυτερω": 150,
  "εικονα": 150,
  "μικ": 150,
  "ειδωλον": 150,
  "μερεσι": 150,
  "##ρηται": 150,
  "προειρημενα": 150,
  "συναγομενον": 150,
  "αιδιος": 150,
  "στιγμη": 150,
  "κυριος": 149,
  "##οτερος": 149,
  "##ομενας": 149,
  "κρασιν": 149,
  "ποιαν": 149,
  "##χως": 149,
  "ποι": 149,
  "επος": 149,
  "ηδ": 149,
  "σωτηριαν": 149,
  "πιθανον": 149,
  "πονου": 149,
  "ελαττονων": 149,
  "περιεχει": 149,
  "παραδειγματα": 149,
  "δηλουν": 149,
  "οικειω": 149,
  "ομοιω": 149,
  "θερμα": 149,
  "ολα": 149,
  "συνθεσιν": 149,
  "αιδια": 149,
  "##λ": 148,
  "##ργ": 148,
  "προσωπον": 148,
  "υπομενει": 148,
  "δημος": 148,
  "διαπορ": 148,
  "φυσικης": 148,
  "παγ": 148,
  "εσχατα": 148,
  "σοφοι": 148,
  "δυνατα": 148,
  "##νυ": 148,
  "τιμας": 148,
  "##ευεται": 148,
  "ετεραι": 148,
  "διορισμον": 148,
  "δεικνυμενον": 148,
  "συνεξ": 147,
  "##ζοντα": 147,
  "##ριων": 147,
  "εψ": 147,
  "##τερους": 147,
  "αδικιαν": 147,
  "κακ": 147,
  "ατομων": 147,
  "θειων": 147,
  "νομιζουσιν": 147,
  "θειου": 147,
  "ευδαιμονα": 147,
  "ηδοναις": 147,
  "παλαιων": 147,
  "μειζους": 147,
  "ποιοτητες": 147,
  "ομοιος": 147,
  "τηνδε": 147,
  "τριγωνου": 147,
  "ποιου": 147,
  "κρατη": 146,
  "ιματιον": 146,
  "μελλοντος": 146,
  "θαλασσης": 146,
  "##ινον": 146,
  "##εα": 146,
  "αλλοιωσιν": 146,
  "αστρα": 146,
  "φαντασ": 146,
  "νευρα": 146,
  "οτου": 146,
  "λεγε": 146,
  "##τουσιν": 146,
  "ποιουνται": 146,
  "τυχοι": 146,
  "δικη": 146,
  "ψοφος": 146,
  "εʹ": 146,
  "ορεξιν": 146,
  "αποδιδοναι": 146,
  "συνημμενον": 146,
  "δευτεραν": 145,
  "αιτιω": 145,
  "##να": 145,
  "##ευεσθαι": 145,
  "ωρας": 145,
  "γινωσκειν": 145,
  "αναι": 145,
  "μετε": 145,
  "οροις": 145,
  "##ττ": 145,
  "τροπου": 145,
  "αρκει": 145,
  "αιδου": 145,
  "οργη": 145,
  "φρονιμος": 145,
  "παθει": 145,
  "μουσικης": 145,
  "γινομενοις": 145,
  "κακοδαιμον": 145,
  "ψυχαι": 145,
  "νοη": 145,
  "γνωσεως": 145,
  "τετραγωνον": 145,
  "γραμματικος": 145,
  "ηʹ": 145,
  "εναι": 145,
  "ηδιον": 144,
  "##λος": 144,
  "##ετε": 144,
  "ξυλα": 144,
  "ιδιας": 144,
  "##εγ": 144,
  "ερωτων": 144,
  "ενδε": 144,
  "νεους": 144,
  "ερωτω": 144,
  "γεωμετρια": 144,
  "τελεια": 144,
  "βουληται": 144,
  "αδικος": 144,
  "αβ": 144,
  "τοποι": 144,
  "μοριω": 144,
  "θεωρησαι": 144,
  "λοιδορ": 143,
  "##στου": 143,
  "πιστευειν": 143,
  "μεγαλη": 143,
  "##ιπ": 143,
  "##και": 143,
  "##ξιν": 143,
  "ευθεως": 143,
  "συμμετρον": 143,
  "ποτερ": 143,
  "ευδαιμονειν": 143,
  "ζητητεον": 143,
  "απασας": 143,
  "προσηκον": 143,
  "##θεισαν": 143,
  "λανθανει": 143,
  "ερχεται": 143,
  "πιστις": 143,
  "απασαν": 143,
  "##σασα": 143,
  "θεωρειται": 143,
  "οποσα": 143,
  "αναλογια": 143,
  "αντιφασις": 143,
  "ξηρου": 143,
  "αυτοανθρω": 143,
  "##νη": 142,
  "πολεμω": 142,
  "γενομενη": 142,
  "βουλευεσθαι": 142,
  "ηγειται": 142,
  "μελι": 142,
  "αδοξ": 142,
  "ποιησας": 142,
  "αυξ": 142,
  "βουλομενοι": 142,
  "σπερματι": 142,
  "##αται": 142,
  "κυ": 142,
  "τεχναι": 142,
  "ευδαιμων": 142,
  "εναντιοις": 142,
  "προειρηται": 142,
  "διανοεισθαι": 142,
  "σκληρον": 142,
  "επομενων": 142,
  "##λοι": 142,
  "##αντας": 141,
  "μητρος": 141,
  "καλος": 141,
  "αυλη": 141,
  "μιμη": 141,
  "ομολογειν": 141,
  "φιλοσοφος": 141,
  "πλειστων": 141,
  "ακρατ": 141,
  "πνευματα": 141,
  "τριτη": 141,
  "εσθ": 141,
  "αγνοια": 141,
  "εμποι": 141,
  "φυτον": 141,
  "μικρο": 141,
  "ορωμενον": 141,
  "λαβοι": 141,
  "θεσις": 141,
  "βελτι": 141,
  "ιβʹ": 141,
  "μετρη": 140,
  "##αμενων": 140,
  "ποιουντα": 140,
  "δυσχερ": 140,
  "αθηναιοι": 140,
  "κακει": 140,
  "αρχοντος": 140,
  "αρχοντων": 140,
  "##θωσιν": 140,
  "##ερον": 140,
  "πηγνυ": 140,
  "##ωδες": 140,
  "ποιουντος": 140,
  "χρωμεθα": 140,
  "δυ": 140,
  "πρωτοι": 140,
  "εχομενον": 140,
  "ποιητικη": 140,
  "εναργ": 140,
  "αθροι": 140,
  "κρινει": 140,
  "λαμβανουσιν": 140,
  "μορφη": 140,
  "ειληπται": 140,
  "αρτηριας": 140,
  "ενδεχομενως": 140,
  "τιμαν": 139,
  "στασι": 139,
  "διωκειν": 139,
  "επιθυμιων": 139,
  "##δει": 139,
  "##θει": 139,
  "πολυς": 139,
  "##ττειν": 139,
  "τεκνων": 139,
  "μεχρις": 139,
  "ζητη": 139,
  "σημαινομενα": 139,
  "##εντα": 139,
  "θερους": 139,
  "αισθητη": 139,
  "ολιγω": 139,
  "παρη": 139,
  "συνθεσις": 139,
  "πονων": 139,
  "συνα": 139,
  "κακοις": 139,
  "παρουσια": 139,
  "μιξις": 139,
  "θεωρ": 139,
  "οικοδομι": 139,
  "πρωτας": 139,
  "ενδεχομενην": 139,
  "ωοτο": 139,
  "υπαρχοντως": 139,
  "εμαυτον": 138,
  "αδελφον": 138,
  "εθελη": 138,
  "##ησαντες": 138,
  "διαγ": 138,
  "επικουρος": 138,
  "απορει": 138,
  "ιερα": 138,
  "απεχ": 138,
  "χρησις": 138,
  "υγειαν": 138,
  "τεμν": 138,
  "μαλακον": 138,
  "εκεινως": 138,
  "συνεχει": 138,
  "ληφ": 138,
  "αναθυμιασις": 138,
  "κολαζ": 137,
  "##κοτων": 137,
  "υιος": 137,
  "μαχην": 137,
  "##ηφ": 137,
  "##ειον": 137,
  "δυναμενοι": 137,
  "συνεστηκεν": 137,
  "σημειω": 137,
  "μειζονων": 137,
  "εγγιγν": 137,
  "##σιας": 137,
  "εναπο": 137,
  "χορ": 137,
  "τετταρων": 137,
  "ενεστιν": 137,
  "εκαστων": 137,
  "στασιν": 137,
  "υπερβαλλ": 137,
  "γωνιας": 137,
  "φανερα": 137,
  "λαβωμεν": 137,
  "μαλακ": 137,
  "ιση": 137,
  "εω": 137,
  "λαμβανων": 137,
  "ισης": 137,
  "αδικιας": 137,
  "ισων": 137,
  "μιξιν": 137,
  "περιεχοντος": 137,
  "ψοφ": 137,
  "θεραπευ": 136,
  "##ματι": 136,
  "##π": 136,
  "μακραν": 136,
  "τελευτη": 136,
  "διανο": 136,
  "εμον": 136,
  "διδασκαλιας": 136,
  "χαλεπα": 136,
  "επιτηδευ": 136,
  "δευρο": 136,
  "οφθαλμους": 136,
  "δοξασ": 136,
  "εναντιαι": 136,
  "αδικως": 136,
  "##εσθω": 136,
  "ηρεμα": 136,
  "ακρατης": 136,
  "λεπτον": 136,
  "οικοδομη": 136,
  "οστα": 136,
  "ρηθησεται": 136,
  "χρωμενον": 135,
  "σον": 135,
  "##ριας": 135,
  "##σεσθαι": 135,
  "τρι": 135,
  "τριακοντα": 135,
  "αιρετα": 135,
  "ατομα": 135,
  "ακοην": 135,
  "##ερα": 135,
  "σωκρατη": 135,
  "ουδεμιας": 135,
  "λαμβανοντες": 135,
  "υφηγ": 135,
  "αποδειξαι": 135,
  "ποταμων": 135,
  "κεχρηται": 135,
  "τοιαυταις": 135,
  "##ζονται": 135,
  "καρπων": 135,
  "επιμελ": 135,
  "αρμονιας": 135,
  "ορθη": 135,
  "διορισ": 135,
  "##ασεις": 135,
  "διαφερουσι": 135,
  "αναιρει": 135,
  "πεντα": 135,
  "αναφοραν": 135,
  "επιδεχεται": 135,
  "θερμω": 135,
  "αναιρε": 135,
  "πρωτους": 134,
  "δειπνον": 134,
  "##σον": 134,
  "ωρα": 134,
  "ελαβεν": 134,
  "προθυμ": 134,
  "αρχεται": 134,
  "ερωταν": 134,
  "ποιησασθαι": 134,
  "επιχειρειν": 134,
  "##σεσιν": 134,
  "διακριν": 134,
  "τρεφεται": 134,
  "αναθυμιασιν": 134,
  "δοξαζειν": 134,
  "##σων": 134,
  "##πει": 134,
  "υπνω": 134,
  "ηπατος": 134,
  "στερεον": 134,
  "εμφαν": 134,
  "λεχ": 134,
  "αληθευειν": 134,
  "ενυπαρχει": 134,
  "τοδι": 134,
  "μιξει": 134,
  "παρεθετο": 134,
  "αποφασεις": 133,
  "##ραν": 133,
  "εγενοντο": 133,
  "οικον": 133,
  "μεγιστων": 133,
  "μηκους": 133,
  "αστερων": 133,
  "ηλιω": 133,
  "ενδειαν": 133,
  "αλογων": 133,
  "ωφελι": 133,
  "νομι": 133,
  "πραξει": 133,
  "##ηση": 133,
  "επαινειν": 133,
  "λεγοιεν": 133,
  "ερωτι": 133,
  "αριστοτελους": 133,
  "##ουμενοις": 133,
  "αισθητηριων": 133,
  "ευρισκεται": 133,
  "##ικοι": 133,
  "υπερεχον": 133,
  "##ξις": 133,
  "θεωρει": 133,
  "δυναμενα": 133,
  "λημματων": 133,
  "γινοιτο": 133,
  "πηγνυται": 133,
  "δεικνυσθαι": 133,
  "##θ": 132,
  "ηρω": 132,
  "ομηρου": 132,
  "νυκτωρ": 132,
  "##ινου": 132,
  "##πη": 132,
  "##ασαι": 132,
  "αναγκα": 132,
  "##νος": 132,
  "αλμυρον": 132,
  "επισταται": 132,
  "μηδαμως": 132,
  "αναμνησ": 132,
  "σοφων": 132,
  "θηρε": 132,
  "εργου": 132,
  "ενδοξων": 132,
  "επεκεινα": 132,
  "αψυχον": 132,
  "εξαιφνης": 132,
  "##που": 132,
  "λαμβανοι": 132,
  "αοριστου": 132,
  "προσαγορευ": 131,
  "##ζοντος": 131,
  "διαφθειρ": 131,
  "αμελει": 131,
  "παιδα": 131,
  "πραξ": 131,
  "##καμεν": 131,
  "##ριον": 131,
  "##τητε": 131,
  "ηπο": 131,
  "αισθητικη": 131,
  "ουδεπω": 131,
  "εστ": 131,
  "παρεστιν": 131,
  "απατη": 131,
  "κρασις": 131,
  "ενεργ": 131,
  "συνεχους": 131,
  "γινομενος": 131,
  "διοισει": 131,
  "περιεχεται": 131,
  "θεσεως": 131,
  "ζωοτο": 131,
  "σιμ": 131,
  "χυμον": 131,
  "κελσος": 131,
  "δουναι": 130,
  "##εντων": 130,
  "σωτηριας": 130,
  "παρεστι": 130,
  "αντικρυς": 130,
  "ηγουνται": 130,
  "ιατρων": 130,
  "##ραμ": 130,
  "χρω": 130,
  "αξιω": 130,
  "πολλαχου": 130,
  "κακεινα": 130,
  "αυταρ": 130,
  "εποιει": 130,
  "οφθαλμος": 130,
  "ομματων": 130,
  "αυξαν": 130,
  "υπαρχοι": 130,
  "πινειν": 129,
  "ειρηκεναι": 129,
  "τουτι": 129,
  "##ορου": 129,
  "πολεμιων": 129,
  "##ξαι": 129,
  "δημον": 129,
  "ετων": 129,
  "λυπηρον": 129,
  "φοβεισθαι": 129,
  "αριστοκρατι": 129,
  "##ζομενος": 129,
  "δουλος": 129,
  "εισαγ": 129,
  "συμπλοκη": 129,
  "αναθυμιασεως": 129,
  "μαρτυρει": 129,
  "##οιν": 129,
  "ουτωσι": 129,
  "πιθαν": 129,
  "##ουμενω": 129,
  "φοβος": 129,
  "παιδι": 129,
  "νομοθετης": 129,
  "γονεις": 129,
  "##τουσι": 129,
  "λεχθεν": 129,
  "αφαιρε": 129,
  "φαυλος": 129,
  "θεωρημα": 129,
  "γνωριμω": 129,
  "##σχ": 129,
  "κακος": 128,
  "τεκνα": 128,
  "τοσουτων": 128,
  "πολεμιους": 128,
  "πραξαι": 128,
  "##ρουν": 128,
  "καθα": 128,
  "##ερω": 128,
  "φυσικοις": 128,
  "φαινηται": 128,
  "δυναμενου": 128,
  "##φθ": 128,
  "αφαιρειται": 128,
  "παθεσι": 128,
  "ειδωλα": 128,
  "μοιραν": 128,
  "τιθεται": 128,
  "οινω": 128,
  "κατηγοριων": 128,
  "δυνατος": 128,
  "κοινωνιας": 128,
  "κρισις": 128,
  "πληρες": 128,
  "διαμετρον": 128,
  "τελευταιον": 128,
  "##στη": 128,
  "συμπερασματι": 128,
  "φαυλ": 127,
  "φιλο": 127,
  "ελαιον": 127,
  "εξι": 127,
  "θαυμαζειν": 127,
  "γραμματων": 127,
  "βιβλιον": 127,
  "τρεπ": 127,
  "ζω": 127,
  "##ικους": 127,
  "##ριω": 127,
  "επιμελειας": 127,
  "##σθε": 127,
  "##σειεν": 127,
  "λεγοντι": 127,
  "παρεχεται": 127,
  "εναντιαν": 127,
  "αλογου": 127,
  "κοινω": 127,
  "εαυτα": 127,
  "πειρασθαι": 127,
  "χειρ": 127,
  "αυταρκες": 127,
  "στερησεως": 127,
  "συμπερασματα": 127,
  "εκατον": 126,
  "υπομενειν": 126,
  "παρασκευ": 126,
  "##γνυ": 126,
  "##πα": 126,
  "##ψαι": 126,
  "σωκρατην": 126,
  "μεσην": 126,
  "συντελει": 126,
  "##ιγν": 126,
  "ανεμων": 126,
  "##ουμενην": 126,
  "σαρκι": 126,
  "ηρεμει": 126,
  "διδακτον": 126,
  "εφανη": 126,
  "σοφω": 126,
  "παραλειπ": 126,
  "σιτια": 126,
  "ενθεν": 126,
  "πολεσι": 126,
  "οσ": 126,
  "δυναμεθα": 126,
  "λιθον": 126,
  "προσδε": 126,
  "ερωτος": 126,
  "βραδυτερον": 126,
  "βασιλεων": 125,
  "##σθεις": 125,
  "ποτον": 125,
  "πειρω": 125,
  "μητερα": 125,
  "φιλω": 125,
  "μεγας": 125,
  "φιλι": 125,
  "##ξ": 125,
  "πυθαγορειοι": 125,
  "εικη": 125,
  "μαθηματικων": 125,
  "εκατερος": 125,
  "φωμεν": 125,
  "##τηται": 125,
  "φωνας": 125,
  "εσχεν": 125,
  "μεταβολας": 125,
  "##οιμεθα": 125,
  "επιπεδα": 125,
  "κεχωρισμενον": 125,
  "λεξις": 125,
  "αντιστραφεισης": 125,
  "##πτον": 124,
  "απασης": 124,
  "τριτος": 124,
  "συναπο": 124,
  "##ζη": 124,
  "##ατο": 124,
  "πετ": 124,
  "ανδριας": 124,
  "κατει": 124,
  "##ορ": 124,
  "ατ": 124,
  "παιδος": 124,
  "δογματων": 124,
  "##κτα": 124,
  "οποταν": 124,
  "κεχωρισμενα": 124,
  "προσλαμβαν": 124,
  "συγκεισθαι": 124,
  "φθαρτα": 124,
  "προκειται": 124,
  "κινδυνευει": 124,
  "##εστερα": 124,
  "χειρω": 124,
  "λυπεισθαι": 124,
  "νομοθετου": 124,
  "συνεργ": 124,
  "παρακολουθ": 124,
  "εναργες": 124,
  "ελ": 124,
  "φευκτον": 124,
  "συμφερει": 124,
  "ορθαις": 124,
  "υπεροχη": 124,
  "ανδριαντος": 124,
  "τριχες": 124,
  "ωετο": 123,
  "πυθ": 123,
  "παροντα": 123,
  "ωραν": 123,
  "σωφρον": 123,
  "αδικεισθαι": 123,
  "πλειοσιν": 123,
  "##ειεν": 123,
  "συμβαλλεται": 123,
  "αλλοιωσεως": 123,
  "πορων": 123,
  "αρξ": 123,
  "νοουν": 123,
  "κυων": 123,
  "##λογ": 123,
  "θειας": 123,
  "οδος": 123,
  "προσι": 123,
  "ατομον": 123,
  "ενου": 123,
  "κειμενου": 123,
  "ειπωμεν": 123,
  "πεφυκ": 123,
  "ενδεια": 123,
  "κυρια": 123,
  "αδιαφορ": 123,
  "γενομενα": 123,
  "ακολουθως": 123,
  "μοναδας": 123,
  "ιππια": 123,
  "οσμη": 123,
  "συναγεσθαι": 123,
  "κρειττων": 122,
  "δικαι": 122,
  "γεγονως": 122,
  "ορεγ": 122,
  "##λων": 122,
  "πεποιηκεν": 122,
  "επαινου": 122,
  "ευδοκιμ": 122,
  "οικειως": 122,
  "μεση": 122,
  "τελε": 122,
  "κοινωνειν": 122,
  "αμφισβητη": 122,
  "φαρμακον": 122,
  "θει": 122,
  "ψεκ": 122,
  "ηγουμενος": 122,
  "##αντι": 122,
  "αλλοτρια": 122,
  "παραπλησια": 122,
  "στασις": 122,
  "χρηστεον": 122,
  "ελεγχον": 122,
  "##κεται": 122,
  "προσκειται": 122,
  "διαλεκτικη": 122,
  "αʹ": 122,
  "ευθεια": 122,
  "ελλειψιν": 122,
  "καταφατικων": 122,
  "οπλα": 121,
  "διδους": 121,
  "τυραννος": 121,
  "παρων": 121,
  "##αντων": 121,
  "οιαν": 121,
  "νεος": 121,
  "αισχυν": 121,
  "πρεσβυτερον": 121,
  "αδικων": 121,
  "παραβ": 121,
  "μικρων": 121,
  "πνε": 121,
  "καλει": 121,
  "ψευδων": 121,
  "ανια": 121,
  "##τατω": 121,
  "παθητικον": 121,
  "κινητικον": 121,
  "πρα": 121,
  "ηδεσθαι": 121,
  "ολος": 121,
  "θεαι": 121,
  "διαιρειν": 121,
  "συνακ": 121,
  "δυνησεται": 121,
  "αγγειον": 121,
  "συζυγιαν": 121,
  "ευφυ": 121,
  "ασυμ": 121,
  "αποδεικτικη": 121,
  "ομαλ": 121,
  "ζητειται": 121,
  "χυμος": 121,
  "αρχει": 120,
  "αμφοτερους": 120,
  "μαχη": 120,
  "ερων": 120,
  "καταλειπ": 120,
  "μηδεπω": 120,
  "ευρεσιν": 120,
  "χρηναι": 120,
  "συμμετρια": 120,
  "παραπλησιον": 120,
  "μων": 120,
  "πραττων": 120,
  "πολιτικη": 120,
  "τελη": 120,
  "τεθη": 120,
  "κελευει": 120,
  "ικανος": 120,
  "υποπ": 120,
  "υποθεσις": 120,
  "εναντιωσιν": 120,
  "αιτιαι": 120,
  "κρατει": 120,
  "ωρισμενα": 120,
  "συνδυ": 120,
  "αντιστ": 120,
  "καταφασιν": 120,
  "τωι": 120,
  "φη": 119,
  "##ολογ": 119,
  "φυλατ": 119,
  "χρωμενους": 119,
  "αμαρτανειν": 119,
  "##θον": 119,
  "ημετερα": 119,
  "διοικ": 119,
  "συγκρι": 119,
  "μελανι": 119,
  "παχυ": 119,
  "ανωτερω": 119,
  "##απ": 119,
  "θηλεος": 119,
  "διδασκει": 119,
  "##σομεθα": 119,
  "ουση": 119,
  "φαυλων": 119,
  "απεπ": 119,
  "φιλει": 119,
  "θυμ": 119,
  "γονεων": 119,
  "λυ": 119,
  "παμπαν": 119,
  "θερμαν": 119,
  "συμφωνια": 119,
  "ενεργη": 119,
  "μαθηματικον": 119,
  "ανομοιον": 119,
  "τυγχανουσιν": 119,
  "γραφει": 119,
  "οστουν": 119,
  "##χων": 118,
  "εδοξεν": 118,
  "ημερων": 118,
  "κα": 118,
  "αγοραν": 118,
  "##πος": 118,
  "##λη": 118,
  "συναγει": 118,
  "##τεσθαι": 118,
  "καιρω": 118,
  "πνευματι": 118,
  "θηλ": 118,
  "ασκ": 118,
  "ατεχνως": 118,
  "##οτατα": 118,
  "##σται": 118,
  "αχ": 118,
  "θαλαττη": 118,
  "επαγει": 118,
  "επανω": 118,
  "κοινος": 118,
  "δεξασθαι": 118,
  "εφαρμο": 118,
  "στερεα": 118,
  "ορισμους": 118,
  "αρτηριων": 118,
  "αυξεται": 118,
  "κινουμενω": 118,
  "ξηραι": 118,
  "##αιτο": 117,
  "περιπατειν": 117,
  "τοσαυτην": 117,
  "##τεραν": 117,
  "πυθαγορας": 117,
  "επιθυμειν": 117,
  "προνοια": 117,
  "λογικη": 117,
  "ενστασιν": 117,
  "γαστρος": 117,
  "επαν": 117,
  "ευλαβ": 117,
  "φασκων": 117,
  "βλαπ": 117,
  "εχρησατο": 117,
  "συνων": 117,
  "διαφορους": 117,
  "σκεψ": 117,
  "παραδειγματος": 117,
  "διπλασια": 117,
  "προσεχως": 117,
  "πλειστοις": 117,
  "##σου": 117,
  "μνημης": 116,
  "μισθον": 116,
  "νικαν": 116,
  "εξεστι": 116,
  "φυλαττειν": 116,
  "σωζειν": 116,
  "αρχοντα": 116,
  "αποδιδους": 116,
  "συνη": 116,
  "βους": 116,
  "##ητον": 116,
  "οικοδομ": 116,
  "φιλοσοφον": 116,
  "ακριβ": 116,
  "βραδυ": 116,
  "αγων": 116,
  "μετεχον": 116,
  "συμβεβηκεναι": 116,
  "ασκη": 116,
  "##εχ": 116,
  "αποκρινεσθαι": 116,
  "ολιγοι": 116,
  "ονομασι": 116,
  "ισχυς": 116,
  "##εον": 116,
  "ευεξια": 116,
  "καιρος": 116,
  "συναμφοτερον": 116,
  "ηρεμουν": 116,
  "μεγαλας": 116,
  "ανομ": 116,
  "πλευρας": 116,
  "διαφερον": 116,
  "δερμα": 116,
  "κατηγορουμενου": 116,
  "##πειν": 115,
  "##κεσθαι": 115,
  "##ζε": 115,
  "χωριον": 115,
  "επιεικ": 115,
  "δηλος": 115,
  "##ταν": 115,
  "δικης": 115,
  "απι": 115,
  "βουλομενον": 115,
  "χρησ": 115,
  "πολλαπλασι": 115,
  "επιπολ": 115,
  "εφασαν": 115,
  "φυσικην": 115,
  "συνιστασθαι": 115,
  "ρητορικη": 115,
  "συντελ": 115,
  "νομοθετη": 115,
  "λαμβανομεν": 115,
  "εννοιας": 115,
  "##οτατη": 115,
  "αθροως": 115,
  "γνωσ": 115,
  "διηρη": 115,
  "λαμβανομενον": 115,
  "οισθ": 115,
  "λη": 115,
  "δοξειε": 115,
  "πραγματειαν": 115,
  "δεκαδος": 115,
  "δημοκρατια": 115,
  "δειχ": 115,
  "οιομενος": 114,
  "##χει": 114,
  "συστα": 114,
  "βουλομαι": 114,
  "##στων": 114,
  "τελευτην": 114,
  "χρηστον": 114,
  "θηρια": 114,
  "συνεστη": 114,
  "ομοιαν": 114,
  "πεπαιδευ": 114,
  "περιπατου": 114,
  "δογμα": 114,
  "φθαρτον": 114,
  "##ωτερον": 114,
  "οιομεθα": 114,
  "##ζοι": 114,
  "αμαρταν": 114,
  "ανδρασιν": 114,
  "κινουντος": 114,
  "πραγματευ": 114,
  "συνεισ": 114,
  "συγκειμενον": 114,
  "ορθην": 114,
  "ορθ": 114,
  "##αινεσθαι": 114,
  "ιδιω": 114,
  "μαθηματικη": 114,
  "εκκει": 114,
  "χαλκου": 114,
  "χολην": 114,
  "διαφανους": 114,
  "ευρε": 113,
  "μακρο": 113,
  "δυναμενους": 113,
  "μαχεσθαι": 113,
  "παυσ": 113,
  "φθονου": 113,
  "εθελειν": 113,
  "ελληνες": 113,
  "γυναικι": 113,
  "ταν": 113,
  "μεγιστην": 113,
  "##ωμενων": 113,
  "τριτην": 113,
  "##κασιν": 113,
  "γυμνα": 113,
  "εξουσιαν": 113,
  "ψοφον": 113,
  "##κοτος": 113,
  "διαιρεισθαι": 113,
  "υδατων": 113,
  "πανταχοθεν": 113,
  "αποπ": 113,
  "ανακ": 113,
  "αναχ": 113,
  "ποδι": 113,
  "τοιν": 113,
  "##ζω": 113,
  "οιομενοι": 113,
  "παραχρημα": 113,
  "νοουμεν": 113,
  "##ησι": 113,
  "εκατερας": 113,
  "νεα": 113,
  "αποφαιν": 113,
  "αδηλα": 113,
  "εκβ": 113,
  "διατ": 113,
  "δυσι": 113,
  "##ιη": 113,
  "επινοια": 113,
  "προυπαρχ": 113,
  "υπερεχει": 113,
  "φυσικου": 113,
  "βουλησις": 113,
  "αποφαν": 113,
  "νοσειν": 113,
  "υγροτητος": 113,
  "στερητικον": 113,
  "χειρα": 112,
  "τρεφειν": 112,
  "αγορα": 112,
  "##τομενον": 112,
  "εγρηγορ": 112,
  "καθευδ": 112,
  "μεταβαλ": 112,
  "εικοσι": 112,
  "συνουσιας": 112,
  "στωικοι": 112,
  "αντιτυπ": 112,
  "επιθυμητικον": 112,
  "##κουσιν": 112,
  "##οιο": 112,
  "ερωτημα": 112,
  "εννο": 112,
  "διατι": 112,
  "δημιουργος": 112,
  "ποιητων": 112,
  "καταλαμβαν": 112,
  "##αιον": 112,
  "οικειους": 112,
  "βεβαιον": 112,
  "παλαιοι": 112,
  "διαφοραις": 112,
  "φασκοντες": 112,
  "γυμνασ": 112,
  "πρωται": 112,
  "συλλογιζεσθαι": 112,
  "απειρων": 112,
  "προδηλον": 112,
  "διαφων": 112,
  "καταψυχ": 112,
  "επιπολης": 112,
  "συστοι": 112,
  "επαγωγη": 112,
  "εδηλωσε": 112,
  "##ηκεν": 111,
  "προσεχειν": 111,
  "##σουσιν": 111,
  "φοβου": 111,
  "θαλασσαν": 111,
  "ελευθερον": 111,
  "αριστος": 111,
  "εχθρους": 111,
  "αναφερ": 111,
  "χρονους": 111,
  "κενω": 111,
  "ηρ": 111,
  "σφαιραν": 111,
  "υπολειπ": 111,
  "νοσων": 111,
  "##ησαμεν": 111,
  "κτησιν": 111,
  "οχε": 111,
  "υποθεσεις": 111,
  "προσποι": 111,
  "ολιγωρ": 111,
  "πολυτ": 111,
  "θεραπευτ": 111,
  "##σθηναι": 111,
  "κατηγοριαν": 111,
  "##σασθαι": 111,
  "δειξεως": 111,
  "συνερ": 111,
  "κατηγορουμενα": 111,
  "ελλειπ": 111,
  "ζητων": 111,
  "παθεσιν": 111,
  "γραμμαι": 111,
  "γεγονασιν": 111,
  "γνωριμων": 111,
  "##τικαις": 111,
  "κοινας": 110,
  "##γα": 110,
  "δρασ": 110,
  "ζητουντες": 110,
  "αγνοει": 110,
  "αιδιου": 110,
  "οριζεσθαι": 110,
  "λεκ": 110,
  "σωματ": 110,
  "σκια": 110,
  "χρωματι": 110,
  "ρειν": 110,
  "κρασεως": 110,
  "διδασκ": 110,
  "περια": 110,
  "##ερου": 110,
  "ερ": 110,
  "τιθησι": 110,
  "πεφυκεναι": 110,
  "ορατ": 110,
  "ομματα": 110,
  "ατελες": 110,
  "θατερα": 110,
  "περιαγ": 110,
  "καυσ": 110,
  "ηδεος": 110,
  "κοιλια": 110,
  "γινηται": 110,
  "υποληψις": 110,
  "γνωμη": 109,
  "αδελφος": 109,
  "ενιαυτον": 109,
  "κρατ": 109,
  "##νει": 109,
  "εδοξε": 109,
  "κινδυν": 109,
  "διαρ": 109,
  "προτειν": 109,
  "##ικας": 109,
  "##οτες": 109,
  "ερισ": 109,
  "προσταττ": 109,
  "εκπεμπ": 109,
  "επανα": 109,
  "πληγη": 109,
  "πνευματων": 109,
  "μοριοις": 109,
  "οποι": 109,
  "οιων": 109,
  "χαλεπως": 109,
  "μελει": 109,
  "δυναμενοις": 109,
  "σωτηρια": 109,
  "γραμματικη": 109,
  "##ιρ": 109,
  "μενων": 109,
  "επιχειρ": 109,
  "πολλαπλασια": 109,
  "αδυναμια": 109,
  "προσο": 109,
  "κεισθω": 109,
  "υποκεισθαι": 109,
  "υπηρχεν": 109,
  "προειρημενοις": 109,
  "πυθαγορι": 109,
  "πορρωτερω": 109,
  "αυταρκης": 109,
  "αιρετω": 109,
  "συλλογισασθαι": 109,
  "πτωσιν": 109,
  "θυσιας": 108,
  "πραξεσιν": 108,
  "ποιουμενος": 108,
  "καταφρον": 108,
  "οικοι": 108,
  "##οτατος": 108,
  "θεις": 108,
  "σιτιων": 108,
  "ιερω": 108,
  "υπνον": 108,
  "βλαβ": 108,
  "##αμεθα": 108,
  "πλησι": 108,
  "κιθαρ": 108,
  "αδικη": 108,
  "ειπετο": 108,
  "οτωουν": 108,
  "χρησασθαι": 108,
  "ατοπα": 108,
  "ειμαρμενης": 108,
  "κρισεις": 108,
  "εξαν": 108,
  "συμβολον": 108,
  "υπολαβειν": 108,
  "καθαρω": 108,
  "λογιστικον": 108,
  "συνειναι": 108,
  "φανειη": 108,
  "συναχθησεται": 108,
  "χρεων": 108,
  "ειδεσιν": 108,
  "προαιρ": 108,
  "μεμνησθαι": 108,
  "ελθων": 107,
  "##ρας": 107,
  "##ζοντας": 107,
  "συμπερι": 107,
  "δεκ": 107,
  "γεγονοτος": 107,
  "θυ": 107,
  "##σαντας": 107,
  "γεγονοτων": 107,
  "##θειν": 107,
  "νουθετ": 107,
  "συμβαλλ": 107,
  "ανθρωπινων": 107,
  "υπομνησ": 107,
  "##αρ": 107,
  "αγενητον": 107,
  "δητα": 107,
  "##τατοι": 107,
  "θεμις": 107,
  "##ιστον": 107,
  "##τατου": 107,
  "##ησθαι": 107,
  "ανει": 107,
  "σχημασι": 107,
  "##κοντες": 107,
  "συνηθειαν": 107,
  "δυνηται": 107,
  "ιχνος": 107,
  "κεχωρισ": 107,
  "μακρον": 107,
  "μοιρα": 107,
  "ειρησθω": 107,
  "σκοπον": 107,
  "λαμβανουσι": 107,
  "θαλαττα": 107,
  "κατηγοριαις": 107,
  "προτερου": 107,
  "ελκει": 107,
  "τροποι": 107,
  "ηγουν": 107,
  "λεγομενης": 106,
  "##λω": 106,
  "τεθναναι": 106,
  "εγρηγορο": 106,
  "ελαβε": 106,
  "μυριων": 106,
  "κυβερνη": 106,
  "##ευς": 106,
  "συμπαρ": 106,
  "κυκλοφορ": 106,
  "καλλους": 106,
  "πυκνου": 106,
  "##ησεως": 106,
  "πεμπτον": 106,
  "αναπνοης": 106,
  "ωφελιμω": 106,
  "εκεισε": 106,
  "ποιουσα": 106,
  "ζητησεως": 106,
  "εταιρε": 106,
  "αναδιδ": 106,
  "##ωσαν": 106,
  "##αζειν": 106,
  "επιπ": 106,
  "ταυτι": 106,
  "μεγιστη": 106,
  "ενυπαρχ": 106,
  "νομιμα": 106,
  "##τευ": 106,
  "εσω": 106,
  "αφροδισια": 106,
  "τιθε": 106,
  "ειδεσι": 106,
  "##λαμβαν": 106,
  "εντο": 106,
  "αντιλαμβανεσθαι": 106,
  "κοινης": 106,
  "ακολουθιας": 106,
  "πεποιηκε": 106,
  "##ωδη": 106,
  "χολη": 106,
  "αποθανειν": 105,
  "##ρι": 105,
  "δουλον": 105,
  "μονοι": 105,
  "ρωμη": 105,
  "νεοι": 105,
  "πυθαγορειων": 105,
  "##τητα": 105,
  "αντιπερι": 105,
  "χυμους": 105,
  "πνευμονα": 105,
  "αλγειν": 105,
  "ονομαζειν": 105,
  "αποκρινασθαι": 105,
  "δηλα": 105,
  "λεγηται": 105,
  "προχει": 105,
  "επακολουθ": 105,
  "σκεψιν": 105,
  "παραστη": 105,
  "μεταληφ": 105,
  "αλλοιουσθαι": 105,
  "πλευρα": 105,
  "περιττου": 105,
  "ησυχ": 105,
  "αδυνατος": 105,
  "χρονων": 105,
  "αδιαφορον": 105,
  "μενοντος": 105,
  "απασων": 105,
  "ουθεις": 105,
  "εγκωμια": 104,
  "##ηρ": 104,
  "αχρηστον": 104,
  "νεοις": 104,
  "φιλοτιμ": 104,
  "##ωμαι": 104,
  "ανθ": 104,
  "πλατ": 104,
  "κυνα": 104,
  "μελλοντων": 104,
  "φαν": 104,
  "χρονοις": 104,
  "βουλοιτο": 104,
  "ακολαστος": 104,
  "γενομενην": 104,
  "συγχωρ": 104,
  "γραμμας": 104,
  "περιφερ": 104,
  "ψυχροτητα": 104,
  "μαθησεως": 104,
  "πολιτικης": 104,
  "ειπη": 104,
  "νεον": 104,
  "κομιδη": 104,
  "θεα": 104,
  "συνηθεια": 104,
  "αχρη": 104,
  "κανταυθα": 104,
  "ορωμενα": 104,
  "##πτο": 104,
  "αδικα": 104,
  "δευτερας": 104,
  "γραμμων": 104,
  "θατερω": 104,
  "πενια": 104,
  "επιχειρει": 104,
  "οποτερον": 104,
  "αντ": 104,
  "συμβαινοντα": 104,
  "##χυ": 104,
  "ολιγαρχ": 104,
  "λαμβανεσθαι": 104,
  "μητηρ": 103,
  "βασιλει": 103,
  "εγνω": 103,
  "κομι": 103,
  "πεντηκοντα": 103,
  "υπερβ": 103,
  "##ξε": 103,
  "αποθνησκειν": 103,
  "καρπον": 103,
  "χειρος": 103,
  "##χου": 103,
  "συναγειν": 103,
  "επιβ": 103,
  "προι": 103,
  "σοφου": 103,
  "απειρους": 103,
  "μεταβαλλ": 103,
  "##ιμα": 103,
  "βιας": 103,
  "##ζομεν": 103,
  "θαρρα": 103,
  "γραμματι": 103,
  "μετεχ": 103,
  "ονομασιν": 103,
  "παιδιας": 103,
  "λαμπρον": 103,
  "μεγαλης": 103,
  "συνεχεις": 103,
  "ηλθεν": 103,
  "ετερως": 103,
  "αισχ": 103,
  "θε": 103,
  "προσθεις": 103,
  "αντιπ": 103,
  "νοουμενον": 103,
  "θειη": 103,
  "εμψυχων": 103,
  "καλουμενον": 103,
  "επισκεψασθαι": 103,
  "συμπ": 103,
  "λιθοι": 103,
  "μνημονευει": 103,
  "ομολογουμενως": 103,
  "ρει": 103,
  "καλη": 103,
  "ισταται": 103,
  "μεθοδος": 103,
  "ομολογουμενον": 103,
  "λογικου": 103,
  "θερμο": 103,
  "γλυκεος": 103,
  "ηδεια": 103,
  "συζυγιαι": 103,
  "κρισεως": 102,
  "αριστην": 102,
  "##ομην": 102,
  "##ραψ": 102,
  "##ττει": 102,
  "σωζεται": 102,
  "##σειν": 102,
  "ηδιστον": 102,
  "ιατρον": 102,
  "ερωτη": 102,
  "μονους": 102,
  "##ωται": 102,
  "υποληψιν": 102,
  "δογματα": 102,
  "φαινομενου": 102,
  "##χ": 102,
  "##δειν": 102,
  "οστων": 102,
  "φλεβες": 102,
  "πειθειν": 102,
  "##εθ": 102,
  "ευροι": 102,
  "εξαγ": 102,
  "ολιγο": 102,
  "επισκοπειν": 102,
  "ταττ": 102,
  "##ισθαι": 102,
  "##ωσις": 102,
  "προσετι": 102,
  "ισοτητα": 102,
  "κυριωτατα": 102,
  "πεπερασμενα": 102,
  "νευρον": 102,
  "αρχομενον": 102,
  "προβληματος": 102,
  "δειχθηναι": 102,
  "ζωντα": 101,
  "ζων": 101,
  "##ετ": 101,
  "λυειν": 101,
  "θελει": 101,
  "εχθρων": 101,
  "πυθαγορου": 101,
  "στοας": 101,
  "γεωδες": 101,
  "##σιαν": 101,
  "συγγ": 101,
  "ετυχε": 101,
  "##ιμ": 101,
  "απεργαζεται": 101,
  "ανδρει": 101,
  "λιθου": 101,
  "προσαν": 101,
  "ελεγχος": 101,
  "ωσανει": 101,
  "προαιρεσεως": 101,
  "υστερων": 101,
  "ηθ": 101,
  "συγχωρη": 101,
  "φατεον": 101,
  "αλογα": 101,
  "πλειονι": 101,
  "καλλιας": 101,
  "##ιπτον": 101,
  "ακολασια": 101,
  "αποδειξεων": 101,
  "αιρετη": 101,
  "μεγεθων": 101,
  "μεσοτητα": 101,
  "λαμβανομενα": 101,
  "αντικει": 101,
  "αποστα": 100,
  "καγω": 100,
  "##ειτο": 100,
  "γαστερα": 100,
  "##χομεν": 100,
  "αγνο": 100,
  "νομοθετην": 100,
  "διαιταν": 100,
  "φυσιολογ": 100,
  "διειλ": 100,
  "κατασκευαζ": 100,
  "νεικος": 100,
  "απειρω": 100,
  "αντιλαμβαν": 100,
  "εκπι": 100,
  "##ασει": 100,
  "λεγομενην": 100,
  "θεασασθαι": 100,
  "κεκτησθαι": 100,
  "μηδετ": 100,
  "συγγεν": 100,
  "χρησιμοι": 100,
  "##μιας": 100,
  "τησδε": 100,
  "δικαστηριον": 100,
  "ογκος": 100,
  "##ζομενοι": 100,
  "εσθιειν": 100,
  "##ιζεται": 100,
  "ισχει": 100,
  "γεννων": 100,
  "αδηλου": 100,
  "##ταις": 100,
  "σεμνον": 100,
  "αψυχων": 100,
  "αλλοτριων": 100,
  "δεξιον": 100,
  "γλαυκων": 100,
  "συλλογισμω": 100,
  "πονειν": 100,
  "αλε": 100,
  "προηγ": 100,
  "κτημα": 100,
  "βιβλιω": 100,
  "διαιρεσει": 100,
  "διαιρει": 100,
  "προσθηκης": 100,
  "μεταθεσεως": 100,
  "επιπεδου": 100,
  "##σαντων": 99,
  "προσθειναι": 99,
  "γλωτταν": 99,
  "δημου": 99,
  "##ιε": 99,
  "##ερων": 99,
  "απιεναι": 99,
  "δημω": 99,
  "βοηθειν": 99,
  "ληψ": 99,
  "##θεισιν": 99,
  "ιππ": 99,
  "πλατους": 99,
  "διακρι": 99,
  "##υκ": 99,
  "οιτινες": 99,
  "υει": 99,
  "επω": 99,
  "χειρους": 99,
  "##οστ": 99,
  "αποδιδωσιν": 99,
  "καταβ": 99,
  "μωυσης": 99,
  "αθροον": 99,
  "ισχυος": 99,
  "θνητα": 99,
  "λογισμος": 99,
  "εμμελ": 99,
  "αγνοιας": 99,
  "πεπερ": 99,
  "εθελει": 99,
  "συμφυτον": 99,
  "εικα": 99,
  "στασεως": 99,
  "δηλω": 99,
  "πραττουσιν": 99,
  "φυλακ": 99,
  "ακρασια": 99,
  "γευσις": 99,
  "διαιτη": 99,
  "συστασις": 99,
  "επακ": 99,
  "απλατες": 99,
  "ιππους": 98,
  "αδολεσχ": 98,
  "αυριον": 98,
  "##αγ": 98,
  "αριστο": 98,
  "##ατω": 98,
  "πολεμος": 98,
  "σχολην": 98,
  "μεταβεβλη": 98,
  "##ξεν": 98,
  "ουπερ": 98,
  "διαλεγ": 98,
  "ανακλασιν": 98,
  "λυσιν": 98,
  "τροπας": 98,
  "φαυλως": 98,
  "##κοτας": 98,
  "κριτο": 98,
  "##τοντες": 98,
  "ομοιοτητος": 98,
  "ευχ": 98,
  "##ιζει": 98,
  "φιλοσοφοις": 98,
  "κεκρα": 98,
  "ενο": 98,
  "υπομενον": 98,
  "χειρι": 98,
  "αντιληπ": 98,
  "απεχεσθαι": 98,
  "επιμελεια": 98,
  "παθηματων": 98,
  "ανδρειοι": 98,
  "ψοφου": 98,
  "νυκτα": 98,
  "ακολουθιαν": 98,
  "ηθους": 98,
  "νο": 98,
  "γνωριμωτερον": 98,
  "ετερομη": 98,
  "θρεψ": 98,
  "##ιους": 97,
  "ελληνας": 97,
  "##ευων": 97,
  "##ξας": 97,
  "τηνικαυτα": 97,
  "ημετερον": 97,
  "ακουων": 97,
  "εσχε": 97,
  "σωφρονειν": 97,
  "##ιζων": 97,
  "πολιταις": 97,
  "επιδεικνυ": 97,
  "συννο": 97,
  "##οντο": 97,
  "ενοπ": 97,
  "πολλαις": 97,
  "χαλεπωτερον": 97,
  "περιπ": 97,
  "αιρετων": 97,
  "φερομενων": 97,
  "αστερας": 97,
  "οιονει": 97,
  "συμπληρ": 97,
  "προσπιπτ": 97,
  "ακουσιον": 97,
  "ερωτας": 97,
  "σωφρονα": 97,
  "φρονιμον": 97,
  "##ρυ": 97,
  "τιμιον": 97,
  "φαρμακων": 97,
  "αριστη": 97,
  "λει": 97,
  "οικου": 97,
  "συγγενη": 97,
  "αμυν": 97,
  "##οτων": 97,
  "##χος": 97,
  "##θωμεν": 97,
  "δημο": 97,
  "##ωμενοι": 97,
  "γυμνασια": 97,
  "διεκ": 97,
  "ενδειας": 97,
  "##ειη": 97,
  "##θεισαι": 97,
  "αποφασεως": 97,
  "υπαρξιν": 97,
  "αλμυ": 97,
  "διοριζ": 97,
  "χιων": 97,
  "δικας": 97,
  "μονως": 97,
  "τεθει": 97,
  "##βλη": 97,
  "επιπεδων": 97,
  "αλογως": 97,
  "οριζομενος": 97,
  "λυσις": 97,
  "πολιτειων": 97,
  "ολιγαρχια": 97,
  "λεχθησεται": 97,
  "κειμενα": 97,
  "αδελφων": 96,
  "αποφ": 96,
  "απεικα": 96,
  "οργιζ": 96,
  "ηλικια": 96,
  "αδικει": 96,
  "##λια": 96,
  "βουλευσ": 96,
  "##ωρ": 96,
  "θεραπειας": 96,
  "βιασ": 96,
  "πατριδα": 96,
  "φιλοσοφ": 96,
  "ωφελειν": 96,
  "##εκ": 96,
  "σημειων": 96,
  "μηνυ": 96,
  "συμπλοκης": 96,
  "μακαριον": 96,
  "εστη": 96,
  "νομιζουσι": 96,
  "δρων": 96,
  "συμπαν": 96,
  "αψ": 96,
  "##υον": 96,
  "πονους": 96,
  "ηδει": 96,
  "διαμαρταν": 96,
  "εφιεται": 96,
  "παρι": 96,
  "ηρμοσ": 96,
  "εικων": 96,
  "κρινον": 96,
  "συνιστα": 96,
  "συμπεφ": 96,
  "θυμω": 96,
  "συντειν": 96,
  "αρχοντες": 96,
  "αστυ": 96,
  "υγροτης": 96,
  "καθαρα": 96,
  "ορωμενου": 96,
  "νευ": 96,
  "αμφοτερως": 96,
  "βελτιονος": 96,
  "εγιγνετο": 96,
  "ατεχν": 96,
  "συστημα": 96,
  "εγκρατης": 96,
  "δαπανη": 96,
  "χωριζεται": 96,
  "ποσαχως": 96,
  "γιγνομενου": 96,
  "ακολουθουν": 96,
  "περιεχομενον": 96,
  "καταμετ": 96,
  "προσκειμενον": 96,
  "κυημα": 96,
  "ακρατον": 95,
  "θεοφραστος": 95,
  "ιατρου": 95,
  "καθευδειν": 95,
  "παυεται": 95,
  "##ητα": 95,
  "γεγραπται": 95,
  "##κασι": 95,
  "ανερ": 95,
  "##χεν": 95,
  "περιποι": 95,
  "αναγεται": 95,
  "##νων": 95,
  "##ωμα": 95,
  "καταψυξ": 95,
  "ανδρειον": 95,
  "στρατηγ": 95,
  "ωθ": 95,
  "υπολαμβαν": 95,
  "ψυχων": 95,
  "##ειρ": 95,
  "εφαπ": 95,
  "λογικης": 95,
  "μεμιγ": 95,
  "##ωμενος": 95,
  "φαι": 95,
  "φασ": 95,
  "ακων": 95,
  "σαυτον": 95,
  "μοιρας": 95,
  "τοια": 95,
  "νοησεως": 95,
  "κατι": 95,
  "ωοντο": 95,
  "σπουδη": 95,
  "##ησομεν": 95,
  "μηδετερον": 95,
  "ατυχ": 95,
  "παρατι": 95,
  "ορθας": 95,
  "αγνοων": 95,
  "λεγομενος": 95,
  "δυαδι": 95,
  "εδηλωσεν": 95,
  "προθυμως": 94,
  "προαγ": 94,
  "ερωτηθεις": 94,
  "##ραι": 94,
  "##πι": 94,
  "βαρβαρων": 94,
  "λημμα": 94,
  "##λι": 94,
  "εμαυτου": 94,
  "##ημενον": 94,
  "αποθαν": 94,
  "προελθων": 94,
  "απολογ": 94,
  "εχουσας": 94,
  "αριστου": 94,
  "##τατους": 94,
  "ισην": 94,
  "τριχη": 94,
  "δημιουργου": 94,
  "νοητου": 94,
  "παχυν": 94,
  "ιδωμεν": 94,
  "νομιζοντες": 94,
  "αιματι": 94,
  "κριτων": 94,
  "περιπατει": 94,
  "μικρω": 94,
  "##εσθε": 94,
  "λιθους": 94,
  "ουδετερα": 94,
  "ενιους": 94,
  "νοσηματων": 94,
  "σωματικων": 94,
  "αναφ": 94,
  "οδου": 94,
  "τρισι": 94,
  "μεριστον": 94,
  "αμερ": 94,
  "εχουσων": 94,
  "νοων": 94,
  "βιαιον": 94,
  "ικανη": 94,
  "ομωνυμα": 94,
  "απηρ": 94,
  "κοινωνει": 94,
  "φορ": 94,
  "ακριβεστερον": 94,
  "πασχοντος": 94,
  "πυκνον": 94,
  "ευθυν": 94,
  "συμπληρω": 94,
  "πολλαπλασιον": 94,
  "βουλευτ": 94,
  "γνωριμα": 94,
  "ψυχροτητος": 94,
  "ζητουμενου": 94,
  "ποροι": 94,
  "προτασεσιν": 94,
  "υπολαβων": 93,
  "πλουτω": 93,
  "επισης": 93,
  "##ερ": 93,
  "αδικου": 93,
  "εκεινας": 93,
  "επιδι": 93,
  "μελος": 93,
  "ισασιν": 93,
  "δημοκρατιαν": 93,
  "λακεδαιμονιων": 93,
  "αριστερα": 93,
  "εκλυ": 93,
  "πατριδος": 93,
  "προτερος": 93,
  "νεως": 93,
  "επεξ": 93,
  "αποτελεσμα": 93,
  "##οτεροι": 93,
  "γεγονοτα": 93,
  "μιγμα": 93,
  "συνεχων": 93,
  "απαθες": 93,
  "ιατροι": 93,
  "##νω": 93,
  "υπεξ": 93,
  "προσηκοντα": 93,
  "αταρ": 93,
  "νηφ": 93,
  "αντιστροφ": 93,
  "χειρονος": 93,
  "ειωθε": 93,
  "αρχ": 93,
  "μηχαν": 93,
  "συγγενες": 93,
  "επιφερ": 93,
  "πονον": 93,
  "ενει": 93,
  "αληθει": 93,
  "υπνου": 93,
  "παυ": 93,
  "στερησει": 93,
  "διαστηματι": 93,
  "εξομεν": 93,
  "ισος": 93,
  "διωκ": 93,
  "σκληρο": 93,
  "βαρυτερον": 93,
  "συμβαινοντων": 93,
  "αρμον": 93,
  "τιμιω": 93,
  "σημαινομενων": 93,
  "λημματα": 93,
  "χωριζεσθαι": 93,
  "αυξησεως": 93,
  "παρωχη": 93,
  "περιττωματος": 93,
  "θαλασσα": 93,
  "ανακλασις": 93,
  "αδιοριστ": 93,
  "κατοπτ": 92,
  "σπερματα": 92,
  "φρονιμω": 92,
  "αδικω": 92,
  "ηξιου": 92,
  "ομηρον": 92,
  "νικη": 92,
  "##εφ": 92,
  "ελαχιστα": 92,
  "τιθενται": 92,
  "ημετερας": 92,
  "αγγειων": 92,
  "οφθαλμοις": 92,
  "υποδε": 92,
  "οψ": 92,
  "γεγραμμενα": 92,
  "ποιησις": 92,
  "εκπλη": 92,
  "δεινος": 92,
  "##ητος": 92,
  "##θης": 92,
  "φυτου": 92,
  "ανδρασι": 92,
  "ουσιαις": 92,
  "οψεις": 92,
  "βαθει": 92,
  "συμπλοκην": 92,
  "συνθεσεως": 92,
  "συνεχ": 92,
  "τελεον": 92,
  "οτουουν": 92,
  "αθανατος": 92,
  "πτηνον": 92,
  "απαντ": 92,
  "θεραπειαν": 92,
  "μετριον": 92,
  "παρεχ": 92,
  "εμμεν": 92,
  "αρχαιων": 92,
  "εκλεγ": 92,
  "αστρολογ": 92,
  "περιεχεσθαι": 92,
  "εξεστιν": 92,
  "ορμης": 92,
  "νοεισθαι": 92,
  "φανερω": 92,
  "διαλεκτικος": 92,
  "πειρατεον": 92,
  "ρητορικης": 92,
  "##ημον": 92,
  "κυστιν": 92,
  "οσμης": 92,
  "ηθων": 91,
  "περιελ": 91,
  "ειρηνην": 91,
  "αδ": 91,
  "επισταμενος": 91,
  "αρεσ": 91,
  "ουδαμη": 91,
  "ανομοιο": 91,
  "εγγυ": 91,
  "##λους": 91,
  "γενομενους": 91,
  "ευνοιαν": 91,
  "αδηλων": 91,
  "τριχως": 91,
  "κρειττονος": 91,
  "ορεκ": 91,
  "##λο": 91,
  "αντιληψις": 91,
  "φλεβας": 91,
  "ανομοια": 91,
  "τραχυ": 91,
  "πολιτικην": 91,
  "εχωσιν": 91,
  "χρυσον": 91,
  "επιτηδευματα": 91,
  "##πων": 91,
  "πονος": 91,
  "νοητοις": 91,
  "ανιε": 91,
  "διαθεσεως": 91,
  "πορευ": 91,
  "επιθυμιαις": 91,
  "μηδεμια": 91,
  "οσμην": 91,
  "ζητησει": 91,
  "##ηματα": 91,
  "παθημα": 91,
  "τοιον": 91,
  "μεταλαμβανειν": 91,
  "ακινητα": 91,
  "επιτηδευματων": 91,
  "αλω": 91,
  "##κται": 91,
  "μελλη": 91,
  "ορισμων": 91,
  "συμμ": 91,
  "μαθησις": 91,
  "αποδιδωσι": 91,
  "αντικεισθαι": 91,
  "ακολουθησ": 91,
  "απορησειεν": 91,
  "εξεων": 91,
  "τρω": 90,
  "θαυμασ": 90,
  "ακου": 90,
  "βεβαιως": 90,
  "ολιγους": 90,
  "ιδρυ": 90,
  "παρει": 90,
  "συγγενεις": 90,
  "##μασι": 90,
  "δοτεον": 90,
  "προτερας": 90,
  "γενν": 90,
  "ωρισ": 90,
  "συστασεως": 90,
  "συνθετα": 90,
  "ηδεων": 90,
  "ομοιους": 90,
  "##υσιν": 90,
  "δεοντως": 90,
  "ταληθη": 90,
  "εγκρατεια": 90,
  "λογιζεσθαι": 90,
  "ορθης": 90,
  "συντα": 90,
  "διαθεσεις": 90,
  "τιθησιν": 90,
  "δοξαις": 90,
  "ιατρι": 90,
  "ογκω": 90,
  "αναγκαι": 90,
  "χρωμενων": 90,
  "χολης": 90,
  "ελλειπον": 90,
  "κατεσκευ": 90,
  "ζητ": 90,
  "διαφεροι": 90,
  "μυ": 90,
  "βλεπων": 90,
  "οιη": 90,
  "αδυνατων": 90,
  "ασυν": 90,
  "ορνιθων": 90,
  "υποληπτεον": 90,
  "παραδειγματων": 90,
  "γεννη": 90,
  "λογικην": 90,
  "συλλογισμοις": 90,
  "ηρεμια": 90,
  "##αζοντα": 90,
  "αοριστος": 90,
  "ιπποι": 90,
  "γινομεναι": 89,
  "φυγη": 89,
  "απαγορ": 89,
  "##ρως": 89,
  "εωρα": 89,
  "στοματι": 89,
  "γυναιξιν": 89,
  "δηποτε": 89,
  "ελευθεριας": 89,
  "##σμον": 89,
  "επαινων": 89,
  "θαρρ": 89,
  "ταχος": 89,
  "##θωσι": 89,
  "μετεχοντα": 89,
  "λυπ": 89,
  "ποιος": 89,
  "κτησασθαι": 89,
  "##ητικον": 89,
  "##οειδες": 89,
  "##τερω": 89,
  "διαδι": 89,
  "τοτ": 89,
  "στα": 89,
  "##αμενους": 89,
  "πεποιηται": 89,
  "φιλοσοφοι": 89,
  "ελπιδα": 89,
  "χαριζεσθαι": 89,
  "εραν": 89,
  "κυριωτατον": 89,
  "αντιδι": 89,
  "ορμα": 89,
  "εγγινεται": 89,
  "##θησι": 89,
  "ανυ": 89,
  "κυριοι": 89,
  "παραγ": 89,
  "ξηραν": 89,
  "τεχναις": 89,
  "αφωρισ": 89,
  "συγχωρειν": 89,
  "διαδο": 89,
  "μαχεται": 89,
  "αλλοιω": 89,
  "νοσους": 89,
  "ομοιας": 89,
  "φαινομενοις": 89,
  "εστωσαν": 89,
  "διωρισμενων": 89,
  "δυνησομεθα": 89,
  "προβ": 89,
  "εδειξαμεν": 89,
  "συναληθ": 89,
  "προτασει": 89,
  "απορησειε": 89,
  "παθητικα": 89,
  "χρυσιππου": 89,
  "επογδο": 89,
  "ωον": 89,
  "##ησειν": 88,
  "φιλοσοφω": 88,
  "##σωμεν": 88,
  "ποιητην": 88,
  "##μασιν": 88,
  "ολιγοις": 88,
  "απειργ": 88,
  "τεσσαρες": 88,
  "##εξ": 88,
  "αρχουσιν": 88,
  "ενισ": 88,
  "αιγυπτον": 88,
  "βαναυσ": 88,
  "ενδει": 88,
  "εφιε": 88,
  "επικριν": 88,
  "##ωντες": 88,
  "μοναχως": 88,
  "φυσικως": 88,
  "ορασις": 88,
  "ορατα": 88,
  "##ατον": 88,
  "##ετον": 88,
  "τυραννι": 88,
  "θεραπευειν": 88,
  "τυπον": 88,
  "ιδιωτων": 88,
  "εξηγη": 88,
  "γεννησ": 88,
  "αλογος": 88,
  "ενον": 88,
  "τελειοτης": 88,
  "##ευει": 88,
  "σαυτου": 88,
  "ποικιλον": 88,
  "ξεν": 88,
  "εμμ": 88,
  "φανειται": 88,
  "##κτεον": 88,
  "θη": 88,
  "διδασκαλιαν": 88,
  "συνθετων": 88,
  "δυνατου": 88,
  "ποιουμεν": 88,
  "δεκας": 88,
  "ιπποκρατους": 88,
  "ομοιομερων": 88,
  "συμπλο": 88,
  "βαρυτερα": 87,
  "κτω": 87,
  "αλεξανδρος": 87,
  "αμεινων": 87,
  "προτρεπ": 87,
  "κολακ": 87,
  "##ιδας": 87,
  "εχωσι": 87,
  "##ριοις": 87,
  "αισχρων": 87,
  "γελοι": 87,
  "απορρε": 87,
  "ειδοτα": 87,
  "καταληψιν": 87,
  "ζηνων": 87,
  "αιρεσεως": 87,
  "ανηρη": 87,
  "πυθαγοραν": 87,
  "λεπτο": 87,
  "λιθω": 87,
  "εμψυχα": 87,
  "αριστων": 87,
  "αποτελ": 87,
  "κομψ": 87,
  "##βου": 87,
  "##ηθηναι": 87,
  "λαβοντα": 87,
  "απολλυ": 87,
  "ομοιοι": 87,
  "λευκα": 87,
  "ποιητικου": 87,
  "συνεγγυς": 87,
  "ριγ": 87,
  "αξιουσιν": 87,
  "μετατι": 87,
  "κατηγορια": 87,
  "αμαρτηματων": 87,
  "δυναμενην": 87,
  "διαφοροι": 87,
  "ημι": 87,
  "ομολογει": 87,
  "επιθυμ": 87,
  "μιμημα": 87,
  "μετοικ": 87,
  "θεωρηματα": 87,
  "αναλω": 87,
  "εγγεν": 87,
  "στρεφ": 87,
  "λυει": 87,
  "ελλειψις": 87,
  "##σθεν": 87,
  "διαλεκτικον": 87,
  "φευγει": 87,
  "υπαλλ": 87,
  "εκλε": 87,
  "ενιαι": 87,
  "πλινθ": 87,
  "γενναται": 87,
  "ομολογιας": 87,
  "οφθαλμον": 87,
  "ρεον": 87,
  "εργαζεσθαι": 87,
  "ορατων": 87,
  "κατασκευαζοντα": 87,
  "θεωρηματων": 87,
  "κριν": 87,
  "ιδιος": 87,
  "αριθμητικη": 87,
  "ακινη": 87,
  "ατελη": 87,
  "ποιητικων": 87,
  "αληθευει": 87,
  "ληφθεντος": 87,
  "κατηγορουμενος": 87,
  "δεδειγμενον": 87,
  "συζυγιων": 87,
  "πταρ": 87,
  "εβουλετο": 86,
  "##ωσθαι": 86,
  "##τεροις": 86,
  "σκυτοτο": 86,
  "βελτιστα": 86,
  "πρεπει": 86,
  "συμφεροντα": 86,
  "στη": 86,
  "σκελη": 86,
  "υβριν": 86,
  "πειραται": 86,
  "συγκρισιν": 86,
  "εντελεχειαν": 86,
  "ασωματος": 86,
  "αναπνειν": 86,
  "κουφο": 86,
  "κεντρου": 86,
  "##κις": 86,
  "ωτων": 86,
  "διατειν": 86,
  "##μαν": 86,
  "ασθενη": 86,
  "πρωταγορα": 86,
  "##τεα": 86,
  "επη": 86,
  "##οα": 86,
  "εργαζεται": 86,
  "ταραττ": 86,
  "χαιρει": 86,
  "εμην": 86,
  "εξευ": 86,
  "αφροδισιων": 86,
  "δεδι": 86,
  "λαβουσα": 86,
  "γυναιξι": 86,
  "οικονομι": 86,
  "ποδων": 86,
  "συμφωνιαν": 86,
  "ασωματα": 86,
  "βαθυ": 86,
  "τετακται": 86,
  "τριχας": 86,
  "νοητω": 86,
  "εκατεραν": 86,
  "σφαλλ": 86,
  "υποστασει": 86,
  "τεως": 86,
  "απορειν": 86,
  "γιγνοιτ": 86,
  "συνδ": 86,
  "τρισιν": 86,
  "ημετεραν": 86,
  "σιδηρον": 86,
  "συντη": 86,
  "ορι": 86,
  "##τρια": 86,
  "##μιαν": 86,
  "πιστον": 86,
  "ειρημενην": 86,
  "τελειω": 86,
  "αξιωματα": 86,
  "ατελεις": 86,
  "οσφρησις": 86,
  "σκεψις": 86,
  "δεικτεον": 86,
  "αρτιος": 86,
  "μεταληψιν": 86,
  "εναλλαξ": 86,
  "※": 86,
  "ενοχλ": 85,
  "παρουσης": 85,
  "##τιον": 85,
  "αποδεχ": 85,
  "φυλαττεσθαι": 85,
  "αναισθη": 85,
  "διογενης": 85,
  "##δημος": 85,
  "φυσικω": 85,
  "προτεραν": 85,
  "χειμερι": 85,
  "νεφους": 85,
  "βλαπτειν": 85,
  "επεσ": 85,
  "επιτηδευμα": 85,
  "χρωμενη": 85,
  "χρυσος": 85,
  "πλουσιω": 85,
  "υπεναντι": 85,
  "πιστεως": 85,
  "ελεγχ": 85,
  "##εστατα": 85,
  "##εισα": 85,
  "ηγεμονι": 85,
  "##υσαν": 85,
  "οντινα": 85,
  "εμπει": 85,
  "πραττομεν": 85,
  "λεχθεντα": 85,
  "νηνε": 85,
  "σηπ": 85,
  "οργανου": 85,
  "περιττα": 85,
  "διεσ": 85,
  "σιδηρος": 85,
  "συνθετου": 85,
  "γνωριζ": 85,
  "υστερας": 85,
  "καταφασεως": 85,
  "υπεκειτο": 85,
  "σημαινον": 85,
  "ρητορικην": 85,
  "αποφασει": 85,
  "λαμβανομενων": 85,
  "⟦": 85,
  "εδωκε": 84,
  "ειργ": 84,
  "διδασκων": 84,
  "πλειοσι": 84,
  "συμβουλευ": 84,
  "##ψει": 84,
  "##αζεται": 84,
  "συνεφ": 84,
  "δικα": 84,
  "##ζοντων": 84,
  "ημεραις": 84,
  "ευτυχ": 84,
  "##σατο": 84,
  "ηγουμενοι": 84,
  "διεξι": 84,
  "σχημασιν": 84,
  "σκιαν": 84,
  "νεφος": 84,
  "##ψη": 84,
  "καλουνται": 84,
  "αποτελε": 84,
  "##οτεραν": 84,
  "αποκρινομενος": 84,
  "βλαβερα": 84,
  "σκεψεως": 84,
  "επιθυμει": 84,
  "ακριβειαν": 84,
  "καθησθαι": 84,
  "μιμεισθαι": 84,
  "ιθι": 84,
  "παιδαγωγ": 84,
  "μιγνυ": 84,
  "δαιμονων": 84,
  "κερδος": 84,
  "συνηθειας": 84,
  "προστιθησιν": 84,
  "γιγνομενοις": 84,
  "φρονησει": 84,
  "##ιοι": 84,
  "εχοιεν": 84,
  "συντιθε": 84,
  "δειλια": 84,
  "##ηκεναι": 84,
  "##οτερων": 84,
  "προσθηκη": 84,
  "ειποις": 84,
  "απαντι": 84,
  "πληγης": 84,
  "##δευ": 84,
  "εγγυθεν": 84,
  "##ιζονται": 84,
  "θερμη": 84,
  "φυλαξ": 84,
  "εκειναι": 84,
  "εκουσιως": 84,
  "ορωμενων": 84,
  "υφαν": 84,
  "χειμων": 84,
  "εκκριν": 84,
  "χυμοι": 84,
  "παρατιθεται": 84,
  "πεψις": 84,
  "υπαρχετω": 84,
  "εκτιθεται": 84,
  "καλουμενος": 83,
  "αντε": 83,
  "κακεινος": 83,
  "επαρ": 83,
  "χωρειν": 83,
  "##διον": 83,
  "φυλακας": 83,
  "νεωτερον": 83,
  "αραι": 83,
  "αμερη": 83,
  "εγκατα": 83,
  "επιχ": 83,
  "ευριπιδης": 83,
  "ρυ": 83,
  "στιλβ": 83,
  "εμπειριαν": 83,
  "τειν": 83,
  "ωφελιμα": 83,
  "αρχομενος": 83,
  "αμφι": 83,
  "αψυχα": 83,
  "τοιαυτ": 83,
  "κυνος": 83,
  "##τεται": 83,
  "παιδεια": 83,
  "θεαν": 83,
  "ενδοθεν": 83,
  "σαρκων": 83,
  "συνοικ": 83,
  "εμπεριεχ": 83,
  "παραθεσει": 83,
  "επιτα": 83,
  "εδυνατο": 83,
  "μετρα": 83,
  "διαμετρος": 83,
  "σχολη": 83,
  "φυ": 83,
  "λευκοτης": 83,
  "αναλογ": 83,
  "κορη": 83,
  "αμαρτημα": 83,
  "ανακαμπ": 83,
  "επαινος": 83,
  "μεσης": 83,
  "πλευραν": 83,
  "αναγειν": 83,
  "χρησιμων": 83,
  "εμποιει": 83,
  "γενικ": 83,
  "κατηγορειν": 83,
  "ομο": 83,
  "λευκαι": 83,
  "δειχθη": 83,
  "απτων": 83,
  "##ψας": 82,
  "##εστερος": 82,
  "##ασαν": 82,
  "ικανα": 82,
  "συναν": 82,
  "διαπ": 82,
  "νομιζω": 82,
  "σπουδ": 82,
  "μελλοι": 82,
  "φευγων": 82,
  "διαλειπ": 82,
  "φιλομα": 82,
  "τελευταια": 82,
  "##ερος": 82,
  "γηρα": 82,
  "ελλην": 82,
  "πρεσβυτερων": 82,
  "αποκρισιν": 82,
  "απολυ": 82,
  "φαιν": 82,
  "ειποντες": 82,
  "##κτι": 82,
  "προσω": 82,
  "απογ": 82,
  "απαλλαττ": 82,
  "##ωσα": 82,
  "ξηρας": 82,
  "νεφη": 82,
  "προσπεσ": 82,
  "αντικ": 82,
  "γενωνται": 82,
  "δεοντος": 82,
  "παραδο": 82,
  "ιων": 82,
  "φαυλοι": 82,
  "##μμα": 82,
  "παραδιδ": 82,
  "σοφους": 82,
  "διατα": 82,
  "κατανο": 82,
  "εγχει": 82,
  "νοσημα": 82,
  "υπομιμνησκει": 82,
  "μουσικω": 82,
  "##στικον": 82,
  "κεφαλαιον": 82,
  "ισχυρον": 82,
  "αισθητω": 82,
  "νομισμα": 82,
  "επιτρεπ": 82,
  "τιμιωτερον": 82,
  "τεχνι": 82,
  "εσομεθα": 82,
  "κινηθησεται": 82,
  "αρμοττει": 82,
  "φθογγ": 82,
  "ανθρωπινον": 82,
  "γευσιν": 82,
  "ειρημενας": 82,
  "τεχνιτης": 82,
  "μαθηματικης": 82,
  "συνθεσει": 82,
  "αιρεται": 82,
  "ανισ": 82,
  "δειξομεν": 82,
  "γαλακτος": 82,
  "κεχρωσ": 82,
  "ληφθειη": 82,
  "⟧": 82,
  "προσηκειν": 81,
  "βασιλειας": 81,
  "ελεγχειν": 81,
  "ρηθεν": 81,
  "γραφη": 81,
  "οπλων": 81,
  "εδωκεν": 81,
  "##αλ": 81,
  "εσταναι": 81,
  "θαρρειν": 81,
  "πιεζ": 81,
  "αφει": 81,
  "ανελ": 81,
  "προπ": 81,
  "ηρακλειτος": 81,
  "χαλκον": 81,
  "##ετα": 81,
  "##αθε": 81,
  "λυσι": 81,
  "αλληλ": 81,
  "ταυτοματου": 81,
  "αναμιμνησ": 81,
  "απορω": 81,
  "ατοπος": 81,
  "αποτρεπ": 81,
  "κατασκευης": 81,
  "προσεχ": 81,
  "χερσι": 81,
  "ακολουθια": 81,
  "επιμο": 81,
  "περιεργ": 81,
  "##στως": 81,
  "πενιαν": 81,
  "λοιπαι": 81,
  "ποιοτητων": 81,
  "οργανοις": 81,
  "εσχατου": 81,
  "φθανει": 81,
  "αποκρινομενον": 81,
  "αγαλμα": 81,
  "τεμνειν": 81,
  "συμπλεκ": 81,
  "αλλοθι": 81,
  "υποτιθε": 81,
  "συνω": 81,
  "λεξεις": 81,
  "αιτιοι": 81,
  "μετρω": 81,
  "βαθους": 81,
  "συλλαβη": 81,
  "επαι": 81,
  "φθαρηναι": 81,
  "##κεις": 81,
  "προβληματι": 81,
  "##ινο": 81,
  "καπι": 81,
  "ατελης": 81,
  "φερομενου": 81,
  "τεκτον": 81,
  "υποκεισθω": 81,
  "εγκεφαλος": 81,
  "γραμματικον": 81,
  "αγνω": 81,
  "αδιαιρ": 81,
  "κινηθηναι": 81,
  "εγρηγορσις": 81,
  "αναισθητον": 81,
  "θυμοειδες": 81,
  "βιων": 80,
  "βουλομενους": 80,
  "εξειν": 80,
  "μελλοντι": 80,
  "πειθω": 80,
  "καλην": 80,
  "εξον": 80,
  "λακων": 80,
  "εστια": 80,
  "κωλυειν": 80,
  "ποιουντας": 80,
  "επιδειξ": 80,
  "σιδηρου": 80,
  "δικαιω": 80,
  "φυγην": 80,
  "οργ": 80,
  "πρωταγορας": 80,
  "περιπατη": 80,
  "επινοιαν": 80,
  "δημιουργον": 80,
  "ποικιλ": 80,
  "αυτοματον": 80,
  "##οειδη": 80,
  "αναθυμι": 80,
  "υποκειμενης": 80,
  "ερασιστρατος": 80,
  "εννοια": 80,
  "επονομα": 80,
  "##εστατος": 80,
  "εθελοι": 80,
  "ηρξατο": 80,
  "παλαιον": 80,
  "ιδιοις": 80,
  "απορον": 80,
  "αναβ": 80,
  "γνωμ": 80,
  "εξαπατ": 80,
  "μεθιστα": 80,
  "πατερων": 80,
  "ελκειν": 80,
  "ομοειδη": 80,
  "φιλα": 80,
  "συμφωνον": 80,
  "##καις": 80,
  "αγωνα": 80,
  "δυναμεσιν": 80,
  "δηλωσαι": 80,
  "γεωργ": 80,
  "##στεον": 80,
  "ελθη": 80,
  "διαμενειν": 80,
  "υπερβολης": 80,
  "ονομαζει": 80,
  "γεωμετριας": 80,
  "διακρινειν": 80,
  "πειρα": 80,
  "υδατα": 80,
  "απειροι": 80,
  "επιστημαις": 80,
  "ολιγαρχιαν": 80,
  "ισοι": 80,
  "πεπερασμενω": 80,
  "αμαρτανει": 80,
  "αποφασ": 80,
  "ατμι": 80,
  "εκπνε": 80,
  "προσληφ": 80,
  "τυραννου": 79,
  "χρυσιον": 79,
  "σεαυτον": 79,
  "αναπ": 79,
  "μεγαν": 79,
  "παλαιστ": 79,
  "καλους": 79,
  "ημαρτη": 79,
  "εμπειριας": 79,
  "σπουδαζ": 79,
  "ρωμην": 79,
  "ετ": 79,
  "κατηγορου": 79,
  "μαχης": 79,
  "ωφελειας": 79,
  "στοιχειοις": 79,
  "βοων": 79,
  "πληγην": 79,
  "##νους": 79,
  "ηγ": 79,
  "ακουομεν": 79,
  "ανατομ": 79,
  "αστρον": 79,
  "ηδι": 79,
  "αμουσ": 79,
  "ηυ": 79,
  "προσκ": 79,
  "ταξ": 79,
  "αμβλυ": 79,
  "διηρηται": 79,
  "εκαστοι": 79,
  "επειδηπερ": 79,
  "οδοντας": 79,
  "ποιησιν": 79,
  "νομιζων": 79,
  "καταχ": 79,
  "αργ": 79,
  "##αζων": 79,
  "ασθενεστερα": 79,
  "ονομαζεται": 79,
  "οικειν": 79,
  "υπερβαλλον": 79,
  "περατων": 79,
  "ομολογειται": 79,
  "ενυπαρχειν": 79,
  "φιλονικ": 79,
  "οικειοις": 79,
  "λεγοιτ": 79,
  "κοσμι": 79,
  "ραδια": 79,
  "μεθοδου": 79,
  "υγιης": 79,
  "εμπειρια": 79,
  "μελων": 79,
  "ποιουμενοι": 79,
  "ακρω": 79,
  "##αινων": 79,
  "μακρα": 79,
  "νομιζ": 79,
  "λειον": 79,
  "ανεμος": 79,
  "διαφερουσα": 79,
  "απας": 79,
  "κριτηριου": 79,
  "δευτερως": 79,
  "κινουνται": 79,
  "νοσ": 79,
  "νομοφυλακ": 79,
  "συσσι": 79,
  "φιλιαι": 79,
  "μεμιχθαι": 79,
  "υπηρχε": 79,
  "μεταβαλλοντος": 79,
  "ασθενης": 79,
  "αισθητηρια": 79,
  "ωα": 79,
  "εμελλε": 78,
  "συνεστ": 78,
  "##ζομενων": 78,
  "τιμημα": 78,
  "##λει": 78,
  "επανι": 78,
  "πολυπραγμον": 78,
  "##ωτος": 78,
  "προσαγορευομεν": 78,
  "καλοι": 78,
  "θυειν": 78,
  "αρρενων": 78,
  "θεσθαι": 78,
  "μισειν": 78,
  "##αζει": 78,
  "##οσι": 78,
  "ενθουσι": 78,
  "επικουρον": 78,
  "ληγον": 78,
  "συγχωρει": 78,
  "σβεννυ": 78,
  "λιθων": 78,
  "προω": 78,
  "##γραφ": 78,
  "επιδειξαι": 78,
  "##δοι": 78,
  "ακολαστ": 78,
  "τοισδε": 78,
  "ασυλλογιστον": 78,
  "φιλοπ": 78,
  "επαγ": 78,
  "δυσκολ": 78,
  "αλλοτριω": 78,
  "εθνη": 78,
  "ακουσια": 78,
  "τυπου": 78,
  "εποι": 78,
  "μιξ": 78,
  "εκατερων": 78,
  "##θι": 78,
  "αμελ": 78,
  "ρε": 78,
  "πολιτικα": 78,
  "υπονο": 78,
  "γνωρισ": 78,
  "διπλασιου": 78,
  "πολλαχη": 78,
  "διδασκεται": 78,
  "φθονος": 78,
  "παρακ": 78,
  "##αζουσιν": 78,
  "επιβλε": 78,
  "αποδειξει": 78,
  "##θησονται": 78,
  "συστη": 78,
  "διελειν": 78,
  "συνωνυμως": 78,
  "επιδεχ": 78,
  "στεγ": 78,
  "##στερον": 78,
  "υποθεσει": 78,
  "αναγκαιαι": 78,
  "χυμου": 78,
  "υπατη": 78,
  "καταφασει": 78,
  "ρις": 78,
  "ασυλλογιστοι": 78,
  "μικρας": 77,
  "ειποντα": 77,
  "εγκαλ": 77,
  "καλεισθαι": 77,
  "##ορα": 77,
  "προσπ": 77,
  "ησθη": 77,
  "ναυς": 77,
  "ιουδαιων": 77,
  "πρι": 77,
  "φρον": 77,
  "##ριαν": 77,
  "θηριον": 77,
  "μαχ": 77,
  "δεομενος": 77,
  "μετι": 77,
  "##ζομενου": 77,
  "καθιστα": 77,
  "συναγων": 77,
  "νομιζει": 77,
  "ενεχ": 77,
  "μετειλη": 77,
  "αλογω": 77,
  "εμφασιν": 77,
  "##ξεως": 77,
  "γιγνομενης": 77,
  "τυγχανη": 77,
  "αυξεσθαι": 77,
  "μιχ": 77,
  "ελεγες": 77,
  "##σειε": 77,
  "τιθ": 77,
  "συγχωρησ": 77,
  "ζητουσι": 77,
  "καλουμενων": 77,
  "##στην": 77,
  "φαυλοις": 77,
  "εχεται": 77,
  "ποιουντων": 77,
  "απολαυσιν": 77,
  "##τερας": 77,
  "αγ": 77,
  "##νοι": 77,
  "##ωτατον": 77,
  "##ψεως": 77,
  "##ιδι": 77,
  "τιθεμενον": 77,
  "##αια": 77,
  "αναλογιας": 77,
  "σιτου": 77,
  "λυτ": 77,
  "απαθη": 77,
  "ομοιομερη": 77,
  "βουλομενω": 77,
  "ομιλιας": 77,
  "εγγιγνεται": 77,
  "αναλισ": 77,
  "αναπλη": 77,
  "γνωριζομεν": 77,
  "εφαινετο": 77,
  "ημιολι": 77,
  "ανομοιου": 77,
  "κινησεται": 77,
  "διανεμ": 77,
  "επιτρι": 77,
  "διαιτης": 77,
  "εποιουν": 77,
  "περιττω": 77,
  "ανασκευαζειν": 77,
  "##δια": 76,
  "βασιλεις": 76,
  "εξελεγχ": 76,
  "πραως": 76,
  "ελευθερων": 76,
  "βουλομενοις": 76,
  "ακουοντες": 76,
  "παρασχειν": 76,
  "βουλης": 76,
  "εποιησαν": 76,
  "λαμβανοντας": 76,
  "γενητον": 76,
  "διαλλ": 76,
  "προσγ": 76,
  "γιγνομενη": 76,
  "τετταρας": 76,
  "πλειστου": 76,
  "ιστασθαι": 76,
  "επισυν": 76,
  "οσφραιν": 76,
  "αγον": 76,
  "επαινον": 76,
  "προφερ": 76,
  "αριστε": 76,
  "ορωσιν": 76,
  "πεπονθεναι": 76,
  "δακν": 76,
  "##τομενοι": 76,
  "##τατοις": 76,
  "διεφθαρ": 76,
  "αφιλ": 76,
  "αφιστα": 76,
  "απαιδευ": 76,
  "##κοντα": 76,
  "##εσ": 76,
  "αποκρινεται": 76,
  "ασωματων": 76,
  "χροαν": 76,
  "διαστηματα": 76,
  "συνθε": 76,
  "τριγωνων": 76,
  "ακινητος": 76,
  "##ακ": 76,
  "ηγεμων": 76,
  "αρεσκει": 76,
  "κερ": 76,
  "##ιδ": 76,
  "αξιουμεν": 76,
  "##σμενον": 76,
  "παμπολυ": 76,
  "αντιτι": 76,
  "συγγενων": 76,
  "ιχνη": 76,
  "προκατα": 76,
  "διαμ": 76,
  "καθεστηκεν": 76,
  "επιτροπ": 76,
  "σωζει": 76,
  "αισθησεσιν": 76,
  "αρτιου": 76,
  "αφελ": 76,
  "φιλεισθαι": 76,
  "συμφωνου": 76,
  "εμψυχος": 76,
  "συμβη": 76,
  "##υπ": 76,
  "αισθητας": 76,
  "μεταλαβ": 76,
  "υγιως": 76,
  "διαμενει": 76,
  "ασυλλογιστος": 76,
  "προτασεσι": 76,
  "εναντιωσεις": 76,
  "αρτιοι": 76,
  "διασπα": 76,
  "παχυνεται": 76,
  "τριας": 76,
  "πτωσεις": 76,
  "απαγωγη": 76,
  "κατορθουν": 75,
  "##λλ": 75,
  "πολεμειν": 75,
  "εκφερ": 75,
  "μισο": 75,
  "εκελευσεν": 75,
  "μητρι": 75,
  "ηγουμενου": 75,
  "εισηγ": 75,
  "λακεδαιμονιοι": 75,
  "##αντο": 75,
  "##χια": 75,
  "τεσσαρας": 75,
  "ευτυχη": 75,
  "εξειναι": 75,
  "ηκειν": 75,
  "##γε": 75,
  "αντικειμενου": 75,
  "επιδεκ": 75,
  "##ενος": 75,
  "απλην": 75,
  "##ζουσα": 75,
  "συνεστηκε": 75,
  "εμψυχου": 75,
  "υποτιθεται": 75,
  "θωρακα": 75,
  "##ιχ": 75,
  "φαυλους": 75,
  "κυνων": 75,
  "καρπους": 75,
  "τοσονδε": 75,
  "αγα": 75,
  "συνιεναι": 75,
  "αποδω": 75,
  "ερασ": 75,
  "διαγραμμα": 75,
  "εθη": 75,
  "##ουμαι": 75,
  "εγωγ": 75,
  "πιειν": 75,
  "πολιτικων": 75,
  "κακοι": 75,
  "ποιητικην": 75,
  "##ιδα": 75,
  "μαθησιν": 75,
  "επαινουμεν": 75,
  "ωφελη": 75,
  "εποιησατο": 75,
  "##ημενων": 75,
  "επιλογ": 75,
  "επαινετον": 75,
  "κατηγορει": 75,
  "##κτος": 75,
  "εκουσι": 75,
  "ηγεμονα": 75,
  "στερ": 75,
  "μηδεμιας": 75,
  "γευσεως": 75,
  "κατασκευασαι": 75,
  "τιμαιω": 75,
  "επισκοπου": 75,
  "πλειστην": 75,
  "φιλοπον": 75,
  "##εος": 75,
  "ενην": 75,
  "δαιμων": 75,
  "δεσποτου": 75,
  "μεγιστου": 75,
  "ιδοι": 75,
  "μαθημασιν": 75,
  "##οτατην": 75,
  "εθνος": 75,
  "επισκεψ": 75,
  "καταγ": 75,
  "θανατω": 75,
  "φθειρει": 75,
  "ευπαθ": 75,
  "εσχατων": 75,
  "γεωμετριαν": 75,
  "πλεονακις": 75,
  "διαθε": 75,
  "##ωδης": 75,
  "αρτια": 75,
  "αμοι": 75,
  "εχομενα": 75,
  "##ησειεν": 75,
  "νοτος": 75,
  "##στερα": 75,
  "αιρουμεθα": 75,
  "ωφελεισθαι": 75,
  "πνιγ": 75,
  "##ιζομενοι": 75,
  "βουλησιν": 75,
  "προσθεσιν": 75,
  "##κτο": 75,
  "αιδιων": 75,
  "ενεστ": 75,
  "διαφανη": 75,
  "γραμματικης": 75,
  "τεθεντος": 75,
  "γελαστικον": 75,
  "αμφοτεραις": 74,
  "αρχομενων": 74,
  "μεγιστος": 74,
  "σφ": 74,
  "##αινομενον": 74,
  "εταιρων": 74,
  "##χθη": 74,
  "##σπ": 74,
  "##αμενου": 74,
  "πλουσιος": 74,
  "απολι": 74,
  "δυναμαι": 74,
  "αποκτειν": 74,
  "πεπ": 74,
  "πεφυκοτα": 74,
  "επιμ": 74,
  "υπολαμβανουσιν": 74,
  "γεγενησθαι": 74,
  "ειμαρμενη": 74,
  "κυκλων": 74,
  "εξαπ": 74,
  "εξατμι": 74,
  "ηγεμονικου": 74,
  "απωθ": 74,
  "ενθυμ": 74,
  "ψυχρω": 74,
  "##ησασθαι": 74,
  "φανη": 74,
  "καλοις": 74,
  "εκοντες": 74,
  "κτησις": 74,
  "##με": 74,
  "γελωτα": 74,
  "##νειν": 74,
  "##αμενη": 74,
  "##ηκε": 74,
  "αρμοττον": 74,
  "διαφοροις": 74,
  "ευδια": 74,
  "##φυ": 74,
  "υποστασις": 74,
  "εφιεσθαι": 74,
  "ενορ": 74,
  "λαμβανουσα": 74,
  "αντιλαμβανεται": 74,
  "##οδος": 74,
  "διδαξ": 74,
  "σκιας": 74,
  "##πλ": 74,
  "αορατον": 74,
  "παθηματα": 74,
  "λαμπ": 74,
  "υποκειμενην": 74,
  "ευεξιαν": 74,
  "πατερας": 74,
  "φλοξ": 74,
  "ζʹ": 74,
  "σχεσις": 74,
  "πλατυ": 74,
  "θερμων": 74,
  "κληρω": 74,
  "κυνας": 74,
  "αποδεδωκεν": 74,
  "οπ": 74,
  "ληφθηναι": 74,
  "θερμοτητι": 74,
  "ειληφθω": 74,
  "ουρη": 74,
  "σολων": 74,
  "λευκη": 74,
  "υλι": 74,
  "πιττα": 74,
  "καταφασ": 74,
  "αιγυπτιων": 73,
  "##ηθεις": 73,
  "κληρου": 73,
  "στρατηγος": 73,
  "τυραννον": 73,
  "ξενων": 73,
  "αγροι": 73,
  "μικραν": 73,
  "##σαμενος": 73,
  "σιωπη": 73,
  "περιεστ": 73,
  "εμη": 73,
  "συλλαβων": 73,
  "εκαλουν": 73,
  "ουτι": 73,
  "συνδια": 73,
  "προιεναι": 73,
  "θρασυμα": 73,
  "υπαρξεως": 73,
  "αισθητικης": 73,
  "δεος": 73,
  "##υσι": 73,
  "##οειδους": 73,
  "εντυχ": 73,
  "μορφ": 73,
  "υγρ": 73,
  "διεστ": 73,
  "δυναμενης": 73,
  "συνουσιαν": 73,
  "οντ": 73,
  "ειπες": 73,
  "διδαξαι": 73,
  "##κο": 73,
  "νεω": 73,
  "αντιλεγειν": 73,
  "θαυμαζω": 73,
  "κρατιστον": 73,
  "εχθρον": 73,
  "μεταφορα": 73,
  "προσδιαλεγ": 73,
  "γλισχ": 73,
  "αθε": 73,
  "ποριζ": 73,
  "δοκουσα": 73,
  "αμι": 73,
  "ψευδο": 73,
  "συμπο": 73,
  "επιτειν": 73,
  "βαρυν": 73,
  "πολυπο": 73,
  "χροας": 73,
  "συναυξ": 73,
  "καλλι": 73,
  "πολιται": 73,
  "φοβω": 73,
  "##ειε": 73,
  "κατεχ": 73,
  "πολυκ": 73,
  "##κομεν": 73,
  "##ξεται": 73,
  "ρηθεντων": 73,
  "οριζομενοι": 73,
  "διαλεκτικης": 73,
  "επειτ": 73,
  "εμφαινεται": 73,
  "επιθυμιαι": 73,
  "τελειαν": 73,
  "αμετα": 73,
  "προγονων": 73,
  "##επι": 73,
  "##ιπτε": 73,
  "διαστασιν": 73,
  "πεπερασ": 73,
  "στερεων": 73,
  "περιφορας": 73,
  "συλλογιζεται": 73,
  "ελλειπει": 73,
  "ευεξιας": 73,
  "συνουσια": 73,
  "ονπερ": 73,
  "αλλοιουται": 73,
  "επιδη": 73,
  "αξιωματων": 73,
  "ασυλλογ": 73,
  "καθως": 73,
  "καταφασεις": 73,
  "ηγεμονικω": 72,
  "θαυμαζ": 72,
  "##κι": 72,
  "καλας": 72,
  "παρρησια": 72,
  "##ησαντα": 72,
  "δημοκρατιας": 72,
  "βασιλευ": 72,
  "##ατα": 72,
  "##ησα": 72,
  "ληψεται": 72,
  "ποιησομεν": 72,
  "διδασκαλια": 72,
  "εξη": 72,
  "##τησθαι": 72,
  "ομολογουμεν": 72,
  "επιεικως": 72,
  "πλουσιων": 72,
  "ειρηνης": 72,
  "##θησαν": 72,
  "##ισαι": 72,
  "##αιος": 72,
  "καταρ": 72,
  "ανυπαρ": 72,
  "καταφερ": 72,
  "πασχουσιν": 72,
  "ψευδεται": 72,
  "τυπ": 72,
  "αρκτον": 72,
  "κτηματων": 72,
  "καλεις": 72,
  "αποσ": 72,
  "##ζομενα": 72,
  "ημεν": 72,
  "##ινει": 72,
  "εφυ": 72,
  "εργασ": 72,
  "χρησιμω": 72,
  "ευνοια": 72,
  "γνωμης": 72,
  "ιστα": 72,
  "αλυπ": 72,
  "##τετ": 72,
  "συγγενειαν": 72,
  "γραφ": 72,
  "##ετου": 72,
  "τιθεις": 72,
  "ασωματου": 72,
  "διαν": 72,
  "ανθρωπινης": 72,
  "μεταβαλλοντα": 72,
  "πορευεσθαι": 72,
  "λυεται": 72,
  "ετερο": 72,
  "επαλλ": 72,
  "##ευοντες": 72,
  "διαμετρου": 72,
  "ωφελει": 72,
  "λεληθεν": 72,
  "##ορι": 72,
  "τακ": 72,
  "τιθεμενων": 72,
  "φερομενα": 72,
  "ερρηθη": 72,
  "τμη": 72,
  "νοσοις": 72,
  "αντιληψιν": 72,
  "ειδεν": 72,
  "##τρι": 72,
  "απαγ": 72,
  "δεχομενη": 72,
  "εκτι": 72,
  "αφαιρεσεως": 72,
  "συμφεροντος": 72,
  "ικανην": 72,
  "σκοπος": 72,
  "αισθητικην": 72,
  "καλλικ": 72,
  "ανδριαντα": 72,
  "περισσ": 72,
  "αδιαιρετος": 72,
  "πειρωνται": 72,
  "εκλειπει": 72,
  "αμεσ": 72,
  "κειμενοις": 72,
  "καθαρως": 71,
  "τρεφει": 71,
  "##ιδος": 71,
  "ηττω": 71,
  "αχθ": 71,
  "εσομενον": 71,
  "εοικεναι": 71,
  "##ισμον": 71,
  "καρπου": 71,
  "τοπ": 71,
  "##τιαν": 71,
  "πραξεσι": 71,
  "##τερι": 71,
  "ακολασιαν": 71,
  "αγωνισ": 71,
  "συντομως": 71,
  "εκκαλυπ": 71,
  "##κτικον": 71,
  "λογικω": 71,
  "σπουδαιων": 71,
  "ωρισμενου": 71,
  "διηθ": 71,
  "μηκει": 71,
  "ιριδος": 71,
  "αποτελειν": 71,
  "υγρας": 71,
  "μορφας": 71,
  "απασαι": 71,
  "καταμ": 71,
  "ιον": 71,
  "γιγνωσκει": 71,
  "χρυσου": 71,
  "επιτηδειον": 71,
  "ευα": 71,
  "##εστεροι": 71,
  "δυναιτ": 71,
  "βλαβη": 71,
  "μεταβολαι": 71,
  "υπερβαλλει": 71,
  "μετρι": 71,
  "πυκ": 71,
  "μελιτ": 71,
  "##οπο": 71,
  "αφροσυνης": 71,
  "ζημι": 71,
  "δυνη": 71,
  "ανθρωπινην": 71,
  "##οχ": 71,
  "πιε": 71,
  "αιρουνται": 71,
  "θεραπεια": 71,
  "δεσποτην": 71,
  "εκειναις": 71,
  "##εντες": 71,
  "σχεσει": 71,
  "ανι": 71,
  "συνολον": 71,
  "μηχανη": 71,
  "τεταρτου": 71,
  "##πτ": 71,
  "##θεσθαι": 71,
  "σιμο": 71,
  "θερμος": 71,
  "καιρου": 71,
  "επιστητα": 71,
  "σιμον": 71,
  "##ξαν": 71,
  "ξυλων": 71,
  "προβαλλ": 71,
  "##ωσαι": 71,
  "καταφρονειν": 71,
  "##ωτερα": 71,
  "##ροτερον": 71,
  "μονο": 71,
  "ωρισθαι": 71,
  "ηθικα": 71,
  "ζωσι": 71,
  "γεωμετρης": 71,
  "μεταφερ": 71,
  "περιφερειας": 71,
  "ατομω": 71,
  "δεικτικως": 71,
  "δεικτικον": 71,
  "αντιστραφ": 71,
  "οιας": 70,
  "πλειονας": 70,
  "εμελλεν": 70,
  "πονηρον": 70,
  "εων": 70,
  "κρατος": 70,
  "ιστορ": 70,
  "αθηναιους": 70,
  "αθηναιοις": 70,
  "ξενον": 70,
  "αποτε": 70,
  "##ησαντος": 70,
  "προσεχων": 70,
  "οπλοις": 70,
  "δοκων": 70,
  "φαιον": 70,
  "βασιλειαν": 70,
  "ενη": 70,
  "λειπο": 70,
  "##ευουσιν": 70,
  "παρασκευασ": 70,
  "μαλακια": 70,
  "ποταμον": 70,
  "εφησεν": 70,
  "ωρμη": 70,
  "ελεσθαι": 70,
  "ισχν": 70,
  "επιτηδεια": 70,
  "βεβαιω": 70,
  "ταραχ": 70,
  "διεζευγ": 70,
  "##ισθ": 70,
  "παραδειγματι": 70,
  "ισο": 70,
  "κοιλον": 70,
  "παραλλ": 70,
  "ποταμους": 70,
  "φαντασιων": 70,
  "γλωττης": 70,
  "φθαν": 70,
  "##ζετο": 70,
  "ωδ": 70,
  "μαθων": 70,
  "λεγοιμεν": 70,
  "##υειν": 70,
  "βλαπτει": 70,
  "μουσικου": 70,
  "διασω": 70,
  "αφορμας": 70,
  "μηκη": 70,
  "κατασκευη": 70,
  "ευσεβειας": 70,
  "εκν": 70,
  "ειρηνη": 70,
  "αρεταις": 70,
  "εκουσια": 70,
  "παραλογ": 70,
  "πηρω": 70,
  "ψευδει": 70,
  "οσμων": 70,
  "τυχοντος": 70,
  "##ωσης": 70,
  "περιφορα": 70,
  "##μοσ": 70,
  "##βαλλ": 70,
  "γινομενας": 70,
  "παρεκβ": 70,
  "τοσ": 70,
  "απονεμ": 70,
  "οποτερω": 70,
  "ειπω": 70,
  "πλατει": 70,
  "μετρων": 70,
  "βοηθειας": 70,
  "αστει": 70,
  "θεασ": 70,
  "μελιτος": 70,
  "ομοιοτης": 70,
  "υγιαινον": 70,
  "##ροτητος": 70,
  "βοηθειαν": 70,
  "προστιθεται": 70,
  "τοσουτου": 70,
  "φοβερα": 70,
  "##υε": 70,
  "ενθυμημα": 70,
  "κακιαι": 70,
  "ιατρευ": 70,
  "ψυχος": 70,
  "προκειμενων": 70,
  "ανισα": 70,
  "ποιοτητι": 70,
  "εναντιοτης": 70,
  "ειημεν": 70,
  "κατηγορηθησεται": 70,
  "τιμα": 69,
  "κριναι": 69,
  "μεθυσ": 69,
  "φοβερον": 69,
  "##εισης": 69,
  "αγανακτ": 69,
  "αποχρη": 69,
  "χαριτος": 69,
  "πλουτειν": 69,
  "εθε": 69,
  "αγνοουντες": 69,
  "φανερος": 69,
  "ελλησι": 69,
  "συστελλ": 69,
  "##ασας": 69,
  "ιστοριας": 69,
  "προιων": 69,
  "πι": 69,
  "αποκριναι": 69,
  "γραφων": 69,
  "ειδον": 69,
  "γεγραμμενον": 69,
  "παρμενιδης": 69,
  "πλειστους": 69,
  "υπολαμβανει": 69,
  "πληρη": 69,
  "αποπλη": 69,
  "προαιρεσει": 69,
  "##στ": 69,
  "πραττοντες": 69,
  "διαπεφ": 69,
  "ενθενδε": 69,
  "οποτερα": 69,
  "μανθανει": 69,
  "κτησεως": 69,
  "αμαθια": 69,
  "μαιν": 69,
  "εμποδων": 69,
  "αποφαινεσθαι": 69,
  "##υλι": 69,
  "τιθεμενος": 69,
  "##νι": 69,
  "αυτοθι": 69,
  "κεν": 69,
  "ενδεικνυται": 69,
  "ακουοντας": 69,
  "κατηγοριαι": 69,
  "μεθη": 69,
  "ευσεβειαν": 69,
  "συμφερ": 69,
  "εθνους": 69,
  "παρο": 69,
  "αδελφους": 69,
  "φθοραι": 69,
  "##μπ": 69,
  "οποιαν": 69,
  "##στοι": 69,
  "μακρω": 69,
  "προσωπου": 69,
  "κινουμενος": 69,
  "ολοις": 69,
  "νοσηματα": 69,
  "στηναι": 69,
  "εγγιν": 69,
  "αλγη": 69,
  "##οσιν": 69,
  "φθονον": 69,
  "ογκου": 69,
  "χωριστ": 69,
  "δευτερων": 69,
  "αιωνα": 69,
  "σκοπωμεν": 69,
  "παλαια": 69,
  "μον": 69,
  "συνεχειαν": 69,
  "συνηθεις": 69,
  "##οφαγ": 69,
  "επιθε": 69,
  "σοφοις": 69,
  "υπαρ": 69,
  "εθει": 69,
  "τιμωριας": 69,
  "λαβ": 69,
  "ρυσ": 69,
  "ζημια": 69,
  "οσας": 69,
  "προεισιν": 69,
  "##ρωμενος": 69,
  "ομωνυμων": 69,
  "στιγμην": 69,
  "προειρηκαμεν": 69,
  "ωρισατο": 69,
  "συνθετος": 69,
  "ορεξεως": 69,
  "ακαταληπ": 69,
  "ισοτης": 69,
  "κινουντα": 69,
  "εναντιωσις": 69,
  "ψυχροτης": 69,
  "ορισασθαι": 69,
  "αδηλος": 69,
  "σημαντικον": 69,
  "##ογισ": 69,
  "δειξ": 69,
  "αρτηρια": 69,
  "δειξαντες": 69,
  "πηγνυσθαι": 69,
  "αντιφατικως": 69,
  "ελλησιν": 68,
  "##ουντο": 68,
  "οδω": 68,
  "συνεσιν": 68,
  "εξιστα": 68,
  "##ερε": 68,
  "##γεν": 68,
  "##θεισι": 68,
  "αγαθη": 68,
  "πρου": 68,
  "##ατη": 68,
  "λοιπου": 68,
  "διεληλυθ": 68,
  "ονομαζουσιν": 68,
  "φαντασιαις": 68,
  "περιξ": 68,
  "στερεου": 68,
  "νεφων": 68,
  "πυκνω": 68,
  "##ισθη": 68,
  "αισθητικου": 68,
  "διαπον": 68,
  "πειραν": 68,
  "κεκτημενος": 68,
  "##ιγνωσ": 68,
  "ση": 68,
  "γαμου": 68,
  "δεομενα": 68,
  "##αμενοις": 68,
  "βλεπει": 68,
  "##ητι": 68,
  "τελειοτητα": 68,
  "πλειστη": 68,
  "σεμνο": 68,
  "κυβερνητης": 68,
  "αψασθαι": 68,
  "επαινει": 68,
  "προσφυ": 68,
  "νυκτι": 68,
  "##ιασ": 68,
  "εοικασι": 68,
  "αφικνειται": 68,
  "μηδαμη": 68,
  "##οτητες": 68,
  "συναρμο": 68,
  "θνητων": 68,
  "πλανη": 68,
  "παισι": 68,
  "πολιτικω": 68,
  "ιπποις": 68,
  "##υμα": 68,
  "ενυ": 68,
  "γνωσει": 68,
  "κρειττους": 68,
  "θεωρητεον": 68,
  "αυλον": 68,
  "συγκεχυ": 68,
  "αναρ": 68,
  "ζητουμενων": 68,
  "χαιρουσιν": 68,
  "πραττεται": 68,
  "κλη": 68,
  "ευρησομεν": 68,
  "μενουσα": 68,
  "ευσ": 68,
  "ηκει": 68,
  "πυρετ": 68,
  "ποιησεις": 68,
  "πεφ": 68,
  "##ευουσι": 68,
  "ανυπο": 68,
  "απαθης": 68,
  "γιν": 68,
  "##σουσι": 68,
  "##πται": 68,
  "βελτιστου": 68,
  "καλουμενα": 68,
  "ρητορι": 68,
  "αποδεικνυναι": 68,
  "προστεθεν": 68,
  "μεγαλοψυχ": 68,
  "πρασσ": 68,
  "ημισεος": 68,
  "θερμοτερον": 68,
  "καλουμενην": 68,
  "πασχ": 68,
  "κοιλ": 68,
  "οφθαλμου": 68,
  "μεταληψις": 68,
  "##ʹ": 68,
  "αντιδιηρη": 68,
  "καπηλ": 67,
  "ωμην": 67,
  "τυραννιδα": 67,
  "απιστον": 67,
  "αναξ": 67,
  "##πορ": 67,
  "ανελειν": 67,
  "φανηναι": 67,
  "ευνοιας": 67,
  "ερμο": 67,
  "εικονας": 67,
  "ρημα": 67,
  "πραττουσι": 67,
  "δανεισ": 67,
  "συμβουλευειν": 67,
  "δεομενων": 67,
  "##αφ": 67,
  "θειναι": 67,
  "ορθος": 67,
  "νομιμον": 67,
  "δανει": 67,
  "βραδεως": 67,
  "υπολαβοι": 67,
  "##μεναις": 67,
  "ελλαμ": 67,
  "καμπτ": 67,
  "αιτιαται": 67,
  "χιονος": 67,
  "δεινων": 67,
  "ζωγραφ": 67,
  "δενδρα": 67,
  "τραγ": 67,
  "τεκτονικη": 67,
  "απορων": 67,
  "σφων": 67,
  "πεισαι": 67,
  "##αστ": 67,
  "##υσαι": 67,
  "εχ": 67,
  "φθεγγ": 67,
  "##σωσιν": 67,
  "κακιων": 67,
  "##θησεσθαι": 67,
  "κεχρησθαι": 67,
  "γενεσι": 67,
  "εισε": 67,
  "ημετερων": 67,
  "εγκρατειαν": 67,
  "μεθης": 67,
  "συμβολα": 67,
  "##φα": 67,
  "ευλογ": 67,
  "ησυχια": 67,
  "μεθε": 67,
  "βλαβερον": 67,
  "##αστον": 67,
  "φαντα": 67,
  "απλανων": 67,
  "γηρως": 67,
  "##οδι": 67,
  "πανταχη": 67,
  "κεκτηται": 67,
  "εισ": 67,
  "##σμος": 67,
  "εαυτας": 67,
  "ειδοτας": 67,
  "αστ": 67,
  "διδοντες": 67,
  "οση": 67,
  "δοκουμεν": 67,
  "κεκοινων": 67,
  "υψος": 67,
  "ιεροις": 67,
  "ερμηνειας": 67,
  "πορισ": 67,
  "οικειοτερον": 67,
  "λεξεων": 67,
  "συνεθ": 67,
  "εναργη": 67,
  "φοβους": 67,
  "ναυτ": 67,
  "τεταρτω": 67,
  "τροφ": 67,
  "απειθ": 67,
  "λυπηρα": 67,
  "κτειν": 67,
  "χαλκω": 67,
  "πρακτικη": 67,
  "απλους": 67,
  "εσχατω": 67,
  "διορισμου": 67,
  "δαιμονα": 67,
  "αποδοσιν": 67,
  "ιατροις": 67,
  "ζητουσιν": 67,
  "κακουργ": 67,
  "αφαιρεισθαι": 67,
  "αιτιοις": 67,
  "κουφοτητα": 67,
  "χρυσιππον": 67,
  "ηξει": 67,
  "κερατα": 67,
  "προσθεσεως": 67,
  "δεικνυουσιν": 67,
  "ιρις": 67,
  "##υρον": 66,
  "επιστ": 66,
  "κατεχειν": 66,
  "πασχοντα": 66,
  "λεων": 66,
  "ρητωρ": 66,
  "##δημ": 66,
  "επανορθω": 66,
  "αρμο": 66,
  "ηλθε": 66,
  "δικαιοι": 66,
  "##ωνι": 66,
  "αρχουσι": 66,
  "ζωντος": 66,
  "αφροδιτης": 66,
  "κλει": 66,
  "αγορας": 66,
  "τεθνηκεν": 66,
  "##μας": 66,
  "διαπλ": 66,
  "πεμπ": 66,
  "##πεν": 66,
  "συνηρ": 66,
  "δογματος": 66,
  "κοσμο": 66,
  "αποχωρ": 66,
  "##ωμενα": 66,
  "##κομενων": 66,
  "προσπεφ": 66,
  "θερμοτερα": 66,
  "##ησαντας": 66,
  "κτησι": 66,
  "##σθεντες": 66,
  "σκυτ": 66,
  "φθον": 66,
  "ασθεν": 66,
  "##τοτερα": 66,
  "χειρο": 66,
  "μυθολογ": 66,
  "φαρμακα": 66,
  "καταφ": 66,
  "ραστα": 66,
  "λυγ": 66,
  "πιστευσ": 66,
  "ακρασιαν": 66,
  "λεγομεναι": 66,
  "βλαβην": 66,
  "πικ": 66,
  "##ωσ": 66,
  "##ισμος": 66,
  "δριμυ": 66,
  "νομοθετ": 66,
  "##οτος": 66,
  "αισθησεσι": 66,
  "συμφωνιας": 66,
  "##σαμενοι": 66,
  "##θεισων": 66,
  "##ιστασθαι": 66,
  "δοκουντες": 66,
  "κυνες": 66,
  "κοιλα": 66,
  "εναντιος": 66,
  "ακινητοι": 66,
  "αιδους": 66,
  "τομη": 66,
  "μενουσης": 66,
  "μεταβλη": 66,
  "δουλου": 66,
  "ποσων": 66,
  "αφθον": 66,
  "##οη": 66,
  "ορθοτατα": 66,
  "γιγνομενην": 66,
  "αποδιδοται": 66,
  "δεικνυντα": 66,
  "επεχει": 66,
  "γεω": 66,
  "φερονται": 66,
  "πικρα": 66,
  "θελεις": 66,
  "αισθανονται": 66,
  "ωφελειαν": 66,
  "στοιχειου": 66,
  "γαμον": 66,
  "στοχασ": 66,
  "υπομεν": 66,
  "εχεσθαι": 66,
  "δουλων": 66,
  "συμμετρος": 66,
  "ποιησαμενος": 66,
  "ποιουμεθα": 66,
  "εξουσιν": 66,
  "υπερεχειν": 66,
  "φωνων": 66,
  "ενεργουντα": 66,
  "μαλακα": 66,
  "##ασεως": 66,
  "αδιαιρετα": 66,
  "φθαρτων": 66,
  "ομοιο": 66,
  "πλασ": 66,
  "εμπιπτ": 66,
  "προκειμενω": 66,
  "δερματος": 66,
  "δωρα": 65,
  "εμφρον": 65,
  "αριστοτελει": 65,
  "μειρακιον": 65,
  "χρησαμενος": 65,
  "##οιμην": 65,
  "εξελ": 65,
  "κακους": 65,
  "ευρων": 65,
  "διατριβ": 65,
  "εποιειτο": 65,
  "##αττειν": 65,
  "εθους": 65,
  "προη": 65,
  "φερομενος": 65,
  "στασεις": 65,
  "ανεκ": 65,
  "χαλεπω": 65,
  "εσπουδακ": 65,
  "αποφην": 65,
  "ροπην": 65,
  "##θου": 65,
  "διακει": 65,
  "συγχωρησει": 65,
  "κρονου": 65,
  "ομοειδεις": 65,
  "αναπλ": 65,
  "ενδεες": 65,
  "εγωμαι": 65,
  "πολλ": 65,
  "αυτοιν": 65,
  "πειρασομαι": 65,
  "χαιρουσι": 65,
  "δεω": 65,
  "ανη": 65,
  "πεφυκοτος": 65,
  "##υσ": 65,
  "υποκειμενοις": 65,
  "ιδη": 65,
  "αυξειν": 65,
  "συνακολου": 65,
  "αιδω": 65,
  "αγαθην": 65,
  "θιγγ": 65,
  "##κουσι": 65,
  "πολυφ": 65,
  "αλογ": 65,
  "##στατον": 65,
  "εντι": 65,
  "ανδριαντοποι": 65,
  "πληρεις": 65,
  "εξαιρ": 65,
  "ποτων": 65,
  "φλογα": 65,
  "σκληρα": 65,
  "διαιτα": 65,
  "εισεται": 65,
  "τριχων": 65,
  "προσηκουσαν": 65,
  "##κουν": 65,
  "θεωρεισθαι": 65,
  "πληρης": 65,
  "παμπολλα": 65,
  "αφορισ": 65,
  "αφαιρεσιν": 65,
  "κινοιτο": 65,
  "##δαι": 65,
  "##ριαι": 65,
  "κινουμενη": 65,
  "νομ": 65,
  "εκτ": 65,
  "απαντος": 65,
  "πρακτων": 65,
  "δαιμονας": 65,
  "θρεπτικον": 65,
  "λαχ": 65,
  "ασυμμετ": 65,
  "τελειοι": 65,
  "αφιε": 65,
  "τριγωνα": 65,
  "σπουδαιου": 65,
  "εκφυ": 65,
  "υπερβολ": 65,
  "αντικα": 65,
  "ευπ": 65,
  "σκαλ": 65,
  "εφθαρ": 65,
  "υγιαινει": 65,
  "ιʹ": 65,
  "απεδοθη": 65,
  "μελαγχολι": 65,
  "επηγαγεν": 65,
  "καχεξ": 65,
  "συζην": 65,
  "παντοδαπ": 65,
  "κεβης": 65,
  "##τις": 64,
  "λυσ": 64,
  "ολυμπια": 64,
  "παισιν": 64,
  "επιδ": 64,
  "προσαγορευειν": 64,
  "οναρ": 64,
  "μελλω": 64,
  "##ζεν": 64,
  "προσεχε": 64,
  "##αχ": 64,
  "βαδιζει": 64,
  "ακαδημ": 64,
  "προγ": 64,
  "μετρια": 64,
  "ηγουμαι": 64,
  "##κτων": 64,
  "ατομους": 64,
  "αργον": 64,
  "στερε": 64,
  "υποβ": 64,
  "νοηματα": 64,
  "αλογοις": 64,
  "αναπνοην": 64,
  "γαστρι": 64,
  "συμπασα": 64,
  "χθες": 64,
  "οιους": 64,
  "μανθανω": 64,
  "ειδειη": 64,
  "ωφελ": 64,
  "δεομεθα": 64,
  "οτ": 64,
  "βουλ": 64,
  "αδικοι": 64,
  "αφανι": 64,
  "μυθον": 64,
  "απλου": 64,
  "ρα": 64,
  "διωκει": 64,
  "διασ": 64,
  "ανοσι": 64,
  "πολιτευ": 64,
  "αλλοτριου": 64,
  "τιμιωτερα": 64,
  "απασαις": 64,
  "ποτα": 64,
  "εξουσι": 64,
  "τελευτης": 64,
  "λαμβανοντα": 64,
  "##οτερους": 64,
  "εξομοι": 64,
  "πηγη": 64,
  "πεποιηκεναι": 64,
  "##μεθ": 64,
  "ισασι": 64,
  "φυλακην": 64,
  "διεφ": 64,
  "επιβαλλ": 64,
  "##λεις": 64,
  "χορηγ": 64,
  "ποιουντι": 64,
  "εκβαλλ": 64,
  "ληφθεν": 64,
  "συλλαβης": 64,
  "διαμεν": 64,
  "κεχωρισται": 64,
  "πολιτικος": 64,
  "ψυχρος": 64,
  "συγκρισις": 64,
  "ρηθεντα": 64,
  "εμψυχ": 64,
  "απουσια": 64,
  "προσδειται": 64,
  "οικοδομος": 64,
  "##ανον": 64,
  "αριστερον": 64,
  "αντικειμενη": 64,
  "υγραιν": 64,
  "προειπον": 64,
  "κολοβ": 64,
  "βραγ": 64,
  "πνευματ": 64,
  "πεφωτισ": 64,
  "πεψεως": 64,
  "θρεπτικη": 64,
  "χερσιν": 63,
  "κτησ": 63,
  "ελαφ": 63,
  "θλιβ": 63,
  "παρεσκευ": 63,
  "απολει": 63,
  "υπεμν": 63,
  "διαστ": 63,
  "κυνι": 63,
  "εληφθη": 63,
  "##ττεται": 63,
  "ισους": 63,
  "##ριου": 63,
  "##γον": 63,
  "##ιλλ": 63,
  "διαφεροντες": 63,
  "τοσαυτας": 63,
  "διαβ": 63,
  "σαυτω": 63,
  "αθηνας": 63,
  "##τομενος": 63,
  "μενε": 63,
  "οριζονται": 63,
  "##τωσιν": 63,
  "φαντασματα": 63,
  "υπνοις": 63,
  "##τικωτερα": 63,
  "λυραν": 63,
  "φατε": 63,
  "##οδω": 63,
  "θεας": 63,
  "θεμενοι": 63,
  "γοητ": 63,
  "αναπιμπλ": 63,
  "ομοιοις": 63,
  "##ανου": 63,
  "βιαν": 63,
  "ενσ": 63,
  "##αινεται": 63,
  "ποτιμον": 63,
  "κοιναι": 63,
  "αναπληρω": 63,
  "λογικα": 63,
  "εθων": 63,
  "ηθικη": 63,
  "φυσ": 63,
  "παλαιοις": 63,
  "δυναμεσι": 63,
  "χαιρων": 63,
  "μεθυ": 63,
  "αθροα": 63,
  "κεκληται": 63,
  "μεταβολαις": 63,
  "δηπουθεν": 63,
  "δυναμενω": 63,
  "ζωντας": 63,
  "περιο": 63,
  "γυμναζεσθαι": 63,
  "αυτοκινητον": 63,
  "διωρισμενον": 63,
  "ομμα": 63,
  "τμημα": 63,
  "διαιρουν": 63,
  "κεκινη": 63,
  "απωσ": 63,
  "κει": 63,
  "υγιεινα": 63,
  "επιεικεις": 63,
  "λεγομενοι": 63,
  "##δεστερα": 63,
  "ακριβειας": 63,
  "απειριαν": 63,
  "παρουσα": 63,
  "ευκινη": 63,
  "πηγην": 63,
  "αρτηριαν": 63,
  "##μερ": 63,
  "οικειοτητα": 63,
  "ειωθασι": 63,
  "δυσκινη": 63,
  "βαρεος": 63,
  "ευρεσις": 63,
  "ι": 63,
  "ορεκτον": 63,
  "ελλιπ": 63,
  "##φερ": 63,
  "ευρησεις": 63,
  "ενεργουν": 63,
  "πνει": 63,
  "υστερου": 63,
  "εκλειψις": 63,
  "μενοι": 63,
  "κατηγορουμενων": 63,
  "φλεγματος": 63,
  "θερμασιας": 63,
  "αναισθητος": 63,
  "ουρον": 63,
  "ολιγαρχιας": 63,
  "ιϛʹ": 63,
  "##⌟": 63,
  "κομισ": 62,
  "αργυριου": 62,
  "πολεμων": 62,
  "κολαζειν": 62,
  "αριστους": 62,
  "##ρυπ": 62,
  "αλη": 62,
  "κυβ": 62,
  "ελε": 62,
  "ζηνωνος": 62,
  "γεγυμν": 62,
  "παραδεδ": 62,
  "κινδυνον": 62,
  "εθελησει": 62,
  "##μει": 62,
  "εμφυ": 62,
  "##ευσαι": 62,
  "διαλεκτικην": 62,
  "στω": 62,
  "θεωρητικην": 62,
  "ιδοντες": 62,
  "##κυια": 62,
  "ανανε": 62,
  "διαιρεσεις": 62,
  "δεχομενον": 62,
  "ανωμα": 62,
  "##νευ": 62,
  "αναρμοσ": 62,
  "διονυσ": 62,
  "οιω": 62,
  "διηγ": 62,
  "δαιμονιον": 62,
  "##εισ": 62,
  "ανεπιστ": 62,
  "##ριος": 62,
  "μυθ": 62,
  "##ωγ": 62,
  "συναναιρ": 62,
  "μουσων": 62,
  "προσεστι": 62,
  "θελη": 62,
  "ασθενειας": 62,
  "##εμ": 62,
  "πλω": 62,
  "##ετι": 62,
  "ηκ": 62,
  "αιθ": 62,
  "##ψις": 62,
  "αιωνος": 62,
  "αρμοττ": 62,
  "ταγαθου": 62,
  "κεκρατ": 62,
  "κτηματα": 62,
  "##λυ": 62,
  "δυναμενη": 62,
  "βουλευσασθαι": 62,
  "επεχειν": 62,
  "αιρειται": 62,
  "ωφελεια": 62,
  "οικετων": 62,
  "##ιζομενος": 62,
  "εγκρατ": 62,
  "αιδως": 62,
  "ελευθεριαν": 62,
  "καταμαθειν": 62,
  "αφθαρτος": 62,
  "αχωριστα": 62,
  "υφισταται": 62,
  "σφαιρων": 62,
  "καθαιρ": 62,
  "##καν": 62,
  "σοφισται": 62,
  "προσγεν": 62,
  "μεγιστας": 62,
  "##κωτερον": 62,
  "απτον": 62,
  "θειαν": 62,
  "νοση": 62,
  "αμεινω": 62,
  "αναισχυν": 62,
  "κυριωτερα": 62,
  "κουφοτερον": 62,
  "αρμονικη": 62,
  "##ανα": 62,
  "##ωσεως": 62,
  "ζωντων": 62,
  "νομοθετειν": 62,
  "##αιου": 62,
  "##εροι": 62,
  "προειλ": 62,
  "διαφωνει": 62,
  "οσφρησιν": 62,
  "θυραθεν": 62,
  "αχωριστον": 62,
  "οργανω": 62,
  "διεισι": 62,
  "αοριστα": 62,
  "επιπεδω": 62,
  "εγρηγορεναι": 62,
  "προειρημενον": 62,
  "ατμις": 62,
  "περσων": 61,
  "κυριους": 61,
  "ποιησειν": 61,
  "##αζοντες": 61,
  "μοναρχ": 61,
  "προσαγ": 61,
  "πωλου": 61,
  "ζημιαν": 61,
  "εμελλον": 61,
  "λευκο": 61,
  "δειλος": 61,
  "αχιλλευς": 61,
  "απεδωκεν": 61,
  "θυρας": 61,
  "##μαχ": 61,
  "ευδ": 61,
  "εθνων": 61,
  "##θους": 61,
  "##υψ": 61,
  "αμορφ": 61,
  "νεου": 61,
  "##ωρα": 61,
  "νομιζομεν": 61,
  "οικη": 61,
  "κυκλους": 61,
  "πνειν": 61,
  "##ηρα": 61,
  "στοιχειω": 61,
  "ακτινων": 61,
  "##δομ": 61,
  "##ουσ": 61,
  "αρρενα": 61,
  "ξηροτητα": 61,
  "πολυμ": 61,
  "παρεμπ": 61,
  "##φων": 61,
  "##αζεσθαι": 61,
  "ξενος": 61,
  "δημιουργοι": 61,
  "παρακελευ": 61,
  "##δυν": 61,
  "πραττη": 61,
  "γιγνωσκων": 61,
  "ρηματα": 61,
  "##ινων": 61,
  "καταστη": 61,
  "σφας": 61,
  "ακολαστον": 61,
  "προκριν": 61,
  "##ωμενη": 61,
  "ακρασιας": 61,
  "επικουρου": 61,
  "ανην": 61,
  "##αινον": 61,
  "ορθου": 61,
  "μεταδιω": 61,
  "##υχ": 61,
  "ελπις": 61,
  "εμφαινει": 61,
  "μικροις": 61,
  "πεψιν": 61,
  "θειω": 61,
  "θυσιων": 61,
  "##ετων": 61,
  "σκοτω": 61,
  "ασφαλες": 61,
  "λεχθεντων": 61,
  "χρησεως": 61,
  "##ισα": 61,
  "μαλ": 61,
  "##κοτι": 61,
  "μεμικται": 61,
  "κρα": 61,
  "αλλοτριοις": 61,
  "πειθ": 61,
  "##οτατοι": 61,
  "βιουν": 61,
  "αμαρτια": 61,
  "##ισταται": 61,
  "γωνιαν": 61,
  "σοφιστης": 61,
  "ακροις": 61,
  "φυεται": 61,
  "μαρ": 61,
  "δηλου": 61,
  "##ικαι": 61,
  "απασα": 61,
  "πραττομενα": 61,
  "εμποιειν": 61,
  "βοηθ": 61,
  "παθοι": 61,
  "ωνομασται": 61,
  "αισθ": 61,
  "παρεστη": 61,
  "στενον": 61,
  "##δεστερον": 61,
  "ακ": 61,
  "ζωδιων": 61,
  "ωρισμενως": 61,
  "επηγαγε": 61,
  "ατελε": 61,
  "γινομενοι": 61,
  "τετραποδων": 61,
  "τριαδα": 61,
  "πελας": 61,
  "υπαρξαι": 61,
  "συνυπαρχειν": 61,
  "ηπατι": 61,
  "κατηγορηται": 61,
  "ερουσιν": 61,
  "εκκρι": 61,
  "περατι": 61,
  "πυρου": 61,
  "ολιγακις": 61,
  "ακριβεστερα": 61,
  "υποπο": 61,
  "σεισμων": 61,
  "μυων": 61,
  "δυσωπ": 61,
  "περιφερειαν": 61,
  "οριζοντος": 61,
  "βασιλικον": 60,
  "εκελευσε": 60,
  "δους": 60,
  "##ειαις": 60,
  "τυραννιδος": 60,
  "στρατηγον": 60,
  "περιε": 60,
  "διαχ": 60,
  "χειμωνι": 60,
  "πολεμιοις": 60,
  "ηγεμονιας": 60,
  "χαρ": 60,
  "ομαλως": 60,
  "βιβλια": 60,
  "ικανοι": 60,
  "ατιμο": 60,
  "χρησεται": 60,
  "απεφ": 60,
  "εται": 60,
  "νικην": 60,
  "παρορ": 60,
  "##αινοντες": 60,
  "κατακει": 60,
  "νεανι": 60,
  "κινημα": 60,
  "αιγυπτω": 60,
  "σπουδην": 60,
  "##λακ": 60,
  "δυνατοι": 60,
  "διακρισιν": 60,
  "εξαμαρταν": 60,
  "οκτα": 60,
  "παρατ": 60,
  "ποδος": 60,
  "γον": 60,
  "λεπτυν": 60,
  "ηδιστα": 60,
  "τελευτα": 60,
  "##ππος": 60,
  "παιδικα": 60,
  "πραττοι": 60,
  "##ευομεν": 60,
  "ορθοτητα": 60,
  "αντιλεγ": 60,
  "ποιηση": 60,
  "πεπονθεν": 60,
  "συναπτει": 60,
  "συρ": 60,
  "##τονται": 60,
  "αναλαμβαν": 60,
  "προχειρον": 60,
  "##τικωτερον": 60,
  "μεμιγμενον": 60,
  "φιλοσοφους": 60,
  "αμαρτιας": 60,
  "αποκρυπ": 60,
  "μαθη": 60,
  "##ιστους": 60,
  "ομογενη": 60,
  "πολυχ": 60,
  "ενδιδ": 60,
  "##δεστα": 60,
  "σκοπων": 60,
  "μεμνηται": 60,
  "λυπων": 60,
  "λακεδαιμονι": 60,
  "κλεπτ": 60,
  "##σαντι": 60,
  "αιδε": 60,
  "ενδεης": 60,
  "προστεθει": 60,
  "εννοει": 60,
  "τοσαυτης": 60,
  "ομονο": 60,
  "κλε": 60,
  "διηλθομεν": 60,
  "τομην": 60,
  "διαδ": 60,
  "συμμει": 60,
  "ακρατεις": 60,
  "συνεχον": 60,
  "μογις": 60,
  "ισοτητος": 60,
  "εξαιρε": 60,
  "γλυκ": 60,
  "ακουει": 60,
  "θερμαινεσθαι": 60,
  "στοχ": 60,
  "μεγαλοις": 60,
  "επετ": 60,
  "##εσαν": 60,
  "##αδι": 60,
  "επεχ": 60,
  "κολασεως": 60,
  "##νην": 60,
  "κρινεται": 60,
  "υπαρχουσιν": 60,
  "συναναιρει": 60,
  "συναναιρειται": 60,
  "διορισαι": 60,
  "εργασιαν": 60,
  "υποτιθεσθαι": 60,
  "δεχ": 60,
  "επομενου": 60,
  "κρειττω": 60,
  "αδυνατει": 60,
  "διαστασεις": 60,
  "μετρειται": 60,
  "αναλυτικοις": 60,
  "περιεχοντι": 60,
  "εοικασιν": 60,
  "νοητη": 60,
  "σχιζ": 60,
  "ασθενεια": 60,
  "φλεβος": 60,
  "κολαξ": 60,
  "ορχεις": 60,
  "εκλεγειν": 60,
  "αποδεδοται": 60,
  "τετραγωνος": 60,
  "φαγειν": 59,
  "προσαπ": 59,
  "αδικηματων": 59,
  "αθ": 59,
  "##ωντα": 59,
  "σιτον": 59,
  "τελευτων": 59,
  "γενομενω": 59,
  "αγνοουμεν": 59,
  "μεγαλω": 59,
  "στεν": 59,
  "ορμω": 59,
  "πολεμιον": 59,
  "δεδιεναι": 59,
  "χαρι": 59,
  "##τιν": 59,
  "απαιτ": 59,
  "καταριθμ": 59,
  "εμαυτω": 59,
  "ψευσ": 59,
  "γερας": 59,
  "αφικ": 59,
  "συλληβδην": 59,
  "γεν": 59,
  "λεπτομερ": 59,
  "αποτελει": 59,
  "υποσ": 59,
  "μνημα": 59,
  "δρα": 59,
  "##υθε": 59,
  "περιττωματα": 59,
  "εξεργ": 59,
  "παρεκ": 59,
  "##κοτ": 59,
  "εστε": 59,
  "αμαθ": 59,
  "##οιμι": 59,
  "σφισιν": 59,
  "αγαπαν": 59,
  "##ξη": 59,
  "ημερ": 59,
  "ποιηταις": 59,
  "μοχθηρα": 59,
  "ποτι": 59,
  "αμ": 59,
  "αμαθιαν": 59,
  "υπεκκαυμα": 59,
  "αγωνας": 59,
  "σωματικα": 59,
  "μηκετ": 59,
  "ελπιδος": 59,
  "εγγυτατω": 59,
  "μεγαλαι": 59,
  "αμαρτηματα": 59,
  "θαυμασαι": 59,
  "οφθαλμοι": 59,
  "διπλουν": 59,
  "##ρωμενοι": 59,
  "τροφας": 59,
  "θεσεις": 59,
  "##θων": 59,
  "ακολαστου": 59,
  "ορνιθες": 59,
  "ανυσ": 59,
  "αποδεδεικται": 59,
  "πλουσιοι": 59,
  "##δοντες": 59,
  "ευπορω": 59,
  "##τεραι": 59,
  "##ινη": 59,
  "αντιτειν": 59,
  "ενυλον": 59,
  "##ημ": 59,
  "ερωτωμενον": 59,
  "##ρο": 59,
  "##ωτων": 59,
  "ξενους": 59,
  "##ροτερα": 59,
  "ημερον": 59,
  "ερειν": 59,
  "διεληλυθαμεν": 59,
  "##οιντ": 59,
  "σημαιν": 59,
  "ρευμα": 59,
  "λεια": 59,
  "συνηθες": 59,
  "αδειν": 59,
  "αποκρινομενου": 59,
  "φερομενη": 59,
  "ηι": 59,
  "συνεβαινεν": 59,
  "βαρεα": 59,
  "συγκειμενα": 59,
  "οριζομενον": 59,
  "απαντησ": 59,
  "λοιποι": 59,
  "σαφ": 59,
  "περαινειν": 59,
  "περιττος": 59,
  "δοκιμα": 59,
  "νεμ": 59,
  "αθρο": 59,
  "##χι": 59,
  "αβουλη": 59,
  "##αμενω": 59,
  "μαθημασι": 59,
  "τεχνικη": 59,
  "αριθμητικην": 59,
  "γνωριμωτερα": 59,
  "κεραννυ": 59,
  "απολλυται": 59,
  "εκκρου": 59,
  "αυξει": 59,
  "γενησονται": 59,
  "προστιθεμενον": 59,
  "τεμνεσθαι": 59,
  "λαμβανομενη": 59,
  "ποιους": 59,
  "φαινοιτο": 59,
  "καθεστη": 59,
  "κατοικι": 59,
  "ομογενων": 59,
  "μιγνυσθαι": 59,
  "μεταφοραν": 59,
  "κρασει": 59,
  "αισθητην": 59,
  "θολ": 59,
  "εναργειαν": 59,
  "προσθ": 59,
  "νομοθετων": 58,
  "σχολ": 58,
  "ασθενεις": 58,
  "πρεσβυτερος": 58,
  "γραμμα": 58,
  "ληρ": 58,
  "ηρακλεους": 58,
  "σφαιρ": 58,
  "συναχ": 58,
  "πιστευ": 58,
  "##ανι": 58,
  "ελευθεροι": 58,
  "##ζοντι": 58,
  "μικροτητα": 58,
  "συμφορας": 58,
  "##ηγ": 58,
  "λεγουσης": 58,
  "##ψαντες": 58,
  "λιπαρ": 58,
  "##αιρε": 58,
  "##ατι": 58,
  "προελ": 58,
  "μετασχ": 58,
  "προστ": 58,
  "##ισιν": 58,
  "μορφης": 58,
  "περιειλ": 58,
  "δρομον": 58,
  "##ειδες": 58,
  "ανεμους": 58,
  "αποτειν": 58,
  "σαρκας": 58,
  "αποβλεπ": 58,
  "λαμβανη": 58,
  "τιμαι": 58,
  "ευτυχιας": 58,
  "##χω": 58,
  "βουλωνται": 58,
  "ονομαζομεν": 58,
  "εζητ": 58,
  "ευφημ": 58,
  "μεθο": 58,
  "συνελθ": 58,
  "καλλωπ": 58,
  "ησιοδος": 58,
  "ειωθαμεν": 58,
  "φερουσιν": 58,
  "##ιζομενον": 58,
  "ζωντες": 58,
  "προιε": 58,
  "δειλιαν": 58,
  "##αινουσιν": 58,
  "περιγ": 58,
  "χρον": 58,
  "πληρ": 58,
  "αρξαμενοι": 58,
  "πηγης": 58,
  "λαβοντας": 58,
  "##αιρ": 58,
  "φησουσι": 58,
  "##ταται": 58,
  "εγκυκ": 58,
  "εχωμεν": 58,
  "επιπε": 58,
  "##λαστ": 58,
  "προσκει": 58,
  "πιστ": 58,
  "γλωττα": 58,
  "εχοιμεν": 58,
  "ψ": 58,
  "βλεποντες": 58,
  "αθυμ": 58,
  "ελκος": 58,
  "αισθανομενον": 58,
  "θεμενος": 58,
  "συνυφ": 58,
  "δοιη": 58,
  "οικαδε": 58,
  "περιγραφ": 58,
  "επιλει": 58,
  "αλλοθεν": 58,
  "κατεχει": 58,
  "θειος": 58,
  "ζωσιν": 58,
  "χαυν": 58,
  "ημ": 58,
  "συμμετριαν": 58,
  "συμφων": 58,
  "ισχειν": 58,
  "διαιρετεον": 58,
  "##σωσι": 58,
  "επων": 58,
  "ειωθασιν": 58,
  "##κιας": 58,
  "καινον": 58,
  "απολλωνος": 58,
  "κρινομεν": 58,
  "βραχεων": 58,
  "ενε": 58,
  "##ιδων": 58,
  "##τιας": 58,
  "ορωσα": 58,
  "βασιλεια": 58,
  "αδηλ": 58,
  "εκθε": 58,
  "διπλασιω": 58,
  "σωματικας": 58,
  "βιβλιου": 58,
  "διαιρετικη": 58,
  "ακριβες": 58,
  "μεταλαμβανει": 58,
  "παρωνυμως": 58,
  "αδυναμιαν": 58,
  "φιλαυτ": 58,
  "ευτραπε": 58,
  "καυμα": 58,
  "ορωσι": 58,
  "##αττ": 58,
  "λ": 58,
  "σολοικ": 58,
  "ξανθον": 58,
  "φυσικας": 58,
  "αλγ": 58,
  "ειποιμεν": 58,
  "αντεστ": 58,
  "τετρακ": 58,
  "στιγμης": 58,
  "δεικνυμενα": 58,
  "μανον": 58,
  "στιγμων": 58,
  "κορισκος": 58,
  "εγγυτερον": 58,
  "συστοιχα": 58,
  "λαμβανομενης": 58,
  "φυλακης": 58,
  "φιλουσιν": 58,
  "αποδεδωκε": 58,
  "δοξαστον": 58,
  "αδιοριστως": 58,
  "γαστηρ": 58,
  "καθεκαστα": 58,
  "παρελ": 57,
  "θηρα": 57,
  "δεσποτης": 57,
  "πρακτικον": 57,
  "προση": 57,
  "απολε": 57,
  "προσερ": 57,
  "##ξεις": 57,
  "πρακτεον": 57,
  "ηκουσα": 57,
  "ευηθες": 57,
  "εισφερ": 57,
  "ερωτωντα": 57,
  "εξαλλ": 57,
  "απον": 57,
  "χρηματι": 57,
  "επιεικης": 57,
  "ποθου": 57,
  "παρεσχεν": 57,
  "σα": 57,
  "ελευθερος": 57,
  "επαινω": 57,
  "##μασ": 57,
  "##εδ": 57,
  "αριστης": 57,
  "ευρεσεως": 57,
  "επιδοσιν": 57,
  "συναι": 57,
  "##τουσα": 57,
  "διηρημενον": 57,
  "ορατου": 57,
  "συνεσταναι": 57,
  "παρεισ": 57,
  "πυκνο": 57,
  "σχισ": 57,
  "εκθλιβ": 57,
  "##σθεντος": 57,
  "ειρημενους": 57,
  "οσμας": 57,
  "θηλεα": 57,
  "τυπους": 57,
  "##λεγ": 57,
  "φροντιζειν": 57,
  "ονειδι": 57,
  "δεομαι": 57,
  "δουλευειν": 57,
  "##ιστι": 57,
  "εχε": 57,
  "##ωδεις": 57,
  "εγκεκ": 57,
  "τοσαυτη": 57,
  "απτομενον": 57,
  "δειλοι": 57,
  "αναιρουσιν": 57,
  "αισθηται": 57,
  "αξιουσι": 57,
  "##ιεν": 57,
  "##τησιν": 57,
  "συμπερ": 57,
  "αφικεσθαι": 57,
  "εξαιρετον": 57,
  "μερικον": 57,
  "κοσμη": 57,
  "αφηρη": 57,
  "##υια": 57,
  "τοιανδε": 57,
  "μοχθη": 57,
  "σοφιστων": 57,
  "διχη": 57,
  "πλανωμενων": 57,
  "παρασκευαζειν": 57,
  "##ανται": 57,
  "μεστα": 57,
  "αδυνατω": 57,
  "πλεονα": 57,
  "##ιζοντες": 57,
  "πρεσβυτα": 57,
  "εκατερωθεν": 57,
  "ελλειψει": 57,
  "εργασιας": 57,
  "συγκεκ": 57,
  "γηρασ": 57,
  "ενυπνιον": 57,
  "γνωσεται": 57,
  "εκοντα": 57,
  "βαλλ": 57,
  "αναθυμιασεις": 57,
  "ωραι": 57,
  "μικτον": 57,
  "αδοξον": 57,
  "##βε": 57,
  "καταλαμβανεσθαι": 57,
  "αδιαφορα": 57,
  "διεξελθειν": 57,
  "υπαρχ": 57,
  "προσπιπτον": 57,
  "χωριζειν": 57,
  "φυσικαι": 57,
  "αποδοτεον": 57,
  "λαμβανομενου": 57,
  "τρεφομενον": 57,
  "βουλην": 57,
  "τυραννις": 57,
  "αρρενι": 57,
  "επιτετα": 57,
  "πεπαν": 57,
  "εμνημονευσεν": 57,
  "αιτινες": 57,
  "γραμματικην": 57,
  "κατηγοροι": 57,
  "υποκειμενος": 57,
  "ταμι": 56,
  "περιλαμβαν": 56,
  "κτασθαι": 56,
  "πονηρους": 56,
  "ασχημον": 56,
  "απεκρινατο": 56,
  "##αδα": 56,
  "οψε": 56,
  "μελανα": 56,
  "λυσαι": 56,
  "δικασται": 56,
  "ευτυχιαν": 56,
  "##ληφ": 56,
  "##οξ": 56,
  "διαφυλατ": 56,
  "τελων": 56,
  "##υδ": 56,
  "ιατρω": 56,
  "διεπ": 56,
  "ηλθον": 56,
  "ευπει": 56,
  "##τυ": 56,
  "ποιουμενον": 56,
  "συστασει": 56,
  "τεταρτος": 56,
  "αναπαυ": 56,
  "##λημ": 56,
  "αιθερα": 56,
  "εκπυρω": 56,
  "μεμερισ": 56,
  "νεφ": 56,
  "ξηροτητος": 56,
  "ευρησει": 56,
  "μοναι": 56,
  "αντιστροφην": 56,
  "βασαν": 56,
  "σφοδρως": 56,
  "διαφ": 56,
  "καπειτα": 56,
  "##τρα": 56,
  "οντινουν": 56,
  "επιστασαι": 56,
  "ευτυχια": 56,
  "κινδυνους": 56,
  "ηγου": 56,
  "εχρωντο": 56,
  "μακαριε": 56,
  "πονηρος": 56,
  "##ομαχ": 56,
  "απορησαι": 56,
  "πλασμα": 56,
  "αγε": 56,
  "ταραχης": 56,
  "αποκλιν": 56,
  "χαρις": 56,
  "φιλολογ": 56,
  "παρασκευαζει": 56,
  "επιγιγν": 56,
  "αντιφων": 56,
  "τελειοτερα": 56,
  "εκλειπ": 56,
  "σει": 56,
  "##αθη": 56,
  "λεγομενω": 56,
  "οργαν": 56,
  "παντοδαπα": 56,
  "καρτερ": 56,
  "προπετ": 56,
  "υποδι": 56,
  "διεστη": 56,
  "καταληψ": 56,
  "φαντασιαι": 56,
  "εθετο": 56,
  "ορεξεις": 56,
  "τεθ": 56,
  "ευποριαν": 56,
  "πεπονθος": 56,
  "συμπαθ": 56,
  "εναρ": 56,
  "αιδη": 56,
  "ετος": 56,
  "επιφ": 56,
  "νοησεις": 56,
  "παρην": 56,
  "γελασ": 56,
  "σκεψασθαι": 56,
  "##ρησει": 56,
  "ητι": 56,
  "προτα": 56,
  "προσεοι": 56,
  "πρωταγ": 56,
  "##ισ": 56,
  "περιττωματων": 56,
  "ανομοιων": 56,
  "τυχοντων": 56,
  "ξυν": 56,
  "επιρ": 56,
  "ωρων": 56,
  "ανθρωπινα": 56,
  "εγειρ": 56,
  "ισθι": 56,
  "θερμοις": 56,
  "παιδιον": 56,
  "ερμην": 56,
  "εζη": 56,
  "ασαφ": 56,
  "##ουσαις": 56,
  "ιστορει": 56,
  "ακοσ": 56,
  "εξην": 56,
  "##θα": 56,
  "##υγ": 56,
  "απολαυσ": 56,
  "επιτελ": 56,
  "##ειδη": 56,
  "παρασχ": 56,
  "αποδοιη": 56,
  "ημισει": 56,
  "##τιου": 56,
  "δεκαδα": 56,
  "νοτι": 56,
  "καταπο": 56,
  "τεταγμενον": 56,
  "ακριβη": 56,
  "μαθηματικοις": 56,
  "φθογγων": 56,
  "##ωριαν": 56,
  "μαθηματικος": 56,
  "συμπτωμα": 56,
  "κινητον": 56,
  "κλα": 56,
  "##ροτητι": 56,
  "τριπλασι": 56,
  "##ησουσιν": 56,
  "μειν": 56,
  "κρε": 56,
  "στερησεις": 56,
  "παρε": 56,
  "κινηται": 56,
  "ληψις": 56,
  "ται": 56,
  "υγροις": 56,
  "θυμι": 56,
  "##υλλογισ": 56,
  "##ϛʹ": 56,
  "ειδοποιειται": 56,
  "αυτοεν": 56,
  "ενδοξα": 56,
  "ιδιωτης": 55,
  "αποδεξ": 55,
  "βιους": 55,
  "αναθε": 55,
  "##υσα": 55,
  "αλεξανδρου": 55,
  "##ασμενα": 55,
  "χρηστα": 55,
  "διδαξει": 55,
  "θαυμαστα": 55,
  "αβελ": 55,
  "ανθρωπε": 55,
  "οψοποι": 55,
  "##ωνος": 55,
  "ελαβον": 55,
  "##υφ": 55,
  "οικουμενην": 55,
  "πραττοντα": 55,
  "σιμωνι": 55,
  "βαρβαροις": 55,
  "πυνθαν": 55,
  "φερ": 55,
  "πλανω": 55,
  "διαμαχ": 55,
  "σην": 55,
  "##θουν": 55,
  "ασωτια": 55,
  "ιχθυς": 55,
  "συγγνωμην": 55,
  "κεντρω": 55,
  "##ευε": 55,
  "ενδοξ": 55,
  "διαστα": 55,
  "φησαι": 55,
  "προνο": 55,
  "ευρη": 55,
  "##κοσι": 55,
  "αριστι": 55,
  "##οδον": 55,
  "θαλης": 55,
  "επιγιν": 55,
  "##κυιας": 55,
  "##εο": 55,
  "περιεχοντα": 55,
  "σβε": 55,
  "αντιφρα": 55,
  "ειωθεν": 55,
  "φοινικουν": 55,
  "##οπ": 55,
  "λεπτοτητα": 55,
  "επιν": 55,
  "δακτυλον": 55,
  "φραζειν": 55,
  "##ελε": 55,
  "ονειδος": 55,
  "επιστανται": 55,
  "ηγουμενω": 55,
  "κινδυνος": 55,
  "φανησεται": 55,
  "##οτι": 55,
  "ηδυς": 55,
  "παραδεξ": 55,
  "αμελη": 55,
  "τηρ": 55,
  "μεταδι": 55,
  "ανανδ": 55,
  "προσδι": 55,
  "οικος": 55,
  "ποιητας": 55,
  "##δ": 55,
  "##αυ": 55,
  "##σμενα": 55,
  "συντον": 55,
  "##αινουσι": 55,
  "##εστεραν": 55,
  "δικαιοπραγ": 55,
  "δοξων": 55,
  "υπαρχουσι": 55,
  "προσεπι": 55,
  "λογικων": 55,
  "χαλα": 55,
  "ληθη": 55,
  "παροσον": 55,
  "χρημα": 55,
  "αναγκαζει": 55,
  "σκευ": 55,
  "ασθενες": 55,
  "προεπ": 55,
  "μουσι": 55,
  "απεφηναντο": 55,
  "τεταχθαι": 55,
  "αποτελειται": 55,
  "##ροα": 55,
  "ορεγεσθαι": 55,
  "εκπ": 55,
  "##υμνα": 55,
  "ηρακλει": 55,
  "σχεσεις": 55,
  "βαρει": 55,
  "ερεις": 55,
  "μεθεξει": 55,
  "αλλοιον": 55,
  "απου": 55,
  "ποιοις": 55,
  "εξευρειν": 55,
  "αφρων": 55,
  "ανατι": 55,
  "##ητικη": 55,
  "συμμετριας": 55,
  "φροντι": 55,
  "##ρησομεν": 55,
  "παραβαλλ": 55,
  "νικης": 55,
  "εχθροι": 55,
  "##υρου": 55,
  "##φθαι": 55,
  "αγρια": 55,
  "ηντινουν": 55,
  "υποδο": 55,
  "τεχνικον": 55,
  "νεκρον": 55,
  "κριτη": 55,
  "πλεονεκτ": 55,
  "διοι": 55,
  "ληγει": 55,
  "ηγεμον": 55,
  "φθειρομενου": 55,
  "συνδιαι": 55,
  "συναριθμ": 55,
  "επιδε": 55,
  "διην": 55,
  "ωμοι": 55,
  "ανεμποδι": 55,
  "θεωρουμεν": 55,
  "αδιοριστον": 55,
  "απλης": 55,
  "ποσαι": 55,
  "εκθ": 55,
  "αφρον": 55,
  "προιεται": 55,
  "ποδες": 55,
  "ουκεθ": 55,
  "προαπο": 55,
  "οπο": 55,
  "υποκειμενη": 55,
  "γενετης": 55,
  "ξυλου": 55,
  "θερμαινει": 55,
  "χωρει": 55,
  "οξεια": 55,
  "αμερων": 55,
  "διαιρετα": 55,
  "ενεστως": 55,
  "λεγουσαν": 55,
  "ψοφων": 55,
  "δακτυλων": 55,
  "##ροτης": 55,
  "υποκατω": 55,
  "αναπνει": 55,
  "σφυγμος": 55,
  "διπλασιος": 55,
  "κυκνω": 55,
  "αδελφου": 54,
  "δεομενοι": 54,
  "κωμωδ": 54,
  "απολειπειν": 54,
  "προσεκ": 54,
  "ερωτησ": 54,
  "ευηθ": 54,
  "πονηρων": 54,
  "εχουση": 54,
  "εξεπ": 54,
  "παρακαλ": 54,
  "##ατου": 54,
  "περικλης": 54,
  "ποιεις": 54,
  "γινωσκ": 54,
  "αισχρου": 54,
  "εθηκεν": 54,
  "τεταγμενα": 54,
  "ελευθερους": 54,
  "μιμου": 54,
  "##ασμενον": 54,
  "λυπειν": 54,
  "παρεξ": 54,
  "ορχηστ": 54,
  "##λιων": 54,
  "αμαρτανουσιν": 54,
  "κρο": 54,
  "ποιηματα": 54,
  "ωχ": 54,
  "προτε": 54,
  "ασκησιν": 54,
  "γινωσκομεν": 54,
  "μεταβασιν": 54,
  "αναξαγοραν": 54,
  "ειδωλων": 54,
  "περατος": 54,
  "περιεχειν": 54,
  "##ησεσθαι": 54,
  "ευαγ": 54,
  "##ρομ": 54,
  "##ψαν": 54,
  "##νημον": 54,
  "##θρωπ": 54,
  "μακαρι": 54,
  "ρητορες": 54,
  "αφι": 54,
  "διερ": 54,
  "ποιητικης": 54,
  "αψευ": 54,
  "##ηδ": 54,
  "φευγ": 54,
  "μαρτυρ": 54,
  "πραττοντας": 54,
  "διοριστεον": 54,
  "νομοθεται": 54,
  "εφα": 54,
  "##λοις": 54,
  "σκοτους": 54,
  "αγαπητον": 54,
  "ενω": 54,
  "αντιβ": 54,
  "επιτυχ": 54,
  "υποκ": 54,
  "σπλαγχνων": 54,
  "εικονος": 54,
  "##θες": 54,
  "βουλευεται": 54,
  "σεμνυν": 54,
  "τικτειν": 54,
  "βιαι": 54,
  "ετεροτητα": 54,
  "κατοπτρω": 54,
  "##ασεων": 54,
  "επινο": 54,
  "εανπερ": 54,
  "απαρ": 54,
  "αποκρισις": 54,
  "γωνια": 54,
  "ευστα": 54,
  "##στικη": 54,
  "προσαγορευεται": 54,
  "ειρηκας": 54,
  "φθεγγεσθαι": 54,
  "υποθεμενος": 54,
  "διοριζειν": 54,
  "οποσον": 54,
  "στησεται": 54,
  "μετασχειν": 54,
  "καθεστ": 54,
  "συνολως": 54,
  "ορεγεται": 54,
  "αρχαιον": 54,
  "καθαρας": 54,
  "φοβων": 54,
  "περιουσιας": 54,
  "εμμελως": 54,
  "##ωτα": 54,
  "εικοτα": 54,
  "παιδοτριβ": 54,
  "κεκτημενον": 54,
  "κυμα": 54,
  "βαρ": 54,
  "ασπ": 54,
  "μεταλλ": 54,
  "γενομενοις": 54,
  "##πλο": 54,
  "πεπιστευ": 54,
  "τριαδος": 54,
  "μεσοτητι": 54,
  "κινουσα": 54,
  "φυτω": 54,
  "γνωρι": 54,
  "αναγεσθαι": 54,
  "αγρον": 54,
  "οσους": 54,
  "υπε": 54,
  "βαρους": 54,
  "σιδηρω": 54,
  "διακριτικον": 54,
  "οφθαλμω": 54,
  "περισσου": 54,
  "εφαρμοζει": 54,
  "##πτε": 54,
  "αρχομενου": 54,
  "τιμιωτατον": 54,
  "αναιρεισθαι": 54,
  "εκθεσει": 54,
  "ειρημενου": 54,
  "τιμασθαι": 54,
  "##ρησθαι": 54,
  "αναπνευσ": 54,
  "φλεψ": 54,
  "παραδιδωσι": 54,
  "ποταμου": 53,
  "οιομαι": 53,
  "##ωνα": 53,
  "ισχυρως": 53,
  "δημαγωγ": 53,
  "ηθει": 53,
  "φερων": 53,
  "ποιητου": 53,
  "βαρβαρους": 53,
  "##κλει": 53,
  "ελλαδα": 53,
  "εχθραν": 53,
  "απεκ": 53,
  "απαυ": 53,
  "δουλους": 53,
  "ειθισ": 53,
  "##ρευ": 53,
  "αντιπαρ": 53,
  "πορρωτατω": 53,
  "πλησ": 53,
  "προστιθεναι": 53,
  "καταλιπειν": 53,
  "οψον": 53,
  "##μειν": 53,
  "εστηκεν": 53,
  "συνηγορ": 53,
  "συμβι": 53,
  "μανθανομεν": 53,
  "στωικων": 53,
  "σωματικον": 53,
  "##τομενου": 53,
  "##ωτι": 53,
  "πλανητων": 53,
  "συνοδον": 53,
  "αττ": 53,
  "υγραν": 53,
  "διακοπ": 53,
  "ραγ": 53,
  "##ληψ": 53,
  "ενδεικνυ": 53,
  "ορασιν": 53,
  "διακρινει": 53,
  "σπερματων": 53,
  "εξικ": 53,
  "διαλεγομενος": 53,
  "μελετη": 53,
  "##θυμ": 53,
  "λεγεσθω": 53,
  "εξειργ": 53,
  "φοβουμενοι": 53,
  "παρεσ": 53,
  "γραφης": 53,
  "αγριω": 53,
  "πλουσιους": 53,
  "πασχων": 53,
  "##ρυσ": 53,
  "βοηθη": 53,
  "μεγαλοπρεπ": 53,
  "##θειεν": 53,
  "χαριεν": 53,
  "βρω": 53,
  "απατην": 53,
  "επιλαμβαν": 53,
  "προφ": 53,
  "εμπεδοκλεους": 53,
  "πονηρα": 53,
  "βελτιονι": 53,
  "##φον": 53,
  "##αζον": 53,
  "##οτεροις": 53,
  "##σσ": 53,
  "τραγωδια": 53,
  "ορε": 53,
  "φιλοκαλ": 53,
  "κελευσ": 53,
  "υποφ": 53,
  "οικειος": 53,
  "τετταρες": 53,
  "αθλα": 53,
  "##ιως": 53,
  "κεκλη": 53,
  "χλευ": 53,
  "δρω": 53,
  "πεφυκοτων": 53,
  "δεικνυντες": 53,
  "##τοντα": 53,
  "##ατων": 53,
  "εξηρ": 53,
  "αφροσυνη": 53,
  "##αναι": 53,
  "κωφ": 53,
  "##ινειν": 53,
  "πεπη": 53,
  "ζητησεις": 53,
  "αφικνεισθαι": 53,
  "προσεχη": 53,
  "εφεσις": 53,
  "υστεροις": 53,
  "προστιθεις": 53,
  "απολελυ": 53,
  "##υτον": 53,
  "θησομεν": 53,
  "##υται": 53,
  "κτη": 53,
  "ηρο": 53,
  "γιγνομενος": 53,
  "επισταμενον": 53,
  "##ετος": 53,
  "ιωμεν": 53,
  "πεινην": 53,
  "αγεται": 53,
  "συνδι": 53,
  "εσομενων": 53,
  "μυθος": 53,
  "εφεστ": 53,
  "πιον": 53,
  "##κρι": 53,
  "αιγυπτιοι": 53,
  "ορμας": 53,
  "##μονα": 53,
  "ταχεια": 53,
  "ταδι": 53,
  "φονου": 53,
  "τεταρτη": 53,
  "τετραπλασι": 53,
  "βαθ": 53,
  "παραλαμβανομεν": 53,
  "ενεστη": 53,
  "προηγουμενον": 53,
  "επιχειρηματων": 53,
  "επιδεχεσθαι": 53,
  "ψυχρων": 53,
  "αμικ": 53,
  "υπερβαλλειν": 53,
  "αγγειω": 53,
  "βα": 53,
  "μητι": 53,
  "ατοπιαν": 53,
  "οριστον": 53,
  "εμνημονευσε": 53,
  "δεησεται": 53,
  "ολιγ": 53,
  "ακρου": 53,
  "εγκαταλει": 53,
  "εναργων": 53,
  "τελευταν": 52,
  "εξηγ": 52,
  "μαγει": 52,
  "προει": 52,
  "πενιας": 52,
  "αντα": 52,
  "συνηθη": 52,
  "σεαυτου": 52,
  "επερω": 52,
  "ερα": 52,
  "ορισαι": 52,
  "απατης": 52,
  "χαρας": 52,
  "ρωμαιων": 52,
  "ρωμης": 52,
  "τολμαν": 52,
  "##ωμενου": 52,
  "αιγυπτου": 52,
  "διωκων": 52,
  "κρινεσθαι": 52,
  "ιδιαι": 52,
  "##ττον": 52,
  "μαθηματικοι": 52,
  "##ζηται": 52,
  "αυλου": 52,
  "γεωδους": 52,
  "##ετη": 52,
  "ιριν": 52,
  "επικρατ": 52,
  "κηλ": 52,
  "ταραχην": 52,
  "παρεπ": 52,
  "##νουν": 52,
  "διαφορως": 52,
  "τουτοιν": 52,
  "πρω": 52,
  "σοφιστην": 52,
  "ανευρισ": 52,
  "επιστημονα": 52,
  "διαφθειρει": 52,
  "##ασις": 52,
  "αχιλλεα": 52,
  "επεστ": 52,
  "μεγ": 52,
  "καλλει": 52,
  "##κουσα": 52,
  "##λαβ": 52,
  "τυφλ": 52,
  "κακη": 52,
  "υπερο": 52,
  "βραχεια": 52,
  "εθεντο": 52,
  "ζηλω": 52,
  "φιλ": 52,
  "απατ": 52,
  "κοινοις": 52,
  "γεγονοτας": 52,
  "φωναι": 52,
  "επελ": 52,
  "δενδρων": 52,
  "δικαστηριω": 52,
  "ελευθερια": 52,
  "εωσ": 52,
  "τυραννων": 52,
  "μενοντα": 52,
  "περιττων": 52,
  "##ιστων": 52,
  "σαφην": 52,
  "δηλουται": 52,
  "καθηται": 52,
  "λογιζ": 52,
  "προσεστιν": 52,
  "ειδι": 52,
  "επινοει": 52,
  "αφικν": 52,
  "μανθανων": 52,
  "σκεψωμεθα": 52,
  "πολιτης": 52,
  "μεθοδω": 52,
  "φρονιμοι": 52,
  "μιμηματα": 52,
  "ουδετερου": 52,
  "υπομειναι": 52,
  "##ψ": 52,
  "τιθει": 52,
  "λευκων": 52,
  "ενειναι": 52,
  "##ραις": 52,
  "συγκει": 52,
  "θηλειων": 52,
  "ευεκ": 52,
  "ησυχη": 52,
  "πληρω": 52,
  "τμηματα": 52,
  "φιλοτιμιας": 52,
  "καθολικωτερον": 52,
  "αυλων": 52,
  "ευρισκομεν": 52,
  "αρχιτεκτον": 52,
  "χρησιμ": 52,
  "υποληψεως": 52,
  "##ειδ": 52,
  "αγενητος": 52,
  "ενιαυτου": 52,
  "αδιαφορων": 52,
  "ριπτ": 52,
  "πολιτειαις": 52,
  "οδοντων": 52,
  "καλουμενη": 52,
  "λεπτοτερον": 52,
  "ψυχεται": 52,
  "λαμβανηται": 52,
  "προσθεσις": 52,
  "τοσαυταχως": 52,
  "σφαιραι": 52,
  "συνωνυμα": 52,
  "αναπνοη": 52,
  "ιπποκρατει": 52,
  "συνωνυμον": 52,
  "γωνιαι": 52,
  "αμεσων": 52,
  "εγχυ": 52,
  "##αδος": 52,
  "ευρεθησεται": 52,
  "οσφρησεως": 52,
  "εφιενται": 52,
  "αντιστροφη": 52,
  "επιφαν": 51,
  "εση": 51,
  "ακοντι": 51,
  "##ασαντες": 51,
  "κατασ": 51,
  "ασφαλως": 51,
  "θερος": 51,
  "υποτ": 51,
  "λοχ": 51,
  "ληψομεθα": 51,
  "παροντας": 51,
  "καινο": 51,
  "αρχοντι": 51,
  "μαχομενον": 51,
  "προεκ": 51,
  "συμβουλ": 51,
  "##ειου": 51,
  "##λιον": 51,
  "συμποσιον": 51,
  "πωλε": 51,
  "ισχυροτερον": 51,
  "ξυλω": 51,
  "εσχατης": 51,
  "σκωπ": 51,
  "##εστερων": 51,
  "αγωγης": 51,
  "ομιλη": 51,
  "##κυιαν": 51,
  "υγι": 51,
  "αποκρισ": 51,
  "υπολαμβανοντες": 51,
  "διδοασιν": 51,
  "φυσικος": 51,
  "ηρεμιας": 51,
  "διαστατον": 51,
  "ορη": 51,
  "επιτασιν": 51,
  "ανατολης": 51,
  "θερει": 51,
  "μεσημβριαν": 51,
  "γλωττη": 51,
  "##ψεις": 51,
  "##υιας": 51,
  "ανωμαλιαν": 51,
  "πλημμελ": 51,
  "##αζουσι": 51,
  "δικαιους": 51,
  "εμποδιον": 51,
  "δικαστηρια": 51,
  "διδακ": 51,
  "μαθοι": 51,
  "θησει": 51,
  "βελτιστε": 51,
  "οσαπερ": 51,
  "ιχθυες": 51,
  "ποσιν": 51,
  "κολασ": 51,
  "προσηκοντως": 51,
  "θεαμα": 51,
  "##ροσυν": 51,
  "κατιδειν": 51,
  "φαυλη": 51,
  "ακολασιας": 51,
  "κρειττονα": 51,
  "##ικ": 51,
  "μοχθηριαν": 51,
  "πλουτ": 51,
  "βελτιονων": 51,
  "βαρβαρ": 51,
  "αφεις": 51,
  "πωμα": 51,
  "προσταττει": 51,
  "συνεσ": 51,
  "προελθ": 51,
  "αναφερεται": 51,
  "γνωριμους": 51,
  "καλοκαγαθιας": 51,
  "ειληχε": 51,
  "σπασ": 51,
  "ειλικριν": 51,
  "##ομι": 51,
  "##στατα": 51,
  "ευαρμο": 51,
  "γνωριζεται": 51,
  "πατρια": 51,
  "##κομενον": 51,
  "ακολουθα": 51,
  "ηδυν": 51,
  "κατασχ": 51,
  "πληγας": 51,
  "πατερες": 51,
  "αποκαθ": 51,
  "##ρουσι": 51,
  "μετακ": 51,
  "αληθινον": 51,
  "κακεινου": 51,
  "ιδι": 51,
  "ευρισκεσθαι": 51,
  "ειρηκως": 51,
  "##υναι": 51,
  "τοσαυται": 51,
  "επισταμεθα": 51,
  "ηδικη": 51,
  "αγριον": 51,
  "προιοντος": 51,
  "μισθω": 51,
  "##σθησεται": 51,
  "ημερω": 51,
  "φησουσιν": 51,
  "αποδειξ": 51,
  "καταν": 51,
  "τυφλον": 51,
  "συγγραμματα": 51,
  "μετεστιν": 51,
  "υποθη": 51,
  "ακμαζ": 51,
  "ερωτησιν": 51,
  "αδικουντα": 51,
  "επανορθ": 51,
  "πειθοι": 51,
  "##ωσει": 51,
  "κουφα": 51,
  "εναντιοτητα": 51,
  "ενδεκα": 51,
  "αδελφοις": 51,
  "αξιας": 51,
  "εξηκοντα": 51,
  "εσθητα": 51,
  "αξιωματος": 51,
  "ευδι": 51,
  "υπερβολας": 51,
  "##ισι": 51,
  "εξεταζειν": 51,
  "εκπεφ": 51,
  "αρμοζει": 51,
  "καταλαμβανεται": 51,
  "προτερω": 51,
  "παχυτερον": 51,
  "επιβλεπειν": 51,
  "ομολογουμενα": 51,
  "ναυπηγ": 51,
  "αρχικον": 51,
  "αλφα": 51,
  "επιγραφ": 51,
  "ανισοι": 51,
  "χαλεπωτατον": 51,
  "επιπροσθ": 51,
  "τεθεν": 51,
  "συνθ": 51,
  "επηνεγκε": 51,
  "φθειρομενον": 51,
  "φθαρτικα": 51,
  "αξιωσει": 51,
  "συναμφοτερου": 51,
  "φθισις": 51,
  "αυξανεται": 51,
  "προστεθη": 51,
  "θερμαινειν": 51,
  "οιαι": 51,
  "##γενες": 51,
  "συμπεραινεται": 51,
  "αγαθαι": 51,
  "πυκνοτητα": 51,
  "ξηραινεται": 51,
  "αποφατικως": 51,
  "συζυγιαις": 51,
  "επηνεγκεν": 51,
  "υπολαμβανουσι": 50,
  "ρινα": 50,
  "παρρησιας": 50,
  "δικαστας": 50,
  "οικετας": 50,
  "##ωσε": 50,
  "βουν": 50,
  "θεασαμενος": 50,
  "οδυρ": 50,
  "##ιδες": 50,
  "εχρητο": 50,
  "δοκουντος": 50,
  "διει": 50,
  "αθηνησιν": 50,
  "βιβλιοις": 50,
  "ερημον": 50,
  "λακ": 50,
  "δειλ": 50,
  "##οτας": 50,
  "δικαστης": 50,
  "εκτε": 50,
  "ιλαρ": 50,
  "πλειν": 50,
  "τονον": 50,
  "εγραψεν": 50,
  "αναιρεθεντος": 50,
  "παρεληλυθ": 50,
  "απλουστ": 50,
  "ακροασεως": 50,
  "μιμησιν": 50,
  "διατετ": 50,
  "γενησ": 50,
  "ποσειδωνιος": 50,
  "##ερι": 50,
  "αλουργ": 50,
  "εμβαλλ": 50,
  "απολειπει": 50,
  "πορος": 50,
  "εθελω": 50,
  "ψευδως": 50,
  "οσην": 50,
  "νεμεσ": 50,
  "οποθεν": 50,
  "εξαρ": 50,
  "μηδαμου": 50,
  "##οποι": 50,
  "εγ": 50,
  "βραχεα": 50,
  "##ευω": 50,
  "μεμιγμενα": 50,
  "σιμωνιδης": 50,
  "αυθα": 50,
  "μελ": 50,
  "ομολογουσιν": 50,
  "μιμειται": 50,
  "μαθησεις": 50,
  "καμ": 50,
  "πλουσιον": 50,
  "ποιησεως": 50,
  "οδυσσεα": 50,
  "αποσχ": 50,
  "δουλοι": 50,
  "σημαν": 50,
  "ελη": 50,
  "σεβ": 50,
  "##οβ": 50,
  "κακιον": 50,
  "κατεργ": 50,
  "συνισταμενη": 50,
  "προκοπ": 50,
  "περιοδους": 50,
  "##ευτ": 50,
  "κατασκευαζει": 50,
  "##υτος": 50,
  "μετριου": 50,
  "αφθαρτα": 50,
  "τεταγμενη": 50,
  "εδραν": 50,
  "λιθι": 50,
  "ζημιας": 50,
  "γυμνασιων": 50,
  "στασει": 50,
  "επινοη": 50,
  "##ησωμεν": 50,
  "εραστης": 50,
  "παρεχων": 50,
  "αναμιμνησκεσθαι": 50,
  "υποθεμενοι": 50,
  "γεγονοτες": 50,
  "διδασκαλος": 50,
  "αποβαλλ": 50,
  "τιθεντες": 50,
  "εγγυτατα": 50,
  "εναντι": 50,
  "ποδα": 50,
  "##αινοντα": 50,
  "συναμφο": 50,
  "ευνομ": 50,
  "οικουμενης": 50,
  "υγρος": 50,
  "εκλογ": 50,
  "καλλιου": 50,
  "θεωρητικον": 50,
  "επιτιμη": 50,
  "ησιοδον": 50,
  "εφαρμοζειν": 50,
  "ανασ": 50,
  "ξυλ": 50,
  "αποκρισεως": 50,
  "προμη": 50,
  "ηρακλειτον": 50,
  "συναγουσα": 50,
  "##ενα": 50,
  "αποσπα": 50,
  "παραστα": 50,
  "κορην": 50,
  "γεννωμενον": 50,
  "σωματικαι": 50,
  "πηγαι": 50,
  "θυραζε": 50,
  "εκλειψεως": 50,
  "##σθεισα": 50,
  "υπαρχων": 50,
  "καθεστως": 50,
  "προστα": 50,
  "αιτιους": 50,
  "ορωντας": 50,
  "τεχνιτου": 50,
  "ιδεαις": 50,
  "καιρους": 50,
  "κερδαινειν": 50,
  "συμφωνως": 50,
  "ωρισμενων": 50,
  "ακριβολογ": 50,
  "τριτ": 50,
  "σοφισμα": 50,
  "δεομενοις": 50,
  "σπουδαιω": 50,
  "προειρημενη": 50,
  "κωλυεται": 50,
  "διαβεβαι": 50,
  "επικα": 50,
  "νοσοι": 50,
  "πολιτην": 50,
  "προβατων": 50,
  "ρινι": 50,
  "ειδικω": 50,
  "πτωσις": 50,
  "πηχυ": 50,
  "στιγμαι": 50,
  "υστεραν": 50,
  "αντικειμενας": 50,
  "εξιεναι": 50,
  "ενυπνια": 50,
  "τριαδι": 50,
  "πολιτειαι": 50,
  "στρυφ": 50,
  "κυστεως": 50,
  "ελευθεριος": 50,
  "ειληφθαι": 50,
  "επιφορ": 50,
  "ανεμοι": 50,
  "εδεικνυτο": 50,
  "μερικη": 50,
  "προσφερ": 49,
  "τυχας": 49,
  "ιματια": 49,
  "απεδωκε": 49,
  "##κες": 49,
  "##εντας": 49,
  "κριτης": 49,
  "ληφθεντων": 49,
  "διοικη": 49,
  "τηλικαυτα": 49,
  "δημιουργων": 49,
  "ανοι": 49,
  "##κυ": 49,
  "νομιζεις": 49,
  "παγκαλ": 49,
  "αυτοματως": 49,
  "##εας": 49,
  "##ιται": 49,
  "ειδε": 49,
  "ισοις": 49,
  "πλαστ": 49,
  "συμπτωματα": 49,
  "κατηγορουν": 49,
  "βουλομενων": 49,
  "παραλι": 49,
  "εκτρε": 49,
  "##αλω": 49,
  "γραμμασιν": 49,
  "αβεβ": 49,
  "προκειμενης": 49,
  "ειπης": 49,
  "γεγενηται": 49,
  "καταληψις": 49,
  "σπουδαι": 49,
  "επιφερων": 49,
  "προνοειν": 49,
  "απολλωνι": 49,
  "συνεργον": 49,
  "σφαιρο": 49,
  "ανθρωπο": 49,
  "εγκεφαλω": 49,
  "πνευμονος": 49,
  "ευρυτ": 49,
  "συνδε": 49,
  "εικοσιν": 49,
  "παρρησιαν": 49,
  "δικασ": 49,
  "ερρωμεν": 49,
  "ηνπερ": 49,
  "απεδ": 49,
  "καλλιστ": 49,
  "ελθοντα": 49,
  "##ξα": 49,
  "κεφαλαιω": 49,
  "##οιμ": 49,
  "κατηρ": 49,
  "ποιησειεν": 49,
  "νεωστι": 49,
  "πιπτειν": 49,
  "ελθοι": 49,
  "αποκεκρι": 49,
  "πραον": 49,
  "##βουλος": 49,
  "επιτρεψ": 49,
  "χρωμενοις": 49,
  "μυθω": 49,
  "σοφ": 49,
  "εξισταται": 49,
  "φαυλου": 49,
  "αναλυειν": 49,
  "##ψεν": 49,
  "προσειναι": 49,
  "οχλον": 49,
  "αντερει": 49,
  "κε": 49,
  "διαθεσει": 49,
  "οξεως": 49,
  "μεγαλο": 49,
  "αγη": 49,
  "νομοθεσιας": 49,
  "ανατε": 49,
  "αισθητης": 49,
  "αριστοι": 49,
  "μετεω": 49,
  "##εστατη": 49,
  "σπαρ": 49,
  "φθογγος": 49,
  "οξυτητα": 49,
  "βεβ": 49,
  "##δεσθαι": 49,
  "φυγας": 49,
  "βοος": 49,
  "απολειφ": 49,
  "θηραν": 49,
  "περιττοι": 49,
  "σκεδα": 49,
  "##ζομενη": 49,
  "ηντινα": 49,
  "ομιλου": 49,
  "συσ": 49,
  "##αστα": 49,
  "αποστερ": 49,
  "ασυνθετ": 49,
  "καθαπαξ": 49,
  "λυπαις": 49,
  "σωφρονως": 49,
  "στρογγυλον": 49,
  "εκπορ": 49,
  "παραγιγν": 49,
  "μετεχουσιν": 49,
  "ανωνυμον": 49,
  "συμπασης": 49,
  "τεχν": 49,
  "παροιμια": 49,
  "##ορει": 49,
  "αξιουντες": 49,
  "κυριωτερον": 49,
  "μετεστι": 49,
  "ανετ": 49,
  "πεπονθε": 49,
  "συνισταμενα": 49,
  "καταπι": 49,
  "##ητο": 49,
  "##ρεπ": 49,
  "πολυανθρω": 49,
  "επικαλ": 49,
  "σιτιον": 49,
  "##γων": 49,
  "κατο": 49,
  "υπουργ": 49,
  "ταχει": 49,
  "τρεφον": 49,
  "φθινει": 49,
  "ρευματα": 49,
  "##θεναι": 49,
  "μυρι": 49,
  "ενταυθ": 49,
  "##τομενων": 49,
  "γενναιον": 49,
  "εκτα": 49,
  "##γη": 49,
  "νικο": 49,
  "αφειναι": 49,
  "υβρεως": 49,
  "##στο": 49,
  "ερυξ": 49,
  "αμεινους": 49,
  "μεθι": 49,
  "οποιος": 49,
  "ελαυν": 49,
  "αναιρουμενων": 49,
  "πηγας": 49,
  "παραδοξον": 49,
  "οδους": 49,
  "προσθηκην": 49,
  "ιερ": 49,
  "##ημο": 49,
  "υλικα": 49,
  "ωρισμενη": 49,
  "οργιλ": 49,
  "μεγαλοψυχος": 49,
  "αοριστ": 49,
  "πιπτει": 49,
  "γεννητικον": 49,
  "τυγχανουσι": 49,
  "τουδ": 49,
  "γεγραμμενων": 49,
  "κουφι": 49,
  "μονιμον": 49,
  "ηθικων": 49,
  "κινητικα": 49,
  "πολιτευεσθαι": 49,
  "σολωνος": 49,
  "σωφρονος": 49,
  "μεμφ": 49,
  "προειρη": 49,
  "ομωνυμιαν": 49,
  "παραλογισ": 49,
  "αποκτειναι": 49,
  "ωου": 49,
  "κηφ": 49,
  "χρησιμους": 49,
  "επιφοραν": 49,
  "αλεειν": 49,
  "##ομαχος": 49,
  "ενστασις": 49,
  "ετοιμως": 48,
  "δυνωνται": 48,
  "αποθανοντος": 48,
  "αχθε": 48,
  "κινδυνευειν": 48,
  "ελευθερω": 48,
  "##ερει": 48,
  "προσφερομεν": 48,
  "##ατε": 48,
  "λαμβανω": 48,
  "##θην": 48,
  "οργιζεσθαι": 48,
  "λαμπρα": 48,
  "##θαν": 48,
  "περιτ": 48,
  "περιει": 48,
  "χωριων": 48,
  "ηγεμονιαν": 48,
  "υιου": 48,
  "νησον": 48,
  "απετ": 48,
  "τερ": 48,
  "ερυθρι": 48,
  "επισταμαι": 48,
  "ζωντι": 48,
  "##θεσ": 48,
  "απολελοι": 48,
  "κοιμ": 48,
  "##υζ": 48,
  "ηγειτο": 48,
  "διαχει": 48,
  "αποφαινεται": 48,
  "κρυσταλλ": 48,
  "θραυ": 48,
  "επιθ": 48,
  "οφθαλμι": 48,
  "ανεξ": 48,
  "ακο": 48,
  "μητρα": 48,
  "εστερησθαι": 48,
  "παμπολλ": 48,
  "αντει": 48,
  "εστον": 48,
  "συγγραφ": 48,
  "ανδρειως": 48,
  "ανοητον": 48,
  "ευγενεια": 48,
  "##ημενα": 48,
  "##σο": 48,
  "περιστ": 48,
  "σος": 48,
  "επιθυμων": 48,
  "ευσχημον": 48,
  "νωθ": 48,
  "ακρατου": 48,
  "πυκνα": 48,
  "ομιλιαν": 48,
  "θο": 48,
  "διαφερων": 48,
  "τελειων": 48,
  "##ττεσθαι": 48,
  "ανοη": 48,
  "##κια": 48,
  "φερουσι": 48,
  "##ρισ": 48,
  "τοισι": 48,
  "αξιοις": 48,
  "επαινους": 48,
  "τιτ": 48,
  "##κευ": 48,
  "μαχομενα": 48,
  "αδιδακ": 48,
  "συμβολων": 48,
  "##ομ": 48,
  "δευτερ": 48,
  "##ωμενοις": 48,
  "εχετω": 48,
  "διαλογ": 48,
  "περιγινεται": 48,
  "θνητου": 48,
  "τυχουσα": 48,
  "συμπασαν": 48,
  "σκοπεισθαι": 48,
  "αγωγ": 48,
  "προσθε": 48,
  "αλυπον": 48,
  "τριβ": 48,
  "μυσ": 48,
  "δυσφορ": 48,
  "τεκνοποι": 48,
  "##ρεψαι": 48,
  "εκατεροι": 48,
  "λιπαρον": 48,
  "αποσβεννυ": 48,
  "υπεστη": 48,
  "χωριστη": 48,
  "τρεπεσθαι": 48,
  "επιτηδειοτητα": 48,
  "απολαυειν": 48,
  "λογιζομενον": 48,
  "αρκεσει": 48,
  "ενεργων": 48,
  "αοριστω": 48,
  "αποτιν": 48,
  "εμπεδοκλεα": 48,
  "δεξεται": 48,
  "##κομενος": 48,
  "ωμολογηται": 48,
  "ελεγχων": 48,
  "συνομολογ": 48,
  "οικοθεν": 48,
  "προτι": 48,
  "λυπαι": 48,
  "θαλπ": 48,
  "##υγχαν": 48,
  "εναιμων": 48,
  "οικειοτατον": 48,
  "##τατης": 48,
  "επην": 48,
  "οξεις": 48,
  "μνημον": 48,
  "επαινοι": 48,
  "εγκυ": 48,
  "επιχειρων": 48,
  "αφαιρεθεντος": 48,
  "οσφ": 48,
  "γευ": 48,
  "μισ": 48,
  "πειρωμενοι": 48,
  "μεταβαλλη": 48,
  "συμμιγ": 48,
  "εωθεν": 48,
  "##ολι": 48,
  "υβριστ": 48,
  "συναισθ": 48,
  "κολασεις": 48,
  "φυλης": 48,
  "νευρω": 48,
  "##κοσιν": 48,
  "διαιρουμενον": 48,
  "καταστα": 48,
  "αγωγη": 48,
  "κροτωνι": 48,
  "πυθαγορικων": 48,
  "αθηνησι": 48,
  "εκλογην": 48,
  "δεκτικη": 48,
  "ηυξ": 48,
  "διακεισθαι": 48,
  "##υλον": 48,
  "συγκατατιθεσθαι": 48,
  "αναγραφ": 48,
  "ιδου": 48,
  "διπλασι": 48,
  "ελεγχου": 48,
  "περιεργον": 48,
  "συντελειν": 48,
  "φιλοτιμιαν": 48,
  "λυρας": 48,
  "προσκατηγορ": 48,
  "οστου": 48,
  "προυπαρχειν": 48,
  "κεκινησθαι": 48,
  "μεμει": 48,
  "ζητησαι": 48,
  "φθαρτικον": 48,
  "εφο": 48,
  "πεπηγο": 48,
  "ακρους": 48,
  "νεφρων": 48,
  "ανυπαρκτον": 48,
  "κδʹ": 48,
  "φιλανθρωπον": 47,
  "αφελειν": 47,
  "τιμωριαν": 47,
  "αρτον": 47,
  "λεπτα": 47,
  "##οτατων": 47,
  "αφαιρειν": 47,
  "##ειω": 47,
  "σπει": 47,
  "κολου": 47,
  "λεγωσιν": 47,
  "φυγειν": 47,
  "τοιγαρουν": 47,
  "απιστου": 47,
  "απελθειν": 47,
  "εασ": 47,
  "παρεγ": 47,
  "εμπεπ": 47,
  "ωμεν": 47,
  "##αρι": 47,
  "ευρω": 47,
  "ελαιου": 47,
  "κρεα": 47,
  "σχολης": 47,
  "σπευδει": 47,
  "φωρα": 47,
  "καταλαμβανειν": 47,
  "ατρεμα": 47,
  "ελπιδας": 47,
  "πεσ": 47,
  "##σμω": 47,
  "##εθα": 47,
  "αισχυνη": 47,
  "##κωτερα": 47,
  "ουρανιων": 47,
  "συγκαταθεσιν": 47,
  "δημοκριτον": 47,
  "κεκρι": 47,
  "ωηθησαν": 47,
  "κακην": 47,
  "συμμετρα": 47,
  "##υρω": 47,
  "επινοησαι": 47,
  "αυγην": 47,
  "αναλογως": 47,
  "εκπυ": 47,
  "αρτηριαι": 47,
  "ουρανια": 47,
  "επιπλη": 47,
  "οιου": 47,
  "οχλος": 47,
  "διδω": 47,
  "διδασκαλοι": 47,
  "ωνπερ": 47,
  "χαιρε": 47,
  "ελθοντες": 47,
  "εξαρκει": 47,
  "διαστελλ": 47,
  "πυ": 47,
  "πολιτικου": 47,
  "τερπ": 47,
  "##τωμεν": 47,
  "σφοδρον": 47,
  "γοργιας": 47,
  "αυστηρ": 47,
  "αγαπα": 47,
  "μυθων": 47,
  "δυσω": 47,
  "προσθη": 47,
  "αγουσα": 47,
  "##αδ": 47,
  "ηδεις": 47,
  "μεγιστης": 47,
  "εκουσιου": 47,
  "φθαρτη": 47,
  "ευχαις": 47,
  "##θοι": 47,
  "αμαθιας": 47,
  "συνιστανται": 47,
  "τελειας": 47,
  "νενοη": 47,
  "δυσχεραν": 47,
  "##εω": 47,
  "νοερον": 47,
  "γεννησαι": 47,
  "##ονι": 47,
  "διτ": 47,
  "αντιποι": 47,
  "μετεχουσι": 47,
  "πραττομενων": 47,
  "εροιτο": 47,
  "περιλαβειν": 47,
  "γειτνι": 47,
  "ιδιοτητα": 47,
  "##αμην": 47,
  "μεταχειριζ": 47,
  "αναμνησις": 47,
  "αριθμειν": 47,
  "νοημα": 47,
  "αιτιασθαι": 47,
  "πληκ": 47,
  "γελοια": 47,
  "##ροτατον": 47,
  "συνεπισ": 47,
  "ηγουμεθα": 47,
  "πειθους": 47,
  "##ευοντα": 47,
  "βλεφαρα": 47,
  "οχλη": 47,
  "δυσχερη": 47,
  "πορειαν": 47,
  "##ττων": 47,
  "διαλεγομενοι": 47,
  "ισακις": 47,
  "##οκο": 47,
  "##ιβ": 47,
  "συγκαθ": 47,
  "ελι": 47,
  "διττη": 47,
  "προσλαβ": 47,
  "##αινε": 47,
  "διονυσον": 47,
  "ετοιμον": 47,
  "##ρινε": 47,
  "συγγνωμης": 47,
  "τοιασδε": 47,
  "φλογος": 47,
  "##θαρ": 47,
  "ευπορια": 47,
  "βορει": 47,
  "αρχομενοις": 47,
  "ασκησεως": 47,
  "καπνος": 47,
  "προθεσιν": 47,
  "##αζη": 47,
  "ευεργετ": 47,
  "αναστρεφ": 47,
  "προκειμενα": 47,
  "αμερους": 47,
  "αποστασιν": 47,
  "μαλακω": 47,
  "αρχομενοι": 47,
  "συμμετρου": 47,
  "αναλυσις": 47,
  "πεφυκασιν": 47,
  "##μαις": 47,
  "ομοιαι": 47,
  "αλλοτριας": 47,
  "αιρεσει": 47,
  "εχθρας": 47,
  "ελλειψεως": 47,
  "επονται": 47,
  "εποιτο": 47,
  "πεπηγ": 47,
  "υστερος": 47,
  "λαγω": 47,
  "ρινος": 47,
  "εργαζ": 47,
  "κεραμος": 47,
  "αιδιοις": 47,
  "ιατρικον": 47,
  "συνισταν": 47,
  "ραψω": 47,
  "προσκεισθαι": 47,
  "δημοκρατι": 47,
  "ληψιν": 47,
  "συντεθει": 47,
  "περικαρ": 47,
  "απεψια": 47,
  "μετοχη": 47,
  "μιγνυμενων": 47,
  "καταφατικως": 47,
  "##υρ": 46,
  "εγγ": 46,
  "γεωργου": 46,
  "διδασκοντα": 46,
  "χρυσουν": 46,
  "διατελει": 46,
  "οιο": 46,
  "πρωην": 46,
  "σπευδ": 46,
  "ενστα": 46,
  "##υιαν": 46,
  "διαπυ": 46,
  "ιδρ": 46,
  "παρασκευην": 46,
  "τεθεντων": 46,
  "φοβειται": 46,
  "ριψ": 46,
  "##νυται": 46,
  "μεμ": 46,
  "διαγων": 46,
  "τιμαις": 46,
  "πλοιον": 46,
  "περιεπ": 46,
  "μισος": 46,
  "μαι": 46,
  "##εμεν": 46,
  "αντισ": 46,
  "αφικομενος": 46,
  "μελλοντας": 46,
  "υπελαβον": 46,
  "αναγκαιοτατον": 46,
  "##οτατους": 46,
  "##ευγ": 46,
  "αντιρ": 46,
  "ατοπω": 46,
  "πονηρ": 46,
  "##οτερας": 46,
  "βεβιω": 46,
  "υλας": 46,
  "θνητω": 46,
  "##σμενος": 46,
  "εκπεσ": 46,
  "στρογγυλ": 46,
  "χαλαζα": 46,
  "νευροις": 46,
  "λεγομενας": 46,
  "φοβη": 46,
  "εξαπατα": 46,
  "ενδειξ": 46,
  "ευπορειν": 46,
  "κατορθ": 46,
  "φαιης": 46,
  "λεγετε": 46,
  "σπουδαζειν": 46,
  "εξουσια": 46,
  "αφαιρει": 46,
  "ακοντες": 46,
  "οιχεται": 46,
  "χωλ": 46,
  "αφροδιτην": 46,
  "ποθ": 46,
  "γραμματικοι": 46,
  "τυφλος": 46,
  "##βα": 46,
  "δοσιν": 46,
  "μακαριος": 46,
  "λελεκται": 46,
  "προσα": 46,
  "ευφραιν": 46,
  "κοπ": 46,
  "συντελε": 46,
  "εισαγει": 46,
  "ιερεων": 46,
  "εισιεναι": 46,
  "πιστεις": 46,
  "πολυγων": 46,
  "γεγονασι": 46,
  "προσιεναι": 46,
  "απετελε": 46,
  "ιματιων": 46,
  "εγγενηται": 46,
  "οικεταις": 46,
  "βουληθεις": 46,
  "αμεγεθ": 46,
  "αποι": 46,
  "αφαιρεσις": 46,
  "τιμια": 46,
  "παρεχον": 46,
  "##ωθη": 46,
  "λειπομενον": 46,
  "ισχυρα": 46,
  "τετελευτη": 46,
  "απολλυσθαι": 46,
  "μεταδο": 46,
  "αξιως": 46,
  "φαιην": 46,
  "τιθεμενους": 46,
  "επωνυμιαν": 46,
  "##χα": 46,
  "αισχος": 46,
  "σμικρων": 46,
  "αποφηνασθαι": 46,
  "##λωτ": 46,
  "φαντασι": 46,
  "##ψι": 46,
  "##ροτητα": 46,
  "##ησειε": 46,
  "αη": 46,
  "συγχωρουμεν": 46,
  "καταφαν": 46,
  "δειπνου": 46,
  "υιων": 46,
  "προφασιν": 46,
  "ηττασθαι": 46,
  "##δεσι": 46,
  "πονοις": 46,
  "##ασμον": 46,
  "συμπιπτ": 46,
  "δηλων": 46,
  "μελας": 46,
  "##ραιν": 46,
  "προτεραι": 46,
  "##αζομενοι": 46,
  "μικροψυχ": 46,
  "επιβολην": 46,
  "θεολογ": 46,
  "παραδιδωσιν": 46,
  "τεθεωρη": 46,
  "πιστα": 46,
  "λε": 46,
  "υβριζ": 46,
  "χρονοι": 46,
  "αισχιον": 46,
  "ιεροσυ": 46,
  "παραδεχ": 46,
  "γλισχρον": 46,
  "ισοσκελες": 46,
  "αναισθητα": 46,
  "μελαινα": 46,
  "χει": 46,
  "εναντιωσεως": 46,
  "προσεχες": 46,
  "αρμοσει": 46,
  "ανομοιομ": 46,
  "γινομενω": 46,
  "τριπ": 46,
  "##βεβλη": 46,
  "αποριαι": 46,
  "ολιγη": 46,
  "οικοδομειν": 46,
  "ιδρως": 46,
  "πεπεμ": 46,
  "συλλελ": 46,
  "απεπτον": 46,
  "##ειδους": 46,
  "αρτιους": 46,
  "κατηγορουμενω": 46,
  "προσφορον": 45,
  "ζωπ": 45,
  "ενετ": 45,
  "νεωτερος": 45,
  "λακεδαιμονιους": 45,
  "σκευη": 45,
  "πενης": 45,
  "##ητε": 45,
  "ψευδομ": 45,
  "κατωτερω": 45,
  "##ατος": 45,
  "στρατιωτων": 45,
  "συντιθεμενων": 45,
  "ψυχει": 45,
  "γερων": 45,
  "μελλομεν": 45,
  "##ωπ": 45,
  "παραλαβων": 45,
  "εμων": 45,
  "τεκνον": 45,
  "ευρυ": 45,
  "εχθρος": 45,
  "προσην": 45,
  "χειρονα": 45,
  "##εστερους": 45,
  "δυσκ": 45,
  "οικι": 45,
  "μανι": 45,
  "##ωμενους": 45,
  "αδελφω": 45,
  "απειρια": 45,
  "πορειας": 45,
  "ετυγχανεν": 45,
  "αισχυνην": 45,
  "##χους": 45,
  "τρυφην": 45,
  "διψην": 45,
  "φρονημα": 45,
  "αφυ": 45,
  "πελαγος": 45,
  "##οδωρος": 45,
  "καταμανθαν": 45,
  "##ποιο": 45,
  "ομοιομερ": 45,
  "μειω": 45,
  "αμοιρον": 45,
  "ωηθη": 45,
  "παραθεσιν": 45,
  "εμπερι": 45,
  "αυτοματου": 45,
  "ερμου": 45,
  "διχοτομ": 45,
  "υπολειφ": 45,
  "προσπιπτει": 45,
  "εξηρτη": 45,
  "μαντικην": 45,
  "μητρας": 45,
  "επισπ": 45,
  "γονη": 45,
  "θηλειας": 45,
  "σαλευ": 45,
  "πλειστας": 45,
  "απειρη": 45,
  "φευγοντες": 45,
  "δικαστηριοις": 45,
  "ουτοσι": 45,
  "αποστ": 45,
  "##ομα": 45,
  "ειδοτι": 45,
  "ανατρεπ": 45,
  "προσδεισθαι": 45,
  "επεδειξ": 45,
  "ωγ": 45,
  "##υρη": 45,
  "##οτροφ": 45,
  "ωι": 45,
  "##ρασ": 45,
  "##ρικον": 45,
  "##πες": 45,
  "##οφ": 45,
  "##ροια": 45,
  "οιν": 45,
  "προσαπο": 45,
  "##ωσεις": 45,
  "κρισει": 45,
  "συνεν": 45,
  "κατηγορησαι": 45,
  "θεοφιλε": 45,
  "αποφαινει": 45,
  "συγχε": 45,
  "θαρσος": 45,
  "ευγενειας": 45,
  "εμφασις": 45,
  "εκστα": 45,
  "εναντιους": 45,
  "δικαζειν": 45,
  "καταπ": 45,
  "##ωθ": 45,
  "ευχας": 45,
  "ασεβειας": 45,
  "χρυσω": 45,
  "δημιουργ": 45,
  "ωραις": 45,
  "συμποσια": 45,
  "ωφελουν": 45,
  "κινησεσιν": 45,
  "αιρεσεις": 45,
  "ωχρον": 45,
  "μεμετρη": 45,
  "καταλιπων": 45,
  "καθαρος": 45,
  "κινουμενην": 45,
  "υποδημα": 45,
  "εριν": 45,
  "υπαν": 45,
  "πλεονεκτειν": 45,
  "τετραγωνου": 45,
  "##εσει": 45,
  "##τημενα": 45,
  "κιν": 45,
  "κεκωλυται": 45,
  "##ευσει": 45,
  "συνοδος": 45,
  "δεσμων": 45,
  "νοητος": 45,
  "αμερης": 45,
  "παυσαι": 45,
  "ευμα": 45,
  "ομολογιαν": 45,
  "##τητον": 45,
  "##ποντες": 45,
  "διακρισις": 45,
  "οιοιτο": 45,
  "συμπαντων": 45,
  "υποθεσθαι": 45,
  "προσαρμο": 45,
  "βλεπ": 45,
  "παροιμιαν": 45,
  "ευβουλια": 45,
  "σαπ": 45,
  "κροκοδει": 45,
  "αλες": 45,
  "ακουσαντες": 45,
  "χαρμι": 45,
  "αφεισθω": 45,
  "οργας": 45,
  "##ιει": 45,
  "θεραπαιν": 45,
  "ηλιθι": 45,
  "συντεινει": 45,
  "ενιας": 45,
  "περιτρε": 45,
  "γραμματικου": 45,
  "αχρις": 45,
  "απελθοντος": 45,
  "δυνατων": 45,
  "αθανασιας": 45,
  "ληθην": 45,
  "απιστος": 45,
  "αρδ": 45,
  "##ληπτον": 45,
  "καλλιων": 45,
  "##αιω": 45,
  "τριτα": 45,
  "διακειμενοις": 45,
  "παραγινεται": 45,
  "ιατ": 45,
  "μελλουσι": 45,
  "τεμνεται": 45,
  "ερωτησις": 45,
  "τετραχως": 45,
  "βωμολοχ": 45,
  "ευλογωτερον": 45,
  "##υξ": 45,
  "νοητην": 45,
  "##ημι": 45,
  "##ηλα": 45,
  "##ητικος": 45,
  "υπαρξ": 45,
  "χωριζει": 45,
  "αλλοιωσεις": 45,
  "φυλασσ": 45,
  "χρυσιπ": 45,
  "αναλυτικων": 45,
  "κορισ": 45,
  "ημιολιον": 45,
  "εσχατη": 45,
  "αλλοιουν": 45,
  "ποιησαν": 45,
  "τιθεασιν": 45,
  "κατηγορουνται": 45,
  "βοηθει": 45,
  "αφοβ": 45,
  "διαφωνιας": 45,
  "ποιησεται": 45,
  "λεγουση": 45,
  "αναιρετικον": 45,
  "κωλω": 45,
  "λαμβανον": 44,
  "αυλα": 44,
  "μεθην": 44,
  "ειωθει": 44,
  "διαβαλλ": 44,
  "βελτιονα": 44,
  "γνους": 44,
  "στρατειας": 44,
  "δειπν": 44,
  "ερωμενον": 44,
  "παραφ": 44,
  "φοβουμενος": 44,
  "λυκουργος": 44,
  "δοξ": 44,
  "δαμ": 44,
  "τειχη": 44,
  "μεμην": 44,
  "λογισμοις": 44,
  "##ησαντων": 44,
  "σπουδαιοις": 44,
  "αυξανεσθαι": 44,
  "νεωτερων": 44,
  "παραρ": 44,
  "μοχθηρον": 44,
  "κατηγορων": 44,
  "ηθικην": 44,
  "προτεροις": 44,
  "##στησ": 44,
  "περιη": 44,
  "οσπερ": 44,
  "υποτιθενται": 44,
  "πασχουσα": 44,
  "αστερες": 44,
  "συστηναι": 44,
  "ζωδιακου": 44,
  "εκλειπειν": 44,
  "πυρω": 44,
  "εμπ": 44,
  "νεφει": 44,
  "##νης": 44,
  "θωρακος": 44,
  "ενυδρα": 44,
  "παντελης": 44,
  "ακηκοας": 44,
  "δρωσιν": 44,
  "αδικους": 44,
  "λεγης": 44,
  "ονομαζ": 44,
  "##ιστη": 44,
  "ταξεις": 44,
  "απιστειν": 44,
  "ηρετο": 44,
  "παιδιαν": 44,
  "υπηρετειν": 44,
  "παρεχουσα": 44,
  "μακρων": 44,
  "οστισουν": 44,
  "εδοκουν": 44,
  "εζητει": 44,
  "ομολογησει": 44,
  "γενναι": 44,
  "προεμ": 44,
  "μελλουσιν": 44,
  "απτονται": 44,
  "προσεξ": 44,
  "##τοντος": 44,
  "προδηλ": 44,
  "φιληδον": 44,
  "##θεα": 44,
  "διαφθαρ": 44,
  "απαθ": 44,
  "##ογ": 44,
  "δεχονται": 44,
  "συλλεγ": 44,
  "##ιστεον": 44,
  "ανδρειους": 44,
  "πονοι": 44,
  "αλυπως": 44,
  "τυπος": 44,
  "πρεσβυτερα": 44,
  "##ροπα": 44,
  "πρεσβυτατον": 44,
  "##χεσθαι": 44,
  "αρξαμενος": 44,
  "τετραπο": 44,
  "βραδ": 44,
  "##δεστατον": 44,
  "ιδιωται": 44,
  "ευτρεπ": 44,
  "μηνυσ": 44,
  "συνοντας": 44,
  "μειον": 44,
  "συμφερειν": 44,
  "προθε": 44,
  "σι": 44,
  "παραστησαι": 44,
  "ειδωλου": 44,
  "καθαρσις": 44,
  "παραλαμβαν": 44,
  "απολαμβαν": 44,
  "διαψευ": 44,
  "ερη": 44,
  "διοικειν": 44,
  "εχοις": 44,
  "ερωτησεως": 44,
  "ενδειξασθαι": 44,
  "ελλειπειν": 44,
  "τετταρακοντα": 44,
  "διδασκαλον": 44,
  "ωφελιμος": 44,
  "τεχνιτην": 44,
  "αποκρισεις": 44,
  "διδασκαλ": 44,
  "τιθεασι": 44,
  "γενησεσθαι": 44,
  "αμυδρο": 44,
  "πρεσβυτεροις": 44,
  "##ρουμεν": 44,
  "ειδοτων": 44,
  "παρεδ": 44,
  "υποβεβλη": 44,
  "αθανατου": 44,
  "διατηρ": 44,
  "διακον": 44,
  "##ρεσιν": 44,
  "πλεισται": 44,
  "δεοντα": 44,
  "ρησιν": 44,
  "διανοιαις": 44,
  "υπομνηματα": 44,
  "##υσας": 44,
  "μοναις": 44,
  "ποιησαμενοι": 44,
  "παθοντος": 44,
  "ευελ": 44,
  "αλλοιουμενον": 44,
  "##νοις": 44,
  "αγνωστον": 44,
  "ηπ": 44,
  "αναδο": 44,
  "##επ": 44,
  "##ουμεναι": 44,
  "συμπαντος": 44,
  "συμβηναι": 44,
  "διατριβειν": 44,
  "##αινοντων": 44,
  "μεταβαλειν": 44,
  "μακρας": 44,
  "##σθεντα": 44,
  "##ρουσιν": 44,
  "λοιποις": 44,
  "θεωρων": 44,
  "πηξις": 44,
  "προοιμιον": 44,
  "σφαλ": 44,
  "κερδους": 44,
  "πυθαγορ": 44,
  "μεσοτητος": 44,
  "ευρισκειν": 44,
  "αγραφ": 44,
  "προκειμενη": 44,
  "φαλακ": 44,
  "παθητικου": 44,
  "μακαριω": 44,
  "απεφηνατο": 44,
  "##ευσιν": 44,
  "ξηρων": 44,
  "προσεχεις": 44,
  "προειπων": 44,
  "αγωνι": 44,
  "ισοταχως": 44,
  "φιλοχρη": 44,
  "νικα": 44,
  "γεννωσι": 44,
  "υπομενουσιν": 44,
  "μελαιν": 44,
  "απορος": 44,
  "ρυθμον": 44,
  "περιω": 44,
  "περιφερεια": 44,
  "φυεσθαι": 44,
  "##δακτ": 44,
  "ποιητικος": 44,
  "αναιρων": 44,
  "ισχυρος": 44,
  "εστερη": 44,
  "φθισ": 44,
  "γευσει": 44,
  "επιπεμ": 44,
  "πειρας": 44,
  "υποληψεις": 44,
  "φασκειν": 44,
  "φαινομενη": 44,
  "συμβεβηκοτι": 44,
  "ανατομης": 44,
  "αναλισκειν": 44,
  "πολυχρονιω": 44,
  "απλοις": 44,
  "δεδειγ": 44,
  "αγαπη": 43,
  "κυρος": 43,
  "##ολε": 43,
  "προσελθων": 43,
  "υιω": 43,
  "νει": 43,
  "βιαζεσθαι": 43,
  "περιγεν": 43,
  "τελευτησαντος": 43,
  "εσκε": 43,
  "οπισω": 43,
  "δωρεας": 43,
  "πολυπ": 43,
  "τολμη": 43,
  "φωκιων": 43,
  "πειρασ": 43,
  "διακωλυ": 43,
  "περισ": 43,
  "αθλη": 43,
  "##τομενους": 43,
  "συναγαγειν": 43,
  "δεδε": 43,
  "διετ": 43,
  "εποιουντο": 43,
  "ιππο": 43,
  "αδε": 43,
  "συνεσεως": 43,
  "ηττη": 43,
  "λυπουμενος": 43,
  "υποδυ": 43,
  "προσβ": 43,
  "εισα": 43,
  "ηθικον": 43,
  "πειρωμεθα": 43,
  "ενστ": 43,
  "ληγοντος": 43,
  "##ρυη": 43,
  "μεταλλα": 43,
  "οισ": 43,
  "υπολαβ": 43,
  "απροαιρ": 43,
  "ατακτως": 43,
  "προσηγοριας": 43,
  "παρμενιδην": 43,
  "διακρισει": 43,
  "κυβου": 43,
  "##πλασι": 43,
  "γλαφ": 43,
  "καμπ": 43,
  "##αμενα": 43,
  "τετα": 43,
  "απολειπεται": 43,
  "επιπονον": 43,
  "συνελ": 43,
  "##ασται": 43,
  "καθημενον": 43,
  "βλεψ": 43,
  "απεκριν": 43,
  "τοιωδε": 43,
  "γιγνομενοι": 43,
  "ασκειν": 43,
  "βουλεσθε": 43,
  "διν": 43,
  "οιπερ": 43,
  "αναμφισβη": 43,
  "παρισταν": 43,
  "τρεπεται": 43,
  "σοφοκλης": 43,
  "ποταμοι": 43,
  "οδυσσεως": 43,
  "ιστοριαν": 43,
  "αποδιδοντες": 43,
  "επαγγελλεται": 43,
  "συμφωνα": 43,
  "χι": 43,
  "φυλλορρο": 43,
  "εταιρος": 43,
  "ακμη": 43,
  "αβρααμ": 43,
  "γονευσι": 43,
  "γεγονυια": 43,
  "μωυσεως": 43,
  "απιστιαν": 43,
  "##υρι": 43,
  "θυσιαις": 43,
  "##ωμενης": 43,
  "θαυμασιω": 43,
  "##ειοις": 43,
  "##κομενοι": 43,
  "ιδιωτας": 43,
  "##ηθεντα": 43,
  "ακουσι": 43,
  "##ορευ": 43,
  "##ημενος": 43,
  "πλαγια": 43,
  "πτην": 43,
  "χαλεπην": 43,
  "ακμην": 43,
  "παρακου": 43,
  "απλαι": 43,
  "δεσποτων": 43,
  "αληθεσι": 43,
  "τραχηλον": 43,
  "τελευτ": 43,
  "ραδι": 43,
  "αναθ": 43,
  "ποιουσαν": 43,
  "εσθητος": 43,
  "ανελευθερον": 43,
  "θρεπ": 43,
  "εναντιοι": 43,
  "κινησαι": 43,
  "οστ": 43,
  "οιστ": 43,
  "ειπας": 43,
  "χροα": 43,
  "##αλλ": 43,
  "ατεχνον": 43,
  "οτιπερ": 43,
  "αμφισβητησιν": 43,
  "συνεχεται": 43,
  "κινουντων": 43,
  "γεροντων": 43,
  "δαιμονια": 43,
  "##ξαντες": 43,
  "ανθρωπ": 43,
  "βακχ": 43,
  "επαγωγ": 43,
  "γεωργιας": 43,
  "αμηχαν": 43,
  "##τοτερον": 43,
  "ωνομασ": 43,
  "θατ": 43,
  "παρακολουθει": 43,
  "##ριζ": 43,
  "ρεοντα": 43,
  "θηριοις": 43,
  "συλλαβην": 43,
  "##αζε": 43,
  "##ασθη": 43,
  "διαφερονται": 43,
  "σαρκες": 43,
  "εκχε": 43,
  "εναργειας": 43,
  "κατατειν": 43,
  "αρκυ": 43,
  "αενα": 43,
  "γεννασθαι": 43,
  "προυποκει": 43,
  "υπερβαλλοντα": 43,
  "##ησομεθα": 43,
  "πραγματευεται": 43,
  "οικησιν": 43,
  "αιρεσις": 43,
  "##πετα": 43,
  "συμφεροντων": 43,
  "καταναλισ": 43,
  "φιλογ": 43,
  "απαιτειν": 43,
  "αφοριζ": 43,
  "επελθειν": 43,
  "μεμψ": 43,
  "προτιθεται": 43,
  "υπαρχοντι": 43,
  "ελοιτο": 43,
  "νεωτα": 43,
  "ρηθ": 43,
  "κεφαλαια": 43,
  "κωλυθ": 43,
  "ακουστεον": 43,
  "δινη": 43,
  "##αδες": 43,
  "σπουδαιους": 43,
  "##κακ": 43,
  "ευτακ": 43,
  "φοβοις": 43,
  "εσχατην": 43,
  "οχειας": 43,
  "φεροντα": 43,
  "εξισ": 43,
  "τιμωμεν": 43,
  "##ισται": 43,
  "ελεγχει": 43,
  "ορνις": 43,
  "ωθει": 43,
  "γαργαλ": 43,
  "##ερους": 43,
  "αναλη": 43,
  "μενη": 43,
  "απεχει": 43,
  "ιστε": 43,
  "στιγ": 43,
  "##λητα": 43,
  "θερμαινομενον": 43,
  "φαλ": 43,
  "λεπτοτατον": 43,
  "##αγαθ": 43,
  "##τρον": 43,
  "φθεγγονται": 43,
  "εντερα": 43,
  "φλεβ": 43,
  "χυμοις": 43,
  "θι": 43,
  "διαιρουμενου": 43,
  "απαρκ": 43,
  "θυμια": 43,
  "κιρν": 43,
  "παρουσιαν": 43,
  "δειξεις": 43,
  "δειχθεντος": 43,
  "ιησου": 43,
  "περιμεν": 42,
  "χωρια": 42,
  "αλεξανδρον": 42,
  "μεμαθη": 42,
  "ξενο": 42,
  "συνηθων": 42,
  "σχολαζειν": 42,
  "παρασκευης": 42,
  "κελευων": 42,
  "ειχομεν": 42,
  "στρατηγων": 42,
  "##κοντας": 42,
  "πατριδι": 42,
  "ζωμεν": 42,
  "##στης": 42,
  "ειωθ": 42,
  "τειχος": 42,
  "ποσοι": 42,
  "διαλεχ": 42,
  "αποδει": 42,
  "αναπεπτα": 42,
  "λελυ": 42,
  "ηδυσ": 42,
  "επιτρεπειν": 42,
  "επικλ": 42,
  "παραγγελμα": 42,
  "αμωσγεπως": 42,
  "αμιλλ": 42,
  "αφηρηται": 42,
  "ερωτωντος": 42,
  "ορμαις": 42,
  "εδιδαξεν": 42,
  "ασιας": 42,
  "κυβος": 42,
  "ελαμβανε": 42,
  "ιου": 42,
  "γεροντες": 42,
  "ευθυμ": 42,
  "νομισας": 42,
  "##λισ": 42,
  "καθοραν": 42,
  "πεποιηκο": 42,
  "μνησ": 42,
  "ευροιμεν": 42,
  "υπεθετο": 42,
  "φωσ": 42,
  "##ονα": 42,
  "περικ": 42,
  "αιθερι": 42,
  "##ωδους": 42,
  "διηρησθαι": 42,
  "φανταστικον": 42,
  "κινουμενης": 42,
  "##ετοι": 42,
  "γενητα": 42,
  "περιπολ": 42,
  "δεξαι": 42,
  "πραττ": 42,
  "δουλω": 42,
  "εκαστους": 42,
  "γιγνεσθω": 42,
  "δυναι": 42,
  "ευδαιμονας": 42,
  "ικανω": 42,
  "##δεσιν": 42,
  "απεργαζεσθαι": 42,
  "σπουδαιοι": 42,
  "##δως": 42,
  "ενυπνιων": 42,
  "πρεποντα": 42,
  "διαστρεφ": 42,
  "ισχυραν": 42,
  "κινουμενοις": 42,
  "αστειον": 42,
  "αμουσον": 42,
  "φρι": 42,
  "ενδεικνυμενος": 42,
  "επεισαγ": 42,
  "αγενν": 42,
  "υς": 42,
  "φυλακη": 42,
  "απολ": 42,
  "μεταφερειν": 42,
  "μελετην": 42,
  "μεγιστοις": 42,
  "ειρημενω": 42,
  "##ιστα": 42,
  "επισκεψωμεθα": 42,
  "απειθη": 42,
  "αρχηγ": 42,
  "ακουσιου": 42,
  "προσφερεσθαι": 42,
  "διαζευ": 42,
  "##ξομεν": 42,
  "επιβαλλειν": 42,
  "στεργ": 42,
  "γευεσθαι": 42,
  "γλιχ": 42,
  "##εση": 42,
  "##ασιαν": 42,
  "δουλειαν": 42,
  "ενυπ": 42,
  "εμης": 42,
  "διαφεροντας": 42,
  "ησκη": 42,
  "ποτου": 42,
  "σιτων": 42,
  "καταστησαι": 42,
  "##τοτατον": 42,
  "ανεν": 42,
  "διατεθ": 42,
  "τυχοντι": 42,
  "ετεροτης": 42,
  "παρουσιν": 42,
  "επιβαλλον": 42,
  "ημετερος": 42,
  "ειληφεν": 42,
  "εωμεν": 42,
  "ευπορων": 42,
  "παρατε": 42,
  "θεο": 42,
  "μεταθε": 42,
  "πασχοντι": 42,
  "υπομειν": 42,
  "ελειν": 42,
  "ζητωμεν": 42,
  "μηνυει": 42,
  "##αγκα": 42,
  "επωνομα": 42,
  "διηρημενα": 42,
  "νηι": 42,
  "φοβοι": 42,
  "τελειως": 42,
  "ιπποκρατην": 42,
  "##φαγ": 42,
  "δεξιαν": 42,
  "πλευρων": 42,
  "ελευθεριον": 42,
  "σχεσεως": 42,
  "ανθη": 42,
  "οψεται": 42,
  "υμνου": 42,
  "χρηστων": 42,
  "θηριου": 42,
  "τραφ": 42,
  "επειθ": 42,
  "μανιας": 42,
  "σωσ": 42,
  "ορωντα": 42,
  "προορα": 42,
  "δωσομεν": 42,
  "μηκυν": 42,
  "##οκα": 42,
  "##αγη": 42,
  "δεσποτ": 42,
  "εμπλησ": 42,
  "ηνιοχ": 42,
  "##λαι": 42,
  "φρονηματος": 42,
  "##εστατην": 42,
  "ορμων": 42,
  "αριστω": 42,
  "κεγχ": 42,
  "φλεβα": 42,
  "ερμηνευ": 42,
  "εργασασθαι": 42,
  "επιτηδει": 42,
  "κακοπραγ": 42,
  "##υχα": 42,
  "ποιουσης": 42,
  "κουφου": 42,
  "επιτηδευειν": 42,
  "αναγωγην": 42,
  "απλουστερα": 42,
  "παραπ": 42,
  "μετοχην": 42,
  "προηγουμενα": 42,
  "τεχνιται": 42,
  "ορεκτικον": 42,
  "τονος": 42,
  "εκλογη": 42,
  "ζηλοτυπ": 42,
  "παρακολουθειν": 42,
  "αποτεμν": 42,
  "μεγεθεσιν": 42,
  "θρεπτικην": 42,
  "θερμαινεται": 42,
  "οριζει": 42,
  "αγελαι": 42,
  "αρχον": 42,
  "αμυδρα": 42,
  "αρτιων": 42,
  "καπνω": 42,
  "φεροντες": 42,
  "κινουσι": 42,
  "ηδεται": 42,
  "σημαινοι": 42,
  "διαλυεται": 42,
  "εκινειτο": 42,
  "κοιλη": 42,
  "φθειρομενα": 42,
  "##τοιτο": 42,
  "σημαινων": 42,
  "τεκμηρια": 42,
  "πτερω": 42,
  "συγκειμενων": 42,
  "##υλ": 42,
  "οξος": 42,
  "συμπεπλεγ": 42,
  "ευρυθ": 42,
  "βιβλιων": 42,
  "αυταρκως": 42,
  "αποστημα": 42,
  "αναλυσιν": 42,
  "πυρετου": 42,
  "λυπειται": 42,
  "ερασιστρατ": 42,
  "πλευ": 42,
  "προειρημενην": 42,
  "εκκρισις": 42,
  "ευθειων": 42,
  "θερμην": 42,
  "ατομοι": 42,
  "παχνη": 42,
  "διδοντος": 41,
  "παρειχεν": 41,
  "##αζοι": 41,
  "ποσ": 41,
  "##σιων": 41,
  "υπεκ": 41,
  "στρατηγους": 41,
  "καταστ": 41,
  "πυθομενος": 41,
  "θορυβου": 41,
  "##ττουσιν": 41,
  "κατακλιν": 41,
  "βαρβαροι": 41,
  "ειωθοτων": 41,
  "##λης": 41,
  "στρατοπεδον": 41,
  "σιτο": 41,
  "ενδυ": 41,
  "πυνθανομενου": 41,
  "οψων": 41,
  "καθη": 41,
  "##αιων": 41,
  "διαλυεσθαι": 41,
  "##ζομενους": 41,
  "##αμενης": 41,
  "λογ": 41,
  "##χο": 41,
  "##ρυμ": 41,
  "κατων": 41,
  "εξουσιας": 41,
  "αξιους": 41,
  "κατελ": 41,
  "ειρων": 41,
  "μαρτυρας": 41,
  "ασφαλειαν": 41,
  "υιους": 41,
  "στεφανον": 41,
  "αναιμα": 41,
  "προσηκοντων": 41,
  "ευρεθη": 41,
  "##διω": 41,
  "οπτη": 41,
  "αλυσι": 41,
  "επικου": 41,
  "##ατην": 41,
  "φαυλω": 41,
  "##εστατοι": 41,
  "##ρησιν": 41,
  "χρωμασι": 41,
  "μηνι": 41,
  "μενοντων": 41,
  "σεισμον": 41,
  "θειοτατον": 41,
  "γονην": 41,
  "τελειουται": 41,
  "αγγεια": 41,
  "##υμου": 41,
  "##ητων": 41,
  "σων": 41,
  "ιατρους": 41,
  "##γμα": 41,
  "ωμολογει": 41,
  "επισταμενοι": 41,
  "καθι": 41,
  "##αζομενον": 41,
  "κτησει": 41,
  "ευδαιμονες": 41,
  "ομολογω": 41,
  "πρεσβυτης": 41,
  "εκφαν": 41,
  "δικαστων": 41,
  "κυνηγε": 41,
  "εμος": 41,
  "σπανιον": 41,
  "αντεχ": 41,
  "τηλικουτον": 41,
  "μυθους": 41,
  "υπογραφ": 41,
  "επαινειται": 41,
  "τιμο": 41,
  "μεταβ": 41,
  "παρεξει": 41,
  "διδασκοντος": 41,
  "γαμων": 41,
  "αλλοτριαν": 41,
  "πλαγιον": 41,
  "απροσ": 41,
  "υπομιμνησ": 41,
  "παρεργως": 41,
  "συνοραν": 41,
  "ασω": 41,
  "##τομ": 41,
  "τυχαις": 41,
  "νοθ": 41,
  "##ευσι": 41,
  "##αδων": 41,
  "εχθροις": 41,
  "ειρην": 41,
  "βωμον": 41,
  "μυριας": 41,
  "δεσμω": 41,
  "επιτετ": 41,
  "κεκ": 41,
  "βλεποντα": 41,
  "##ζουσαν": 41,
  "κριτηρια": 41,
  "καταβαλλ": 41,
  "μαλισθ": 41,
  "##υκε": 41,
  "τυραννοι": 41,
  "ειρ": 41,
  "δεομενη": 41,
  "σηπεται": 41,
  "αμεριστον": 41,
  "επισκοπει": 41,
  "αδελφοι": 41,
  "σκελων": 41,
  "ισχυροτερα": 41,
  "εντιμο": 41,
  "προηγειται": 41,
  "διερχεται": 41,
  "διακειται": 41,
  "ανηγ": 41,
  "κεινται": 41,
  "παθητικη": 41,
  "##ευη": 41,
  "ακολαστοι": 41,
  "##σομαι": 41,
  "ερωτησει": 41,
  "ιδιωτην": 41,
  "διατριβης": 41,
  "αποτυγχαν": 41,
  "νομιστεον": 41,
  "αφω": 41,
  "χειρονων": 41,
  "ακινητων": 41,
  "συνεχεια": 41,
  "ρηματων": 41,
  "αγαλματα": 41,
  "καταστασιν": 41,
  "##β": 41,
  "ανεγ": 41,
  "αναφαν": 41,
  "υπηρεσιαν": 41,
  "ανατ": 41,
  "πηλος": 41,
  "φρενων": 41,
  "ηρτηται": 41,
  "βαρυτητα": 41,
  "##πλη": 41,
  "αυταρκη": 41,
  "##αττει": 41,
  "γελοιος": 41,
  "οιηθειη": 41,
  "κηρος": 41,
  "ιοντα": 41,
  "γνωστον": 41,
  "ιστεον": 41,
  "κακεινων": 41,
  "μηνος": 41,
  "δουλοις": 41,
  "φευγοντα": 41,
  "υπαγ": 41,
  "εγινοντο": 41,
  "καιροις": 41,
  "υποβαλλ": 41,
  "ποταμος": 41,
  "ανεχ": 41,
  "##χην": 41,
  "λαθρα": 41,
  "κειμενη": 41,
  "χρησαι": 41,
  "χειρες": 41,
  "μοχθηριας": 41,
  "##τιδος": 41,
  "βασιν": 41,
  "εμπιπλ": 41,
  "τυχων": 41,
  "ευμετα": 41,
  "ελευθεριου": 41,
  "γραμμαις": 41,
  "αναγκαζεται": 41,
  "βρο": 41,
  "συνυπαρχ": 41,
  "##ρασθαι": 41,
  "καταλυ": 41,
  "αψυχοις": 41,
  "συνισταμενον": 41,
  "ενεδεχετο": 41,
  "χρωμασιν": 41,
  "κατηγορημα": 41,
  "συμβαλλεσθαι": 41,
  "σφοδρο": 41,
  "καλλιω": 41,
  "##αγειν": 41,
  "φανερωτερον": 41,
  "περιστελλ": 41,
  "ομωνυμια": 41,
  "αντακολου": 41,
  "μελιττων": 41,
  "συμβαινη": 41,
  "δηλουσιν": 41,
  "ηκολουθησε": 41,
  "φωναις": 41,
  "φωτιζειν": 41,
  "μικρος": 41,
  "νεοτ": 41,
  "##υσις": 41,
  "χαιρ": 41,
  "##φρων": 41,
  "καλουμενοι": 41,
  "ολιγοτητα": 41,
  "ριζ": 41,
  "ελασσον": 41,
  "αλκιβιαδη": 41,
  "συντιθεμενα": 41,
  "αντικειμενην": 41,
  "αποδοσ": 41,
  "αναγονται": 41,
  "διαστασις": 41,
  "στερεω": 41,
  "λοιπω": 41,
  "##λιβ": 41,
  "##μης": 41,
  "διελεσθαι": 41,
  "φαιεν": 41,
  "βορεας": 41,
  "φοβουνται": 41,
  "υγιεινων": 41,
  "πορρωτερον": 41,
  "τυφλοτης": 41,
  "οξεος": 41,
  "συστασεις": 41,
  "κεʹ": 41,
  "ημιολιος": 41,
  "ακροασει": 41,
  "ψυχροτερα": 41,
  "τετραγωνοι": 41,
  "μιγνυμενον": 41,
  "κυκνος": 41,
  "σαρκοφαγ": 41,
  "πτωσεων": 41,
  "##ομοι": 40,
  "ατιμια": 40,
  "##ησω": 40,
  "παρηλ": 40,
  "συμποσιω": 40,
  "##υθ": 40,
  "δικαιοις": 40,
  "ηθροι": 40,
  "διηκ": 40,
  "##ρατ": 40,
  "##ζευ": 40,
  "ελλαδος": 40,
  "εγραψε": 40,
  "επιβουλευ": 40,
  "ιδης": 40,
  "θυσιαν": 40,
  "προτιμ": 40,
  "προπηλακ": 40,
  "εξοδον": 40,
  "αποδωσει": 40,
  "εκκλησια": 40,
  "λεοντος": 40,
  "λεληθ": 40,
  "##ονος": 40,
  "απεθανεν": 40,
  "ξενοι": 40,
  "κρατων": 40,
  "διαλεγεται": 40,
  "##ξαμεν": 40,
  "διομ": 40,
  "αισθεσθαι": 40,
  "λευκαν": 40,
  "πληθη": 40,
  "ευεργετη": 40,
  "μετεισιν": 40,
  "περιθε": 40,
  "νομιμων": 40,
  "##ελα": 40,
  "##ωμενω": 40,
  "δωρον": 40,
  "απηλλαχθαι": 40,
  "κεκοσμη": 40,
  "αφαν": 40,
  "βλαβης": 40,
  "##τικωτατον": 40,
  "αποιον": 40,
  "παρεν": 40,
  "υφεστ": 40,
  "##ειλη": 40,
  "εκπνο": 40,
  "##ιγ": 40,
  "τοσουτος": 40,
  "##ροιαν": 40,
  "ωσπερει": 40,
  "πεπηγος": 40,
  "##ιζον": 40,
  "μεσημβριας": 40,
  "τροπ": 40,
  "συναπτειν": 40,
  "βαρυτης": 40,
  "συνετ": 40,
  "αναισθησια": 40,
  "ψυχεσθαι": 40,
  "ευρισκ": 40,
  "επιθυμω": 40,
  "εισερχεται": 40,
  "υος": 40,
  "χρησει": 40,
  "κρειττονων": 40,
  "φω": 40,
  "ιη": 40,
  "οσος": 40,
  "κεχ": 40,
  "ηρακλης": 40,
  "##ιγνωσκειν": 40,
  "αβαρ": 40,
  "αοι": 40,
  "αποδεχεσθαι": 40,
  "φθιν": 40,
  "ασεβη": 40,
  "δικαν": 40,
  "ονομαζουσι": 40,
  "τυχοντα": 40,
  "προσιε": 40,
  "εξοι": 40,
  "εκκλησιαν": 40,
  "##λεον": 40,
  "πλεονεξια": 40,
  "λαθειν": 40,
  "καρπος": 40,
  "ατυ": 40,
  "##φαι": 40,
  "αχαριστ": 40,
  "εντειν": 40,
  "γοργια": 40,
  "ευξ": 40,
  "αποκοπ": 40,
  "εχθρα": 40,
  "αιτιασ": 40,
  "εγκλημα": 40,
  "##πους": 40,
  "επισκο": 40,
  "##δοντα": 40,
  "συμπασ": 40,
  "ποθον": 40,
  "##ητοι": 40,
  "αινιττεται": 40,
  "λυθ": 40,
  "##εβη": 40,
  "εποχ": 40,
  "κουφοτερα": 40,
  "##χθηναι": 40,
  "μεσοις": 40,
  "##κεψ": 40,
  "πιλη": 40,
  "ακυ": 40,
  "εδειχθησαν": 40,
  "αρχονται": 40,
  "πεισει": 40,
  "σωφρονες": 40,
  "τραπεζης": 40,
  "θηλειαι": 40,
  "ισχυροτα": 40,
  "αναγκαζονται": 40,
  "καταλειπει": 40,
  "παρεχεσθαι": 40,
  "ουρα": 40,
  "γεννηθεν": 40,
  "υποστασεως": 40,
  "υφιστα": 40,
  "ψυχικων": 40,
  "αλγηδονας": 40,
  "αδιαστατον": 40,
  "διαλη": 40,
  "ειρηκα": 40,
  "τετρακις": 40,
  "ποιησαντες": 40,
  "##τομεν": 40,
  "τυγχανοι": 40,
  "ανθρωπινη": 40,
  "##ρικη": 40,
  "πωλ": 40,
  "αληθινην": 40,
  "ταλη": 40,
  "οριζειν": 40,
  "μεθεξιν": 40,
  "απορρη": 40,
  "διεσπαρ": 40,
  "επιχειρουσιν": 40,
  "ηραν": 40,
  "ιερας": 40,
  "ρυθ": 40,
  "ωμο": 40,
  "πρεσβυτερους": 40,
  "υστα": 40,
  "μεταβαλλουσιν": 40,
  "πεπλασ": 40,
  "εμβριθ": 40,
  "πηλου": 40,
  "επιπεδοις": 40,
  "ερωτησεις": 40,
  "λευκοτητα": 40,
  "##σθεντων": 40,
  "μεταπ": 40,
  "λεγομενους": 40,
  "ησθετο": 40,
  "##δοις": 40,
  "εσομενου": 40,
  "##οτερου": 40,
  "ελκη": 40,
  "κεκτη": 40,
  "συντεθεν": 40,
  "παραλαβουσα": 40,
  "κρυ": 40,
  "εσχον": 40,
  "αισχρως": 40,
  "γυναι": 40,
  "##γμενον": 40,
  "δαιμονος": 40,
  "αργυρος": 40,
  "κληρον": 40,
  "αδικουντας": 40,
  "καιρων": 40,
  "καιει": 40,
  "δακτυλος": 40,
  "πολυσχι": 40,
  "καιειν": 40,
  "πληγαις": 40,
  "αρρωστη": 40,
  "δεσποτη": 40,
  "βαρεια": 40,
  "εχρησαντο": 40,
  "καθιερ": 40,
  "μενουσιν": 40,
  "τετραδα": 40,
  "τελειωσιν": 40,
  "βλεπομεν": 40,
  "διημαρτη": 40,
  "πιθανα": 40,
  "καθηκον": 40,
  "ορμαν": 40,
  "συγκαταθεσις": 40,
  "προθεσις": 40,
  "##ειους": 40,
  "δηλωτικα": 40,
  "##ληψις": 40,
  "##ρωμεν": 40,
  "##θειαν": 40,
  "παχος": 40,
  "αφορμην": 40,
  "παρουσαν": 40,
  "δεοιτο": 40,
  "οδυνη": 40,
  "οικονομιας": 40,
  "προνοη": 40,
  "υπεροχης": 40,
  "στρεβλ": 40,
  "εοικοτα": 40,
  "αποδοσις": 40,
  "προσηκεν": 40,
  "ψυχικα": 40,
  "απολλωνα": 40,
  "ακουσιως": 40,
  "ευθυνας": 40,
  "##ρην": 40,
  "μοχθηρια": 40,
  "λαβοιμεν": 40,
  "γινωσκει": 40,
  "μυς": 40,
  "χορδων": 40,
  "εφε": 40,
  "μεμνησο": 40,
  "τελευταιου": 40,
  "αναιρουντες": 40,
  "ανομοιομερη": 40,
  "##ησονται": 40,
  "εκκρισιν": 40,
  "φεροιτο": 40,
  "κλινης": 40,
  "σφαιροειδης": 40,
  "παλαιους": 40,
  "συμπιπτει": 40,
  "υπολει": 40,
  "απτομενα": 40,
  "μυλ": 40,
  "γδ": 40,
  "γενεσεων": 40,
  "φαιδ": 40,
  "καλλιστη": 40,
  "λυπει": 40,
  "ποσοις": 40,
  "ομωνυμου": 40,
  "εασει": 40,
  "μηνιν": 40,
  "δεομενω": 40,
  "συρρε": 40,
  "υγροτερα": 40,
  "πειν": 40,
  "υπερτειν": 40,
  "δεικνυνται": 40,
  "προειρημενω": 40,
  "πεισι": 40,
  "οριστου": 40,
  "γρυπ": 39,
  "φρα": 39,
  "##θεισας": 39,
  "μυριαδας": 39,
  "λιμω": 39,
  "##λασ": 39,
  "προβατα": 39,
  "φησας": 39,
  "παροξυν": 39,
  "ημελη": 39,
  "ευεργεσιας": 39,
  "αιτησ": 39,
  "##ωντος": 39,
  "αλο": 39,
  "αδειμαν": 39,
  "δειξωμεν": 39,
  "επιδο": 39,
  "δυνασαι": 39,
  "πεσειν": 39,
  "πρασσειν": 39,
  "δοκουντας": 39,
  "υπισχν": 39,
  "ασπιδα": 39,
  "##υκεναι": 39,
  "στρατοπεδου": 39,
  "διατριβην": 39,
  "##ευον": 39,
  "εστως": 39,
  "ψογ": 39,
  "ετους": 39,
  "αφων": 39,
  "σης": 39,
  "ησσον": 39,
  "ελεου": 39,
  "δυσχεραινειν": 39,
  "διενο": 39,
  "δοκ": 39,
  "επικουρει": 39,
  "εσχηματι": 39,
  "συναφ": 39,
  "παραλλαξ": 39,
  "κολλη": 39,
  "ζοφ": 39,
  "περιφ": 39,
  "περαν": 39,
  "ανεμον": 39,
  "επαφ": 39,
  "χονδ": 39,
  "στενω": 39,
  "απεστ": 39,
  "πτηνα": 39,
  "παντελη": 39,
  "διδασκαλους": 39,
  "τρεψ": 39,
  "μουσας": 39,
  "αηθ": 39,
  "##ηματων": 39,
  "καταχρησ": 39,
  "διελθ": 39,
  "φλυαρ": 39,
  "χαιροντες": 39,
  "##τητως": 39,
  "αγωνων": 39,
  "ατερ": 39,
  "εναρμο": 39,
  "τροχ": 39,
  "σκηνης": 39,
  "λυσεις": 39,
  "αποστη": 39,
  "ξιφος": 39,
  "##ωντας": 39,
  "περικεχυ": 39,
  "πειθαρχ": 39,
  "αποδεικνυται": 39,
  "θαλ": 39,
  "δειλιας": 39,
  "μυθου": 39,
  "##ημοσυν": 39,
  "θρυπ": 39,
  "##ξασθαι": 39,
  "αφθονον": 39,
  "χαριτων": 39,
  "αυτεξουσιον": 39,
  "νοηται": 39,
  "εθεσι": 39,
  "φιλαρ": 39,
  "χειροτον": 39,
  "μεγισται": 39,
  "λιμον": 39,
  "##ηθεντων": 39,
  "##ρολογ": 39,
  "λογισμους": 39,
  "καταθε": 39,
  "ενδεδε": 39,
  "χαρα": 39,
  "λυμ": 39,
  "διερευν": 39,
  "ανθρακ": 39,
  "τραγω": 39,
  "καταλιπ": 39,
  "ακαταληπτον": 39,
  "ποικιλως": 39,
  "##υκεν": 39,
  "ελευθερα": 39,
  "ταχους": 39,
  "ενδεεις": 39,
  "σκιρ": 39,
  "πολεμικων": 39,
  "ποιητε": 39,
  "επεισι": 39,
  "σκοτειν": 39,
  "περικει": 39,
  "αυγη": 39,
  "προοδος": 39,
  "αγαθο": 39,
  "υπνους": 39,
  "απειροις": 39,
  "##θυν": 39,
  "κακεινω": 39,
  "τρυφων": 39,
  "καλαι": 39,
  "ετει": 39,
  "σκεψαι": 39,
  "μανια": 39,
  "αιρησ": 39,
  "αφομοι": 39,
  "διακρισεως": 39,
  "φθεγξ": 39,
  "αφωρισμενον": 39,
  "εναπ": 39,
  "χαλεπη": 39,
  "εατεον": 39,
  "καρτερειν": 39,
  "αποφαινειν": 39,
  "εναργεστερον": 39,
  "ιστορι": 39,
  "διατελ": 39,
  "##τωσαν": 39,
  "αλων": 39,
  "πασχουσι": 39,
  "πολιου": 39,
  "φανερων": 39,
  "συνην": 39,
  "ληθης": 39,
  "σκευων": 39,
  "επιλανθαν": 39,
  "##λλα": 39,
  "εννοειν": 39,
  "διεξοδον": 39,
  "##ικαις": 39,
  "παρελθειν": 39,
  "##εννυ": 39,
  "##υρα": 39,
  "επιεικες": 39,
  "##ζομενης": 39,
  "##φιλ": 39,
  "κωλυσει": 39,
  "τραν": 39,
  "εκλαμ": 39,
  "οικιαις": 39,
  "συμπας": 39,
  "##βιω": 39,
  "εωρων": 39,
  "μαντικης": 39,
  "ολιγος": 39,
  "##κομενα": 39,
  "περιοδοις": 39,
  "πους": 39,
  "σμ": 39,
  "ευλ": 39,
  "υστερ": 39,
  "οικειαι": 39,
  "λιτ": 39,
  "γεγραμ": 39,
  "ειλικρινες": 39,
  "εφαπτεται": 39,
  "ποσοτητα": 39,
  "υφεστηκεν": 39,
  "αποδειξεσιν": 39,
  "μεταλαβειν": 39,
  "υπετ": 39,
  "απαιτει": 39,
  "ρηθειη": 39,
  "παιδιοις": 39,
  "πενητες": 39,
  "φιλοδοξ": 39,
  "ψυχικον": 39,
  "εφεσ": 39,
  "κοινωνικον": 39,
  "πρακτικος": 39,
  "θρεπτικης": 39,
  "θηριω": 39,
  "ασθενεστερον": 39,
  "πορεια": 39,
  "φων": 39,
  "ευορ": 39,
  "ανοιγ": 39,
  "σκυλακ": 39,
  "μουσ": 39,
  "ακαρ": 39,
  "φονον": 39,
  "δωσει": 39,
  "νενεμ": 39,
  "##μιον": 39,
  "ψυχους": 39,
  "μεμνη": 39,
  "αντικειμεναι": 39,
  "αφαιρεθη": 39,
  "ωνομασθαι": 39,
  "μετασχηματι": 39,
  "αφαιρεσει": 39,
  "θωμεν": 39,
  "ομοειδες": 39,
  "ατομος": 39,
  "πεπερασμενου": 39,
  "ρηγνυ": 39,
  "προσθετεον": 39,
  "μεταβεβληκος": 39,
  "εκληθη": 39,
  "αλμυρα": 39,
  "ορνιθος": 39,
  "δεικνυουσι": 39,
  "ομοειδων": 39,
  "υλικον": 39,
  "αστρου": 39,
  "ιηʹ": 39,
  "αφροδιτη": 39,
  "ανατομι": 39,
  "κρινομενον": 39,
  "αισθητηριου": 39,
  "εκπεμπεται": 39,
  "θελοντες": 39,
  "μερικην": 39,
  "χιονι": 39,
  "κοραξ": 39,
  "πλευμονα": 39,
  "τηκεται": 39,
  "νεκρων": 38,
  "##αινεν": 38,
  "μι": 38,
  "ανεπ": 38,
  "οζει": 38,
  "δημηγορ": 38,
  "φησαντος": 38,
  "ευριπιδου": 38,
  "αρπα": 38,
  "μικρολογ": 38,
  "οψα": 38,
  "αφιεναι": 38,
  "ξενοκρατης": 38,
  "γραφην": 38,
  "ειρηκασιν": 38,
  "επιεικη": 38,
  "##ωλ": 38,
  "##ρακ": 38,
  "ενεγ": 38,
  "##ηκοτα": 38,
  "##υλου": 38,
  "τεθνηκε": 38,
  "εφορων": 38,
  "##χης": 38,
  "γαιος": 38,
  "λαι": 38,
  "απολεσθαι": 38,
  "##ησαμενοι": 38,
  "παρελθων": 38,
  "αποβαλ": 38,
  "νοσουντι": 38,
  "θεοδωρος": 38,
  "##ληται": 38,
  "βουλημα": 38,
  "αριστοτελη": 38,
  "##εστατους": 38,
  "ποιουμενων": 38,
  "καθισταναι": 38,
  "μαθ": 38,
  "συγκεχωρη": 38,
  "##ινος": 38,
  "##ηλ": 38,
  "##οτατοις": 38,
  "εφελκ": 38,
  "μιξεις": 38,
  "περιεχ": 38,
  "προσηκοντος": 38,
  "##φεν": 38,
  "διιεναι": 38,
  "τροπην": 38,
  "χειμωνα": 38,
  "κειμενην": 38,
  "##ψυξ": 38,
  "πηγων": 38,
  "##υνται": 38,
  "##ρισιν": 38,
  "κενα": 38,
  "υπακουειν": 38,
  "ενθε": 38,
  "##αστικον": 38,
  "ασυμμετρον": 38,
  "σμικροτητα": 38,
  "εμφυτου": 38,
  "νομιζεσθαι": 38,
  "διατριβας": 38,
  "φαινη": 38,
  "##τερως": 38,
  "καταφρονει": 38,
  "συνεβαινε": 38,
  "τεκτων": 38,
  "παραλαμβανειν": 38,
  "παιδικων": 38,
  "μεγαλους": 38,
  "δικαιοτερον": 38,
  "πινδαρος": 38,
  "παρω": 38,
  "παρεχουσιν": 38,
  "σοφωτερος": 38,
  "##δρου": 38,
  "μαχομενων": 38,
  "δοκιμαζ": 38,
  "περιτι": 38,
  "ληγ": 38,
  "καθαρσιν": 38,
  "##κορ": 38,
  "ατοπως": 38,
  "πονηρια": 38,
  "##βι": 38,
  "συμφοραν": 38,
  "λεγωσι": 38,
  "εκθεσιν": 38,
  "ζηλον": 38,
  "προσιοντος": 38,
  "φαρμακου": 38,
  "φιλοφρον": 38,
  "ορ": 38,
  "##μονος": 38,
  "ακρατω": 38,
  "μυριοις": 38,
  "##μολογ": 38,
  "ειλη": 38,
  "ουδετερω": 38,
  "κατεπ": 38,
  "φεγγος": 38,
  "ανδροφον": 38,
  "γνωριμος": 38,
  "σιτιοις": 38,
  "αδελφα": 38,
  "συγχει": 38,
  "##ερια": 38,
  "αφανισ": 38,
  "ασυμφων": 38,
  "αψυχου": 38,
  "προπο": 38,
  "##δουσα": 38,
  "##ρωσ": 38,
  "συντροφ": 38,
  "παρακαλει": 38,
  "αγυμν": 38,
  "υποδοχην": 38,
  "παιδευειν": 38,
  "διδασκαλων": 38,
  "κλεπτειν": 38,
  "ιματιου": 38,
  "ολας": 38,
  "##οτο": 38,
  "##υρο": 38,
  "περιουσια": 38,
  "χειρονι": 38,
  "αλλαχου": 38,
  "##μαρ": 38,
  "μεταβαινει": 38,
  "ατμιδος": 38,
  "ελαχιστου": 38,
  "κρατειται": 38,
  "ειληφε": 38,
  "αναπο": 38,
  "ανηρηται": 38,
  "τυγχανω": 38,
  "διαλεγομενου": 38,
  "αποδημ": 38,
  "λυσιτελει": 38,
  "τετραπουν": 38,
  "##ψα": 38,
  "δοξαζων": 38,
  "θεοδω": 38,
  "αρχομενω": 38,
  "ηγητεον": 38,
  "οξυτερον": 38,
  "σοφωτατον": 38,
  "ηναγκα": 38,
  "αντιληψεις": 38,
  "αναγκαις": 38,
  "περιεχομενα": 38,
  "##οτ": 38,
  "σκοπω": 38,
  "δοξαζει": 38,
  "τραγωδιας": 38,
  "γελως": 38,
  "στοιχ": 38,
  "επειγ": 38,
  "##αινομενα": 38,
  "τραπεζαν": 38,
  "εζ": 38,
  "αθλον": 38,
  "μελεσι": 38,
  "##ροιαι": 38,
  "ατρεμ": 38,
  "ησιοδου": 38,
  "ταχειαν": 38,
  "ατο": 38,
  "ουδεποτ": 38,
  "γεγενημενον": 38,
  "υφαιρ": 38,
  "ονει": 38,
  "μαλακου": 38,
  "##αινοντας": 38,
  "σαφη": 38,
  "παιδιων": 38,
  "ειποιεν": 38,
  "χαριτας": 38,
  "εμπιπτει": 38,
  "φιλοκερ": 38,
  "διαρθ": 38,
  "θαλασση": 38,
  "επερ": 38,
  "εδειτο": 38,
  "παρανομ": 38,
  "συναξει": 38,
  "παρεργον": 38,
  "επικλη": 38,
  "##ευομενα": 38,
  "πυνθανεσθαι": 38,
  "οφειλον": 38,
  "ενοικ": 38,
  "αγαμ": 38,
  "φλογι": 38,
  "συμφοραις": 38,
  "αναξηρ": 38,
  "λαγν": 38,
  "εραστην": 38,
  "ιουδαιους": 38,
  "ιδιωταις": 38,
  "αρτιως": 38,
  "γεωμετρικη": 38,
  "στηθος": 38,
  "##αστος": 38,
  "θειοις": 38,
  "##ρησε": 38,
  "μεγαλοψυχια": 38,
  "ευκινητον": 38,
  "πελ": 38,
  "τεταγμενως": 38,
  "συμμετρως": 38,
  "ουσαις": 38,
  "ασχολ": 38,
  "επιστημονικον": 38,
  "περιοδον": 38,
  "προτερ": 38,
  "τριτης": 38,
  "συμπεπ": 38,
  "απατα": 38,
  "αφρονας": 38,
  "εκλεκ": 38,
  "κρατεισθαι": 38,
  "ακολουθ": 38,
  "αμαρτιαν": 38,
  "ακρατους": 38,
  "αδικημα": 38,
  "##φθη": 38,
  "αναιρεσει": 38,
  "υλαι": 38,
  "κεκωλυ": 38,
  "ρησεις": 38,
  "αψεται": 38,
  "στομαχου": 38,
  "συμπεσ": 38,
  "αναιρουσι": 38,
  "αιματ": 38,
  "καλλιαν": 38,
  "προσθεσει": 38,
  "αμφορ": 38,
  "κλινη": 38,
  "κιβω": 38,
  "φυλαττει": 38,
  "κοιλω": 38,
  "μιγνυται": 38,
  "διαλαμβαν": 38,
  "γενικην": 38,
  "ευθειαι": 38,
  "εσωθεν": 38,
  "προστεθεντος": 38,
  "υστεραι": 38,
  "γεννωνται": 38,
  "θεασαι": 38,
  "επιμελε": 38,
  "αχρηστος": 38,
  "υπερβαλλων": 38,
  "διωνος": 38,
  "αισθανομενοι": 38,
  "##ασθω": 38,
  "περιτε": 38,
  "σπλαγχνον": 38,
  "θρασυς": 38,
  "χρησιμου": 38,
  "περισσα": 38,
  "επιτριτον": 38,
  "αποδεικνυσιν": 38,
  "πρ": 38,
  "μολυν": 38,
  "συναληθευειν": 38,
  "⌜": 38,
  "ολοκληρον": 37,
  "αμαρτανουσι": 37,
  "##αγει": 37,
  "φιλιππου": 37,
  "σεαυτω": 37,
  "ευλαβειας": 37,
  "αιτου": 37,
  "##γι": 37,
  "##μησε": 37,
  "ασιαν": 37,
  "ακουω": 37,
  "ηρακλεα": 37,
  "εκτετ": 37,
  "κραν": 37,
  "ηγεμονας": 37,
  "μεταστ": 37,
  "κυνηγεσι": 37,
  "θεμιστοκλης": 37,
  "ενδοξος": 37,
  "αθηναιος": 37,
  "##οψ": 37,
  "καταπλη": 37,
  "παλαιου": 37,
  "##ραφ": 37,
  "εκφορ": 37,
  "εοικας": 37,
  "ταξαι": 37,
  "##ραπ": 37,
  "οκν": 37,
  "ατιμιαν": 37,
  "##πισ": 37,
  "ανεφ": 37,
  "σημερον": 37,
  "ειδοτος": 37,
  "ηκον": 37,
  "αγοντες": 37,
  "θυσ": 37,
  "χαλκι": 37,
  "χιλια": 37,
  "παρουσι": 37,
  "υποστα": 37,
  "τεκνοις": 37,
  "αιτιαις": 37,
  "##λυθ": 37,
  "ετερωθι": 37,
  "εγγινεσθαι": 37,
  "παυεσθαι": 37,
  "αιωνιον": 37,
  "##αγον": 37,
  "εκτον": 37,
  "##ζομενην": 37,
  "ωρισμενην": 37,
  "##ηκο": 37,
  "καταμηνιων": 37,
  "γονιμον": 37,
  "στεγειν": 37,
  "##οντ": 37,
  "δεινοι": 37,
  "καταντικρυ": 37,
  "προλεγ": 37,
  "φασκοντων": 37,
  "χρηστους": 37,
  "ερεσθαι": 37,
  "ποιησω": 37,
  "επιμελειται": 37,
  "εμαθον": 37,
  "ψεγειν": 37,
  "##κτω": 37,
  "εισαγειν": 37,
  "αμυ": 37,
  "ιλιγγ": 37,
  "θαυμαζομεν": 37,
  "ποσι": 37,
  "χολ": 37,
  "ικ": 37,
  "λησ": 37,
  "ναυν": 37,
  "παρηγορ": 37,
  "οδυσσευς": 37,
  "ευλαβεισθαι": 37,
  "ψογου": 37,
  "βουλωμεθα": 37,
  "αγουσιν": 37,
  "κεχαρισ": 37,
  "αγεσθαι": 37,
  "ιερεις": 37,
  "αρξασθαι": 37,
  "μεταναστ": 37,
  "προσταττειν": 37,
  "τροφων": 37,
  "μελετων": 37,
  "υποστηναι": 37,
  "παντοδαπας": 37,
  "τελειοτατον": 37,
  "ελευθεροις": 37,
  "εστιαν": 37,
  "αλισκ": 37,
  "ειποιμ": 37,
  "παραλαβ": 37,
  "ησυχιας": 37,
  "ημισε": 37,
  "οφλ": 37,
  "αυχενα": 37,
  "εικονες": 37,
  "θαυμασιε": 37,
  "αδικηματα": 37,
  "προελθειν": 37,
  "παριστα": 37,
  "εκποδων": 37,
  "απται": 37,
  "δεξ": 37,
  "##ωτατα": 37,
  "συνιστησιν": 37,
  "ψαυ": 37,
  "διηρ": 37,
  "γενοιντο": 37,
  "αποδοκιμα": 37,
  "επιταττ": 37,
  "λω": 37,
  "ανοσιον": 37,
  "##πτεον": 37,
  "κερας": 37,
  "καθισταται": 37,
  "ασφαλειας": 37,
  "συνοντες": 37,
  "φανεροι": 37,
  "ενυλα": 37,
  "καθαρωτερον": 37,
  "καθηρ": 37,
  "περιουσιαν": 37,
  "##ζοιτο": 37,
  "κινηθη": 37,
  "αφεστη": 37,
  "περιλαβ": 37,
  "##μιων": 37,
  "ποιαι": 37,
  "δουλειας": 37,
  "αιων": 37,
  "μεγαλοπρεπεια": 37,
  "μεστον": 37,
  "διισχυ": 37,
  "τοιουδε": 37,
  "ορθα": 37,
  "διαλεξ": 37,
  "ραστον": 37,
  "νομισματος": 37,
  "σεμνοτερον": 37,
  "μιμουμενοι": 37,
  "γενναιως": 37,
  "συγκε": 37,
  "λογισμων": 37,
  "ενδ": 37,
  "υπολαμβανων": 37,
  "γεννωμενα": 37,
  "θρεμ": 37,
  "φευγουσιν": 37,
  "αποικιαν": 37,
  "φι": 37,
  "υπηρεσιας": 37,
  "μυκτηρ": 37,
  "αλκην": 37,
  "διαπερ": 37,
  "##ανη": 37,
  "δαιμονες": 37,
  "ομμασιν": 37,
  "τετραγων": 37,
  "νυκτας": 37,
  "συνδει": 37,
  "ειδωμεν": 37,
  "καταδυ": 37,
  "ατιμα": 37,
  "##ερχεται": 37,
  "##λησ": 37,
  "προσλαβον": 37,
  "##κισ": 37,
  "καταληφ": 37,
  "απαλλαγη": 37,
  "τυραννω": 37,
  "ευγενειαν": 37,
  "οικειοι": 37,
  "συγκιν": 37,
  "αποτελεισθαι": 37,
  "απιστ": 37,
  "##χθω": 37,
  "##ογον": 37,
  "##στας": 37,
  "συλλαμβαν": 37,
  "##μουν": 37,
  "κριθ": 37,
  "συκοφαντ": 37,
  "ευωχ": 37,
  "καινα": 37,
  "αλεκτο": 37,
  "ωνομασεν": 37,
  "υπερανω": 37,
  "τετρας": 37,
  "βεβη": 37,
  "##διαν": 37,
  "οπτω": 37,
  "ανοσ": 37,
  "προσελθ": 37,
  "ζε": 37,
  "απολαυσεις": 37,
  "διεψευ": 37,
  "ωρισμενος": 37,
  "##μητον": 37,
  "##χας": 37,
  "αληθεστατα": 37,
  "περατ": 37,
  "ιδιωμα": 37,
  "απλουστερον": 37,
  "σκεμμα": 37,
  "θεωρητικος": 37,
  "φυγης": 37,
  "αιδοια": 37,
  "νησους": 37,
  "βλαπτεσθαι": 37,
  "δεκτικην": 37,
  "υπολαμβανομεν": 37,
  "μεσοτητες": 37,
  "αγγειοις": 37,
  "εσχατος": 37,
  "γεννωσιν": 37,
  "νεωτεροι": 37,
  "πρωι": 37,
  "θελουσιν": 37,
  "νοσει": 37,
  "τικτει": 37,
  "παυει": 37,
  "αρχαιοι": 37,
  "μεταβαλλοι": 37,
  "πολυκλει": 37,
  "ενουσης": 37,
  "γονης": 37,
  "πλευραι": 37,
  "δεκτικα": 37,
  "κιτ": 37,
  "ανισους": 37,
  "φυσεων": 37,
  "ατομου": 37,
  "συντι": 37,
  "εληλυθεν": 37,
  "ειρημενης": 37,
  "ελεγχοι": 37,
  "επαναβ": 37,
  "ισχυει": 37,
  "φασις": 37,
  "σημαινη": 37,
  "παρατηρ": 37,
  "κατασβ": 37,
  "εγκρατειας": 37,
  "εξυ": 37,
  "πλευρι": 37,
  "ευδηλον": 37,
  "επιβαλλει": 37,
  "ενιστασθαι": 37,
  "ξηρ": 37,
  "ζεον": 37,
  "εντερον": 37,
  "μεταβασις": 37,
  "εκκρινεται": 37,
  "ιεʹ": 37,
  "τετραποδα": 37,
  "ελαιω": 37,
  "παρωνομα": 37,
  "διαλυσις": 37,
  "απεψιαν": 37,
  "φλακ": 37,
  "σομ": 37,
  "θερμοι": 37,
  "##χοτες": 37,
  "τηι": 37,
  "προθυμια": 36,
  "εκελευε": 36,
  "κεραμε": 36,
  "εκαλει": 36,
  "παυσασθαι": 36,
  "αργυρον": 36,
  "γελασας": 36,
  "οφειλομεν": 36,
  "ομιλειν": 36,
  "ευνους": 36,
  "απολιπειν": 36,
  "βουλομενου": 36,
  "λιπο": 36,
  "ουραν": 36,
  "περικλεους": 36,
  "συμμαχων": 36,
  "στρατιωτας": 36,
  "αναγινωσκειν": 36,
  "πολεμιοι": 36,
  "χορου": 36,
  "βροντης": 36,
  "εξελεγ": 36,
  "αναιρεσιν": 36,
  "προσηγορ": 36,
  "αυλους": 36,
  "αμελειν": 36,
  "προσεπ": 36,
  "##τισ": 36,
  "κριτην": 36,
  "##ψαμεν": 36,
  "συναγαγων": 36,
  "αλγηδονος": 36,
  "ασπασ": 36,
  "πεντεκαιδεκα": 36,
  "εμα": 36,
  "καθαραν": 36,
  "κολαζεσθαι": 36,
  "##ερως": 36,
  "δογμασιν": 36,
  "καθηγ": 36,
  "##αζομενων": 36,
  "βραχειας": 36,
  "εμφυτον": 36,
  "διατελειν": 36,
  "προεισι": 36,
  "αμορφον": 36,
  "αστροις": 36,
  "τυχωσι": 36,
  "συνηρμοσ": 36,
  "##μν": 36,
  "##φορον": 36,
  "##δρο": 36,
  "πεδια": 36,
  "σταδιων": 36,
  "εδρας": 36,
  "εμπεση": 36,
  "##ληψεις": 36,
  "##κριν": 36,
  "προιεσθαι": 36,
  "καθαρου": 36,
  "παραλυ": 36,
  "σωματικης": 36,
  "φυλ": 36,
  "θαυμαστως": 36,
  "##ριους": 36,
  "πεπεισ": 36,
  "χορος": 36,
  "ανεθ": 36,
  "διπλα": 36,
  "ορχ": 36,
  "συνεδ": 36,
  "γνοιη": 36,
  "εταιρον": 36,
  "αδυνατοι": 36,
  "γεωργια": 36,
  "##δημον": 36,
  "ερωτωμενοι": 36,
  "##ενοη": 36,
  "δελφοις": 36,
  "κινδυνων": 36,
  "συντεθεντα": 36,
  "##αζω": 36,
  "εναυ": 36,
  "δυσθ": 36,
  "θρυλ": 36,
  "##φω": 36,
  "ηθεσι": 36,
  "##ανει": 36,
  "εωσιν": 36,
  "επηρε": 36,
  "υπεχ": 36,
  "θεατρω": 36,
  "αηδες": 36,
  "##ωσεν": 36,
  "διδασκουσιν": 36,
  "σημαινεται": 36,
  "ενεγκειν": 36,
  "αιδι": 36,
  "ειμαρ": 36,
  "τεκμαι": 36,
  "ακροι": 36,
  "παρασκευη": 36,
  "εφιστα": 36,
  "κοιλης": 36,
  "αχιλλεως": 36,
  "πραος": 36,
  "##κτους": 36,
  "##οειδεις": 36,
  "αφροσυνην": 36,
  "καταμαθ": 36,
  "ακρι": 36,
  "επαχ": 36,
  "αναδιδασ": 36,
  "αυγ": 36,
  "##σοντο": 36,
  "καταλε": 36,
  "αιγυπτιοις": 36,
  "##ληπται": 36,
  "αφθαρτω": 36,
  "##χοι": 36,
  "##οδου": 36,
  "##ηκ": 36,
  "υστερι": 36,
  "##ορφ": 36,
  "κεκλασ": 36,
  "οσια": 36,
  "βραχει": 36,
  "διακο": 36,
  "αρρην": 36,
  "φθειρειν": 36,
  "τεφρας": 36,
  "πολεμους": 36,
  "τεφρα": 36,
  "φερομενης": 36,
  "εισιοντα": 36,
  "γυμν": 36,
  "##αινονται": 36,
  "ναυκλη": 36,
  "οικω": 36,
  "σιν": 36,
  "ειποιμι": 36,
  "##τιως": 36,
  "αχωριστ": 36,
  "εκινηθη": 36,
  "υποστη": 36,
  "ρεπ": 36,
  "καταλειπομενον": 36,
  "επιτηδειως": 36,
  "αποστρεφ": 36,
  "προσαγορευει": 36,
  "##ανθαι": 36,
  "αναμνησιν": 36,
  "##ηνα": 36,
  "επιτυγχαν": 36,
  "αλλαγ": 36,
  "εμπο": 36,
  "διαφευγειν": 36,
  "υποδεχ": 36,
  "##εργ": 36,
  "προσφερειν": 36,
  "απεραν": 36,
  "ποιημα": 36,
  "φθογγους": 36,
  "##σθαν": 36,
  "σκοτεινον": 36,
  "διαπεπ": 36,
  "##εραν": 36,
  "κερασ": 36,
  "μυκ": 36,
  "οχ": 36,
  "ανεστ": 36,
  "##κονται": 36,
  "ανδραποδω": 36,
  "##οτεραι": 36,
  "κατασκευαζων": 36,
  "μιαι": 36,
  "πιστου": 36,
  "αληθεστερον": 36,
  "ισοπλευρον": 36,
  "γλυκυς": 36,
  "γλυκεα": 36,
  "ερευν": 36,
  "ορει": 36,
  "συμβαινοι": 36,
  "προκαλ": 36,
  "πασχοντων": 36,
  "επιλελησ": 36,
  "ονομαζων": 36,
  "μουσαις": 36,
  "λου": 36,
  "##λιαν": 36,
  "δεδεγ": 36,
  "λειαν": 36,
  "υφη": 36,
  "παιδοποι": 36,
  "φιλοστοργ": 36,
  "ελθουσα": 36,
  "οπωρας": 36,
  "κινουσιν": 36,
  "πηλον": 36,
  "συγκα": 36,
  "ανελι": 36,
  "##ασια": 36,
  "αρυ": 36,
  "ελπιδι": 36,
  "επιφερομενον": 36,
  "ακουουσιν": 36,
  "ανακαλ": 36,
  "απαρχ": 36,
  "##αινουσα": 36,
  "αρθ": 36,
  "ρυσιν": 36,
  "συγκρισει": 36,
  "δικαστην": 36,
  "γραφεται": 36,
  "διαπεμ": 36,
  "πλεοναζον": 36,
  "##αξι": 36,
  "θεμιτον": 36,
  "##πτα": 36,
  "αφικηται": 36,
  "##ολογιας": 36,
  "##σματα": 36,
  "φαινομενην": 36,
  "συνυπαρχει": 36,
  "##θενται": 36,
  "αγωγην": 36,
  "##αζουσα": 36,
  "ενδο": 36,
  "διαρρηδην": 36,
  "δυσεις": 36,
  "συμβεβη": 36,
  "αριστοτελην": 36,
  "πεποιησθαι": 36,
  "δημοκ": 36,
  "χαραν": 36,
  "κειμενος": 36,
  "αμφισβητησις": 36,
  "σφοδροτερον": 36,
  "αποδιδοσθαι": 36,
  "##εροις": 36,
  "δυναστ": 36,
  "φθειρομενων": 36,
  "πεζα": 36,
  "##υμων": 36,
  "σαφηνειας": 36,
  "πρεσβυται": 36,
  "##τιων": 36,
  "πλεονεξιας": 36,
  "νομιζεται": 36,
  "λιθοις": 36,
  "συνηθ": 36,
  "ηδυνατο": 36,
  "##ασης": 36,
  "ενστασεις": 36,
  "ιστορια": 36,
  "λαχης": 36,
  "πομα": 36,
  "επιτιμ": 36,
  "σαφεστερα": 36,
  "ατομοις": 36,
  "διωνα": 36,
  "αδιαιρετων": 36,
[...]
